#version: 0.2
е н
t h
t i
с т
н о
th e</w>
e n
a n
o f</w>
i n
e r
р а
р о
r e
а н
ен и
р е
т о
н ы
л ь
a ti
o n
к о
п о
ц и
e d</w>
л е
i n</w>
a l</w>
r o
o n</w>
an d</w>
т е
i t
a r
ч е
o r
л и
р и
т и
s t
a t
i c
н а
a l
s i
в о
г о</w>
д о
л о
e s</w>
a s
d i
н и
че с
м е
в ан
с о
ны х</w>
en t
c o
б о
м о
a c
к а
т а
e c
п а
но й</w>
д и
п ро
р у
t o</w>
н е
l o
д е
d e
п е
s u
in g</w>
a s</w>
с и
в и
к и
но ст
ени я</w>
ван и
в ы
en t</w>
e s
з а
w it
wit h</w>
в а
ati on</w>
г и
в е
m p
p ati
ent s</w>
e r</w>
ст а
но го</w>
и с
o r</w>
m e
о б
л а
v e</w>
н а</w>
м и
м а
c h
л и</w>
u r
u n
a g
pati ents</w>
п ре
u l
м и</w>
e l
с ле
м ен
ic al</w>
i l
в л
p ro
re s
ч а
p er
c on
c l
i s</w>
ст в
чес ко
чес ки
a p
о т
ра з
t er
w as</w>
u s
г о
er e</w>
ени е</w>
p o
r i
то в</w>
и н
ци ен
l e
ци и</w>
па циен
те ль
и з
с я</w>
к и</w>
m ent</w>
х о
д а
a b
п ри
m o
ны е</w>
п и
ти в
ti on</w>
s e
i c</w>
a n</w>
f or</w>
l y</w>
л у
ст о
з о
f f
сле до
v e
it y</w>
с у
on s</w>
v i
a m
ч и
w ere</w>
л ю
s .</w>
t o
e x
с е
o u
u d
ност и</w>
a t</w>
t r
o l
c e</w>
co mp
ц е
п р
i s
н о</w>
n o
л я
p h
бо ле
г ру
g ro
щ и
бо ль
п о</w>
т ь</w>
следо вани
ф е
з у
a d
пр и</w>
n e
ф и
si s</w>
ло ги
т ся</w>
гру п
s p
пациен тов</w>
gro u
t s</w>
б ы
щ е
з и
o c
т а</w>
h e
во з
i f
ис следовани
l e</w>
s y
е м</w>
л я</w>
lo g
к а</w>
at ed</w>
ны м</w>
к тив
t re
ци о
q u
d er
2 0
a r</w>
ф о
я вл
i g
то р
ра н
те ри
f or
ан и
i d
о с
е т</w>
ст и
к у
ме то
as e</w>
d u
ле ч
ра с
b y</w>
л а</w>
ti c</w>
0 ,
o m
т ы</w>
ec ti
su r
ar e</w>
u m
th o
p res
груп п
а ль
v er
at e</w>
ль та
чески х</w>
н у
ны й</w>
h o
ан а
g en
д ля</w>
б и
co m
ре зу
резу льта
б е
ж и
tre at
на я</w>
e ar
е й</w>
c or
i m
ност ь</w>
н е</w>
b e
m a
т ро
i r
с ко
i o
p a
0 .
те ра
ро в
с ь</w>
g n
ст е
e m
ко н
ен ы</w>
en ti
ы .</w>
пе р
ро ван
st r
ц ен
з а</w>
ческо го</w>
ре д
г ен
w h
a f
t h</w>
ю щи
ti c
ческо й</w>
treat ment</w>
т у
e ff
si on</w>
en ce</w>
s c
ств ен
д ан
th er
з на
i mp
grou p</w>
ati ons</w>
но е</w>
м у
i z
л е</w>
e n</w>
ст и</w>
ag e</w>
ш и
вани я</w>
st ud
т о</w>
p re
p l
е тся</w>
s e</w>
о пе
ati ve</w>
к лю
ф фе
th at</w>
х и
t er</w>
т ра
d .</w>
ве д
к ли
as s
ве р
боль ных</w>
м п
о п
p ar
an t</w>
ди а
stud y</w>
m or
с си
en d
д а</w>
ени й</w>
пре д
м ы</w>
ф а
t ed</w>
цио н
ени и</w>
к с
но м</w>
опе ра
f ro
ж ен
fro m</w>
с лу
кли ни
h a
по ка
o b
di se
ti n
log ical</w>
es s</w>
cl in
sur g
ж е
on al</w>
л ь</w>
по с
ж д
э ффе
si gn
w e
по д
ther ap
но в
20 1
я .</w>
an al
g r
m on
по ль
о т</w>
t e
y .</w>
ы х</w>
ul ar</w>
s t</w>
th e
re c
тера пи
ны ми</w>
for m
ar y</w>
t ro
ж е</w>
ч то</w>
ou s</w>
пе ри
ана ли
su l
ис поль
т ри
v al
г ра
in c
an g
l i
di s
or s</w>
e p
с ред
m in
as es</w>
с пе
л о</w>
д у
en c
па ра
in f
es s
i al</w>
anal y
за боле
г а
o p
в ре
b o
t a
по л
ti m
ст ви
ш е
u s</w>
о д
th is</w>
clin ical</w>
du c
и .</w>
0 0
леч ения</w>
if ic
та к
lo w
к ро
af ter</w>
i ti
ра к
ac ti
ен о</w>
h i
но -
фо р
исполь зо
во й</w>
а р
cl ud
ль ной</w>
i t</w>
ени ем</w>
г е
ь ю</w>
b r
ф у
и з</w>
д о</w>
со б
то м</w>
u t
ени ю</w>
пос ле</w>
ve lo
ч ение</w>
ра ст
b e</w>
h y
f ac
re sul
un c
ну ю</w>
y ear
m s</w>
у ров
di ff
раз ви
ст ро
пре де
явл я
de velo
h ig
эффе ктив
мо ж
al l</w>
i a</w>
пока за
in ter
ю т</w>
о цен
ло ж
на ру
d ic
su b
v ed</w>
s er
in clud
б а
с а
e .</w>
re d</w>
я ни
es .</w>
sign ific
in e</w>
di ag
ра в
м а</w>
диа г
diag no
боле е</w>
н к
я х</w>
те р
on e</w>
с ни
слу ча
c a
ur e</w>
ци я</w>
al ly</w>
y p
f i
й .</w>
or y</w>
d s</w>
ра бо
лу ч
р ен
re g
re l
ко тор
при мен
в я
o per
ос нов
е .</w>
исследовани я</w>
as ed</w>
о р
therap y</w>
develo p
па то
an c
так же</w>
ств а</w>
on .</w>
an ti
v el
о преде
us e</w>
п си
u ro
р ги
ма тери
inc re
разви ти
не й
то ч
d r
ча ст
e t
u c
re s</w>
клю ч
me tho
воз раст
к си
фу нк
к е</w>
мето д
ecti ve</w>
п у
ност и
чески е</w>
матери а
v en
tr a
со ста
he al
хи ру
diff er
l ic
c ar
ме р
м у</w>
вы х</w>
grou p
ли ч
с а</w>
i th
ме ди
из у
an ce</w>
f unc
на б
ш а
in ed</w>
т ре
це ль</w>
ка р
d ur
val u
в се
sp ec
ка к</w>
ou t</w>
res p
на ль
1 ,
с ло
ic h</w>
по з
показа те
вы явл
к то
i d</w>
с рав
o s
resul ts</w>
year s</w>
1 0
к ле
ли чи
наб лю
ab il
про вед
ec h
э н
d a
an t
хиру рги
wh ich</w>
до в</w>
m an
i p
ab le</w>
s ho
ю тся</w>
терапи и</w>
во го</w>
во ди
зна чи
ne uro
1 0</w>
с вя
t ri
по сле
e d.</w>
диаг ности
ен о
i es</w>
a u
бы ли</w>
пред ста
t yp
ен а</w>
pa tho
dise ase</w>
групп е</w>
m at
р ы
в .</w>
d ec
ch o
ст ру
м ы
свя з
ре а
r on
d ing</w>
х а
po st
d at
1 .
per io
1 -
it s</w>
результа ты</w>
v ar
o un
ген е
ю ще
ва ли</w>
u m</w>
м .</w>
ко р
вани е</w>
с по
к о</w>
ex am
та ль
us ing</w>
sy st
не й</w>
г ла
l y
2 -
ци й</w>
m ent
ств у
д ро
us ed</w>
i r</w>
пре пара
поз во
вы со
об раз
ст ра
р а</w>
нару ш
d y
in g
ка че
т ь
vi d
л ения</w>
o d</w>
t en
я ми</w>
и х</w>
l u
ро в</w>
p e
n g</w>
in v
str uc
ющи х</w>
t u
no t</w>
ch ang
ro m
v er</w>
er s</w>
н и</w>
ко мп
из мен
be t
во с
ли сь</w>
метод ы.</w>
ста но
от ве
ен ных</w>
ля р
ки х</w>
dis or
ri s
т ен
de r</w>
си сте
w e</w>
пол н
oc i
con tro
ec tion</w>
по мо
me n</w>
сни ж
хо ди
tin g</w>
c h</w>
si ve</w>
el l</w>
v as
0, 0
po s
ч ной</w>
var i
al ity</w>
2 0</w>
ко в</w>
surg er
in ation</w>
surg ical</w>
ени е.</w>
хо д
результа т
ch il
ней ро
кон тро
l a
fac t
п ра
dat a</w>
re qu
в ли
th er</w>
ро вания</w>
analy sis</w>
c ases</w>
c er
групп ы</w>
ст у
ac ter
st u
ec t</w>
и ли</w>
pro c
ле т</w>
ле й</w>
ан ти
w or
заболе вани
2 ,
котор ы
v ity</w>
stu di
си н
th ere</w>
ка я</w>
де р
ту р
к ри
si b
ass oci
ti ve</w>
г у
ti onal</w>
f ir
помо щ
вы полн
п ла
oper ative</w>
срав н
mor e</w>
ос лож
вы ш
f e
f ol
dur ing</w>
t al</w>
m un
э кс
develop ment</w>
1 2</w>
bet we
hig h
по ло
b lo
ха рак
c ur
эн до
со сто
ch ar
ослож н
мо з
г а</w>
tr an
явля ется</w>
r a
ко й</w>
the ir</w>
vas c
betwe en</w>
su p
во д
p or
enc y</w>
el l
p sy
н ы</w>
ar ter
an d
опера цион
de ter
ани я</w>
мо р
ар тери
con si
е мо
group s</w>
вре мен
б у
ен ь</w>
disor der
signific ant</w>
чески й</w>
un der
o logical</w>
за ции</w>
ко м
соста ви
e st
ст ран
ва ть</w>
sy n
к ции</w>
ст ь</w>
es e</w>
предста вл
материа л</w>
т ки</w>
у хо
пре сси
es t</w>
от ме
heal th</w>
mo st</w>
г .</w>
ст во
comp lic
2 .
и м
ла сь</w>
dec re
те й</w>
т я
пе ре
gen e
исследовани е</w>
анали з</w>
0. 0
ul ation</w>
co p
меди ци
в о</w>
c ent
воз мож
к е
а ктив
f ic
об ла
imp ro
про це
стано вл
о логи
e valu
отве т
w ith
т р
deter min
th an</w>
де й
пато логи
ли тель
за ключ
ha ve</w>
3 0</w>
th ese</w>
чес ки</w>
ve l</w>
in dic
х ро
ни х</w>
ris k</w>
развити я</w>
л ен
wh o</w>
к ти
ou t
i i</w>
ж а
b er</w>
м е</w>
раз лич
о соб
to m
es ti
ло сь</w>
се р
includ ed</w>
chang es</w>
ut e</w>
пери о
к у</w>
b u
состо яни
t w
ass ess
me d
c y
u g
iz ation</w>
a st
х .</w>
заключ ение.</w>
и ме
ств о</w>
особ ен
com b
ч ения</w>
п а</w>
diagno s
9 5</w>
ap h
у ве
про води
le vel</w>
m ic
log y</w>
к ра
ди на
ци аль
в у
со ответ
blo od</w>
surger y</w>
ческо е</w>
iz ed</w>
h as</w>
ap pro
chil d
с со
оп ухо
чески м</w>
о бо
contro l</w>
oun d</w>
perio d</w>
3 ,
ри с
л ан
цио наль
ti ons</w>
char acter
in to</w>
не в
че ре
m ul
син дро
про г
comp le
ши х</w>
результат ы.</w>
дей стви
ме жд
e -
ч ис
associ ated</w>
sho w
от но
ма ти
вы ра
t um
к ан
наблю д
к ла
ati c</w>
ma in</w>
сте п
ени я.</w>
k e</w>
5 0</w>
ha d</w>
vasc ular</w>
eff ic
со су
медици н
ст в</w>
1 9
ъ е
х ран
tic s</w>
fol low
за ви
disorder s</w>
ы ва
lo w</w>
b io
пси хо
n um
er al</w>
гра фи
p ri
з е
е в</w>
a .</w>
m al
ми кро
3 .
до л
per form
ch ron
l l
ма ль
ex per
у сло
рабо т
ско й</w>
w ell</w>
им му
р т
y s</w>
в ме
ac h</w>
ob ser
щ а
э пи
ph y
с с
n o</w>
re n</w>
1 5</w>
ec ts</w>
vi e
b ased</w>
c an</w>
дан ные</w>
re e</w>
т ран
med ical</w>
ch em
ц ени
cl e</w>
е е</w>
it er
су ще
комп ле
child ren</w>
im mun
де тей</w>
ци ю</w>
по луч
diagno sis</w>
20 0
на и
gr aph
стру к
по лу
4 ,
c r
p r
co un
e m</w>
on g</w>
com m
о цени
об ще
mon th
t ech
выра жен
мен ь
че т
бы ло</w>
ti s
н я
a me
reg i
hig h</w>
o ph
tr ac
ati on.</w>
стро й
ста ти
боль ш
ци ей</w>
ка з
ф из
h t</w>
ec ted</w>
ш ка
дина ми
част от
го ло
m ar
al s</w>
зави си
l if
psy cho
pati ent</w>
chron ic</w>
re duc
de p
u res</w>
про стран
comp ar
id enti
syn d
вани ем</w>
хро ни
typ e</w>
ди с
ent s.</w>
pro g
lo c
м ых</w>
боле з
т и</w>
ко ли
a v
м я</w>
ac c
вли яни
pos sib
num ber</w>
заболе вания</w>
ar ti
про те
po si
к ры
ен и</w>
з до
б ро
кор ре
hy per
з ы</w>
abil ity</w>
w o
з д
ност ью</w>
2 5</w>
mic ro
по ли
д ен
post operative</w>
по выш
э ти
differ ent</w>
г ни
е го</w>
не об
ани е</w>
в ну
н я</w>
мо сти</w>
спо соб
metho ds</w>
межд у</w>
до сто
до ста
sy mp
sp it
фа кто
образ о
s o</w>
f requ
чес кая</w>
позво ля
ac cor
6 ,
d o
analy z
фи ци
ор г
s ec
tic al</w>
ati on
а л
bo th</w>
4 .
тя же
рас с
ра ж
ip i
in al</w>
досто вер
ж из
g o
ле т
зи рован
dise ases</w>
st s</w>
a red</w>
ку ляр
vel y</w>
5 -
n i
5 ,
эффектив ности</w>
includ ing</w>
ant ly</w>
коли че
жи тель
or t
at es</w>
не м</w>
ati ng</w>
л ы</w>
fir st</w>
р я
до м</w>
ст ре
после операцион
in j
м но
у луч
n on
sc ri
чере з</w>
7 ,
6 0</w>
но в</w>
необ ходи
рас строй
ж да
incre ase</w>
ль ных</w>
acti vity</w>
э то
at ory</w>
ac ute</w>
ме три
дан ных</w>
or g
те чение</w>
го да</w>
tim e</w>
re h
та ции</w>
в клю
в а</w>
ло ве
synd rom
аль ной</w>
v enti
бы ла</w>
су т
ша тель
че лове
s h
con di
вре мя</w>
e d
ско пи
вме шатель
3 -
syst em</w>
r us
be en</w>
ac h
все х</w>
ан из
tis su
pati ents.</w>
от де
eff ect</w>
1 8</w>
оцен ки</w>
к ров
e ar</w>
a in</w>
on g
k ing</w>
perform ed</w>
m y
мож ет</w>
wo men</w>
1 9</w>
to tal</w>
случа ев</w>
мо й</w>
про фи
компле кс
et y</w>
se ver
ag ed</w>
l am
би ли
т кан
на личи
ati s
tw o</w>
l ar
er o
па ти
fact ors</w>
з е</w>
ва ри
а в
ста ть
рас простран
mor ph
metho d</w>
мп то
ствен но</w>
опера ции</w>
al so</w>
ко то
ati onal</w>
фор ми
u b
n am
0, 00
6 .
вани и</w>
бе з</w>
о н
complic ations</w>
у становл
b le
л ся</w>
signific antly</w>
e y
comp ared</w>
1 4</w>
про ти
ен ные</w>
пока з
тель но</w>
с о</w>
ста р
сто я
с во
hi st
которы е</w>
ti s</w>
di o
вы е</w>
resp on
me di
4 0</w>
sc al
pres sion</w>
o ther</w>
mul ti
accor ding</w>
ки м</w>
a re
жен щи
5 .
v ing</w>
ч ных</w>
ль ко</w>
ми и</w>
s s</w>
re ve
ре ги
оцен ка</w>
си мпто
n or
cent r
c are</w>
цен тра
co gn
ющи е</w>
вл я
ро вание</w>
studi es</w>
s a
dep end
u p
th y</w>
iti es</w>
м о</w>
u p</w>
ку ю</w>
c ell
му ж
il l
л ение</w>
al l
or al</w>
de scri
ль ного</w>
ма то
котор ых</w>
consi der
стати сти
об е
гра м
ul d</w>
ac y</w>
помощ ью</w>
8 ,
10 0</w>
та м</w>
st ro
о к
re vie
че м</w>
ств е</w>
с пи
7 .
re f
o x
il e</w>
cur r
cer e
кро во
en si
on ly</w>
ent al</w>
month s</w>
пациен та</w>
g i
ме та
ме с</w>
2 4</w>
ш ение</w>
ци и.</w>
на р
form ation</w>
наи более</w>
dy nam
п рак
ност ей</w>
в ного</w>
org an
resp ecti
ми о
ear ly</w>
ни й</w>
syndrom e</w>
eff ecti
возраст е</w>
t ure</w>
c ase</w>
syst em
ги пер
decre ase</w>
кров и</w>
ин су
зо м</w>
тран с
я т
эффектив ность</w>
физ и
про б
ad e</w>
наблю да
би о
вос па
f ound</w>
e i
фор ма
об следо
м бо
s o
rus si
прак ти
то к</w>
arti cle</w>
фе к
at ure</w>
харак тери
in s</w>
high er</w>
out com
1 1</w>
д ру
a d</w>
из о
ви д
то ри
co ur
п ло
s om
не го</w>
ag es</w>
s ti
об зо
исследовани я.</w>
inf lam
an e
ре сси
женщи н</w>
de t
ho spit
по раж
au th
в с
t e</w>
in tra
э ле
э та
pres ent</w>
ст ан
par ame
чески ми</w>
ци а
ни з
t or</w>
end o
моз га</w>
исследовани й</w>
ви ру
g e
ven ess</w>
уров ень</w>
le vel
symp to
qu ality</w>
с мер
ос но
ро ва
ми .</w>
дер ж
m is
па с
леч ение</w>
мо в</w>
та к</w>
ля ции</w>
pres ent
an ts</w>
примен ения</w>
b a
связ ан
ме х
в ра
но р
оп ис
with out</w>
уров ня</w>
ма р
res sion</w>
перио д</w>
ter s</w>
ст ри
тив ных</w>
с ро
8 .
rec ei
1 6</w>
фи ка
у мень
т ной</w>
отме ч
о хран
exam ination</w>
r en
ma y</w>
h er
character is
1 7</w>
ни тель
func tion</w>
ген о
incre ased</w>
сосу ди
w ent</w>
res ear
сравн ению</w>
p ub
ap pl
мор фо
si st
vari ous</w>
under went</w>
от сут
low er</w>
ствен ных</w>
reve al
к тор
abil it
но му</w>
cl u
т ру
об ъе
ic s</w>
enc es</w>
ле н</w>
ech an
k s</w>
l ong
1 3</w>
стать е</w>
cogn iti
ст ен
систе мы</w>
s el
ро д
ac t</w>
ен ной</w>
bu t</w>
0. 00
ur al</w>
то лько</w>
осложн ений</w>
групп а</w>
tran s
б ли
ци то
inv esti
investi g
ко -
b ro
та ми</w>
di st
чи н</w>
имму но
доста точ
tom y</w>
ч ного</w>
р е</w>
in ing</w>
func tional</w>
a ir
об следовани
effecti veness</w>
возраст а</w>
en s
a il
po p
me as
en o
in di
cogniti ve</w>
тур ы</w>
2 1</w>
показате лей</w>
ко гни
i de
for e</w>
obser ved</w>
юще й</w>
усло ви
ст ва
вклю ча
i ed</w>
ла кти
и ше
в ключ
ско го</w>
мо де
ve ment</w>
p er</w>
зд ра
бы л</w>
ц а</w>
мето ди
здра во
p 0.0
mo der
4 -
клини ческих</w>
d om
du e</w>
т е</w>
со времен
ig ht</w>
effic acy</w>
br al</w>
non -
диагности ки</w>
гене ти
pe op
здраво охран
g l
l at
c i</w>
д литель
da y</w>
v al</w>
gen er
р ения</w>
проб ле
те х
вер х
со чет
e u
степ ени</w>
st atis
rel ated</w>
про грам
he ar
e ment</w>
рис ка</w>
ги по
б ла
эффе к
пациен ты</w>
br ain</w>
st age</w>
ц а
in t
sec on
v es</w>
m echan
т ных</w>
si ons</w>
fi ed</w>
me an</w>
груп па
sympto ms</w>
до сти
ar d</w>
ин ы</w>
ан а</w>
не р
pa in</w>
сле ду
ро с
m il
cour se</w>
использо ванием</w>
ob ta
as t</w>
su ch</w>
ou r</w>
m a</w>
различ ных</w>
mo de
жиз ни</w>
при зна
- 1</w>
ven tion</w>
graph y</w>
пра вл
a ff
сред и</w>
sever ity</w>
parame ters</w>
m al</w>
сниж ение</w>
о стро
e p</w>
тра в
reveal ed</w>
m ents</w>
ли тера
reh abilit
enti al</w>
auth ors</w>
y -
o ver</w>
e v
я м</w>
профи лакти
imp ort
g e</w>
s cop
pri m
se v
ob j
th y
s k
level s</w>
а д
ni qu
результа тов</w>
до сту
tech niqu
f in
0,0 5</w>
обла сти</w>
fe at
pl as
inj ur
ти па</w>
де пресси
ть ся</w>
possib le</w>
l is
у да
ol d</w>
на ча
функ циональ
n ec
де л
ван ы</w>
нев ро
ment .</w>
dr ug
d e</w>
di sc
изу чение</w>
бе зо
измен ения</w>
am ong</w>
a i
то в.</w>
полу ча
ви де
posi tive</w>
ent ly</w>
в ен
э к
st and
мето дом</w>
revie w</w>
пер ви
а у
l in
хирурги ческого</w>
ме ст
n er
g u
ли зации</w>
assess ment</w>
опреде ля
par tic
me t
ло в</w>
а к
пери од
ре ко
prim ary</w>
с я
с ких</w>
r ate</w>
feat ures</w>
д и</w>
оп ти
безо пас
st ate</w>
for m</w>
после д
логи ческих</w>
ан е
peop le</w>
eff ective</w>
pro te
спе ктив
стан да
реа били
рован ных</w>
ло ка
v ic
леч ении</w>
ени ями</w>
рас т</w>
po ly
ti es</w>
воз раст</w>
man if
заболевани й</w>
s af
l iter
ка х</w>
ки .</w>
mor t
vi r
sev ere</w>
pro ble
ne w</w>
ста ди
v it
i or</w>
es tim
0 -
к тро
lif e</w>
t -
st a
m us
c c
наруш ений</w>
к ре
про ве
реко мен
resear ch</w>
re por
ма три
d -
це п
ле г
3 5</w>
w he
сто й</w>
u g</w>
sur e</w>
дру ги
vid ed</w>
ро ст
мето дов</w>
мех аниз
пси хи
мо сть</w>
ti on
зи и</w>
hy po
ческо м</w>
те ли
tum or</w>
про явл
ва с
mar k
dr ug</w>
s ch
is m</w>
связ и</w>
ic ation</w>
ш ения</w>
frequ ency</w>
кри тери
а ссо
id ence</w>
о ста
х ся</w>
об ра
групп у</w>
st at
spec if
stro ke</w>
car ri
9 ,
ver age</w>
2 3</w>
бы ть</w>
n al</w>
т вер
w a
l im
da ys</w>
om a</w>
en g
appro ach</w>
ц ы</w>
tho se</w>
show ed</w>
c u
th ro
об нару
вну три
evalu ate</w>
кото ро
2 2</w>
ver y</w>
чес кую</w>
ка за
е мых</w>
in de
состави ла</w>
f r
не е</w>
ч но-
показате ли</w>
ни ж
i -
с .</w>
comple x</w>
функ ции</w>
ми ни
ac hi
и мп
o l</w>
ди о
rehabilit ation</w>
чи ть</w>
as es.</w>
ac tion</w>
поло житель
вы бо
scal e</w>
per s
тро мбо
проце с
мо тр
manif est
inv ol
c ul
фо не</w>
ad di
ter m</w>
diagnos tic</w>
8 0</w>
ише ми
анали за</w>
воз ни
fic ation</w>
распростран ен
si s.</w>
i ency</w>
явля ются</w>
по жи
l ess</w>
d on
го д
di ab
cell s</w>
тель ных</w>
obta ined</w>
de mon
ко не
demon str
0 0</w>
зависи мости</w>
s es</w>
mort ality</w>
та .</w>
cy to
be fore</w>
н ен
ко ро
ин тер
г ли
f -
т ности</w>
wor k</w>
я ви
me dic
с к
помощ и</w>
позволя ет</w>
т ы
ин тра
c anc
ин де
f u
отсут стви
диаг но
э кто
c d
период е</w>
st er
по вре
в лен</w>
is ms</w>
characteris tics</w>
ва ж
ю .</w>
recei ved</w>
cor rel
p ur
3 6</w>
as s</w>
проти во
не достаточ
вс е</w>
therap eu
specif ic</w>
x i
состояни я</w>
к с</w>
воспа литель
в ших</w>
comb ination</w>
pro gr
n ational</w>
ol ic</w>
гу т</w>
статисти чески</w>
жи ва
ve n</w>
pl ac
в ной</w>
t est</w>
an s</w>
фа р
голо вного</w>
n ing</w>
тив ного</w>
7 0</w>
про дол
д ву
inf lu
же лу
i ii</w>
ки е</w>
tissu e</w>
по в</w>
vi su
g re
тель ной</w>
ли ц</w>
ment al</w>
ро сси
dur ation</w>
выявл ено</w>
tin al</w>
th rom
раз работ
пр я
в не
изу ч
immun o
b er
мо гут</w>
актив ности</w>
бе р
y ear</w>
compar is
therapeu tic</w>
cor rec
9 .
факто ров</w>
муж чин</w>
вед ения</w>
ани и</w>
st e
il ity</w>
el ec
s -
од на
одна ко</w>
ко ст
e g
мар ке
инсу ль
b i
сред ний</w>
на правл
c al
вари ан
con t
comb ined</w>
ч ни
ги сто
cere bral</w>
tic ally</w>
patho gene
со циаль
s oc
c ir
mat ory</w>
ин фек
ho we
arter y</w>
4 5</w>
те м</w>
ре ци
на се
ки й</w>
howe ver</w>
л ых</w>
ин ва
б ра
is chem
1- й</w>
phy s
клини ческой</w>
comm on</w>
действи я</w>
6 -
dy s
ph ar
typ es</w>
ку р
здравоохран ения</w>
т ного</w>
ба л
inflam matory</w>
повре жд
sho uld</w>
фа ктор
на стоя
п ти
ис следо
и д
2 8</w>
здо ро
ro le</w>
ре зе
со в</w>
ни м</w>
б ы</w>
n ess</w>
2 7</w>
pre val
2- й</w>
г ло
бла го
indi vi
acti ve</w>
s ed</w>
indivi du
щ е</w>
наблюд ения</w>
comparis on</w>
основ ной</w>
ро вать</w>
inde x</w>
exam in
1 8
представл ены</w>
влияни е</w>
це ль
зна ч
su ff
dynam ics</w>
примен ение</w>
ab s
ству ет</w>
пла сти
о каз
russi an</w>
па ро
каче стве</w>
indic at
цион ных</w>
основ е</w>
д ви
f o
7 5</w>
де н</w>
y ing</w>
tr y</w>
s in
pro duc
mat er
по ста
эле ктро
п ан
спе к
случа ях</w>
with in</w>
9 0</w>
дан ным</w>
carri ed</w>
ро м</w>
проводи ли</w>
обе спе
achi e
ен ного</w>
id e</w>
obj ective</w>
во про
po t
p at
- term</w>
v ation</w>
ло м</w>
болез ни</w>
liter ature</w>
drug s</w>
con duc
ющи м</w>
препара тов</w>
под хо
ис ход
c ap
patho logical</w>
f em
el y</w>
прог ресси
ком би
cr iter
ass ess</w>
пара ме
iti s</w>
х е
раз личи
au to
pres ence</w>
юще го</w>
логи ческого</w>
лан та
з ной</w>
аль ного</w>
пациен там</w>
whe n</w>
exper i
enti ng</w>
кле ро
o d
met ab
l as
экс пресси
ri c</w>
k in
3 2</w>
препара та</w>
s le
f oc
as al</w>
ли м
d ro
реци ди
th ree</w>
sub j
особен ности</w>
ка ль
p ap
ис хо
bo d
ко го</w>
сто ро
виде тель
in i
inc idence</w>
imp l
мно го
ге мо
outcom es</w>
рован ной</w>
ни м
ле кар
preval ence</w>
descri b
3 4</w>
рабо ты</w>
w n</w>
су б
на льной</w>
ж ения</w>
s hi
ли за
en s</w>
ag ing</w>
позво ли
настоя ще
кле точ
in ten
ро го
proc ess
import ant</w>
cl ero
провед ено</w>
l s</w>
6 5</w>
2 6</w>
э том</w>
синдро ма</w>
с видетель
se qu
l ac
ги о
develop ed</w>
ar di
3 1</w>
de f
т рен
коне ч
v ol
we e
h um
am e</w>
аль ных</w>
у ч
я ти
под твер
в ши
в за
орг ани
si a</w>
вл ения</w>
re comm
pop ulation</w>
inter venti
ствен ной</w>
же ле
группа х</w>
по тре
отме ча
мо графи
щи х</w>
наруш ения</w>
на х</w>
g lo
disc us
дан ной</w>
ab or
щ ения</w>
кле ток</w>
да ль
мы е</w>
ex p
го ри
min i
eff ects</w>
и мо
sign s</w>
o f
ка .</w>
во ро
stand ard</w>
determin e</w>
el der
cor on
c ri
a ro
оцени ть</w>
ш у
st ed</w>
hyper ten
ad v
il y</w>
пе ч
l es</w>
f lu
d ed</w>
1 7
тор ных</w>
наличи е</w>
ау то
c ell</w>
р ной</w>
кла сси
ча сти
ствен ного</w>
f t</w>
car dio
bod y</w>
ци и
расс матри
m ed</w>
фика ции</w>
ле таль
de fic
е ди
r h
an xi
вза имо
e mo
хи ми
differ ences</w>
lis h
измен ений</w>
каче ства</w>
г мен
o ver
a in
assess ed</w>
со держ
е й.</w>
кон центра
да .</w>
s m
oc y
ec tomy</w>
1 5
шка ле</w>
эти х</w>
услови ях</w>
опухо ли</w>
f ur
a m</w>
достовер но</w>
выш е</w>
impro vement</w>
exam ined</w>
di vided</w>
con fir
a verage</w>
me tri
g g
тор ы</w>
т -
примен я
un der</w>
ic ally</w>
4 8</w>
ти ческой</w>
ре мен
де б
sa mp
di rec
4 2</w>
2 9</w>
медицин ской</w>
3 3</w>
но логи
д р
в з
о ст
гене ра
соответ ственно</w>
об су
ра ми</w>
s co
pa th
ex pression</w>
con centr
использо вания</w>
воз ра
ло го</w>
ка ми</w>
то й</w>
в е</w>
ан о</w>
proc ess</w>
а п
imp air
coun tri
ла бо
a c</w>
in iti
al -
со бо
сер де
show n</w>
elder ly</w>
canc er</w>
tum ors</w>
p ul
al ization</w>
ци фи
про анали
прог но
бо ли
mechan isms</w>
эпи ле
чис ле</w>
че б
ти ческих</w>
по зи
studi ed</w>
ly mp
гра ни
mo tor</w>
d am
curr ent</w>
харак тер
спе цифи
ност и.</w>
y n
us es</w>
respecti vely</w>
clu sion</w>
appro ach
res s</w>
ко но
te mp
ч у
к ло
patho logy</w>
ко м</w>
t .</w>
установл ено</w>
ri g
condi tions</w>
c at
при води
тре во
p anc
mo l
характери сти
ны х.</w>
ey es</w>
здо ров
e ach</w>
э то</w>
про из
по тен
r ang
po in
б а</w>
g ast
r ic
у ль
то ни
т ча
станда рт
ли ру
за .</w>
reduc tion</w>
pre dic
оп ы
som e</w>
re mo
ing s</w>
тель ного</w>
treat ment.</w>
gro w
est ab
ща я</w>
мо м</w>
вос становл
больш ин
os cop
long -term</w>
уве лич
те ла</w>
струк тур
е с
выявл ены</w>
раз а</w>
present ed</w>
ш е</w>
в стре
ven ous</w>
ma x
m id
determin ed</w>
p 0.00
де фици
tu res</w>
k e
il ep
b ac
получ енные</w>
о ри
ation s.</w>
ассо ции
tre ated</w>
to x
p le</w>
цель ю</w>
емо сти</w>
r an
од но
литера туры</w>
decre ased</w>
sc i
heal thy</w>
отмеч ено</w>
о про
г лу
morph ological</w>
ш ей</w>
h or
к ци
stat us</w>
pa thy</w>
neuro logical</w>
year s.</w>
ep ilep
частот а</w>
ре гу
опреде л
diab et
chem ical</w>
b it
sle ep</w>
re .</w>
le ad
та х</w>
vel y.</w>
su p</w>
fur ther</w>
at o
ко го
tim es</w>
c lo
as e.</w>
ффе рен
з ного</w>
wh ile</w>
panc re
as si
то го</w>
пе в
мо ло
г и</w>
s ol
are a</w>
тив ной</w>
м м</w>
ur r
пациен тов.</w>
ва я</w>
phy si
вы м</w>
s y</w>
ста ту
а ор
s it
м к
да р
вы з
throm bo
m .</w>
al low
recomm end
prog no
m i
a mp
тера пев
от да
б р
inf ection</w>
ф р
лет .</w>
moder n</w>
appl ication</w>
рован ного</w>
насе ления</w>
soc ial</w>
sch iz
rec urr
контро льной</w>
б ри
ab out</w>
ре с
пери мен
ван ных</w>
il -
id s</w>
en d</w>
со хран
m m</w>
от кры
мето да</w>
диа бе
встре ча
ан ы</w>
saf ety</w>
pro f
consider ed</w>
00 0</w>
ени й.</w>
visu al</w>
патологи и</w>
до пол
struc ture</w>
3 7</w>
н ной</w>
e vid
н ти
ul ar
m r
diagnos ed</w>
6 7</w>
c ep
pro vid
l ine</w>
уве личи
сто й
мо ни
мен ее</w>
ди фферен
ген а</w>
per i
ic i
ang io
соста вля
о суще
к ру
здоров ь
thy ro
follow -
comp on
материа лы</w>
зи ру
c re
a k
ш изо
отно ш
secon d</w>
ecti ons</w>
phys ical</w>
m ac
тель ности</w>
морфо логи
желу до
д ней</w>
все м</w>
loc al</w>
t en</w>
rel ation
b one</w>
чу в
цион ной</w>
бе л
relation shi
hospit al</w>
значи тель
дел ены</w>
e mp
ме ж
це ре
го спи
re sist
de g
эта п
отно си
и му
s ity</w>
identi fied</w>
nec ess
по че
requ i
de pression</w>
которы м</w>
использо вание</w>
coron ary</w>
co ll
ст ено
прове ден</w>
ин ди
включ ены</w>
тен си
respecti vely.</w>
pre vention</w>
a mo
экс перимен
statis tically</w>
pres ents</w>
ne g
4 4</w>
ча ще</w>
ени ях</w>
nor mal</w>
тех нологи
ству ют</w>
с но
про во
ro ti
deg ree</w>
al ized</w>
метод ы</w>
c e
lish ed</w>
челове к</w>
иму ще
t ors</w>
qu esti
op tim
gene tic</w>
gen ic</w>
tra um
t es</w>
s ame</w>
m ade</w>
ing .</w>
criter ia</w>
ин форма
ин тенси
возни к
pro t
diabet es</w>
3 9</w>
fact or</w>
те чения</w>
ро вали</w>
с т</w>
пре имуще
4 3</w>
man ag
cor ne
уве ли
ti on.</w>
progr am
hear t</w>
че лю
сти му
ки сло
влияни я</w>
se t</w>
e t</w>
ь .</w>
form s</w>
рован ы</w>
ла зе
ла га
su cc
me try</w>
и сто
возмож ности</w>
увели чение</w>
но .</w>
жи во
sur ve
su gg
об усло
po se</w>
терапи я</w>
провед ения</w>
моз го
мо н
даль ней
res ection</w>
di d</w>
v o
се тча
предста влен</w>
по в
pap er</w>
pl a
demonstr ated</w>
ство м</w>
multi ple</w>
ли ть</w>
metri c</w>
рассматри ва
груп п</w>
болез н
с лож
рис к</w>
кс а
вы яви
indicat ors</w>
en ing</w>
de pres
это й</w>
то ми
клини ко-
х а</w>
ad mini
рого ви
вмешатель ства</w>
р ы</w>
уров нем</w>
к .</w>
li ver</w>
follow ed</w>
n s</w>
gen e</w>
п ле
изу чить</w>
thro ug
meas u
correl ation</w>
y s
con tin
п л
на ми</w>
исследовани и</w>
зна чение</w>
ma j
ткан и</w>
ин те
anxi ety</w>
b ur
количе ство</w>
при ят
ни е</w>
tran sp
ци тов</w>
реабили тации</w>
er g
5 5</w>
хрони ческой</w>
сер д
продол житель
в ено
techniqu e</w>
cu lo
co l
character ized</w>
экс пер
ста цио
e qu
фар ма
би ологи
ic e</w>
end oscop
ve g
cl assi
но вых</w>
me m
м ис
ка ж
follow ing</w>
impro ve</w>
мо мен
до ми
благо прият
f y</w>
тре бу
б п</w>
therap y.</w>
hum an</w>
oph ren
injur y</w>
el i
f er
5 6</w>
т .</w>
по нен
вод я
k no
чув стви
са мо
ре г
в ных</w>
ав торы</w>
g er
a de
челове ка</w>
сле д
артери и</w>
schiz ophren
c t</w>
терапи ю</w>
с ы
вну трен
pres enting</w>
pos ed</w>
пато гене
m e</w>
у част
то кси
s ensi
con struc
4 6</w>
фи бро
состояни е</w>
систе м
вас куляр
ан гио
p s</w>
p ec
ox id
l ap
anc es</w>
про ду
при ня
лабо ра
valu es</w>
st ages</w>
sp ective</w>
то ров</w>
ри з
min im
расстрой ств</w>
при яти
представл я
опреде ления</w>
д ы
t on
s tim
ne ed</w>
influ ence</w>
det ected</w>
centr al</w>
ш ен
мо ле
ле чеб
tr as
roti d</w>
го в</w>
ra di
glo b
neg ative</w>
elec tro
5 3</w>
ком понен
follow- up</w>
co vid
analyz ed</w>
3 8</w>
1 6
результат е</w>
по до
the y</w>
on om
covid -
у каз
по ст
пер ен
леч ения.</w>
inv a
he mo
do se</w>
c ases.</w>
те лей</w>
осно вании</w>
высо кой</w>
ня я</w>
мы ш
av ail
ро ль</w>
interventi ons</w>
сравн ения</w>
ор га
si on.</w>
r s
countri es</w>
у че
повыш ение</w>
оцени вали</w>
во м</w>
evalu ation</w>
ц о
опе ри
мета боли
l abor
gen eral</w>
fi bro
ля ми</w>
в ним
сс ы</w>
реги о
осуще ст
a th
срав нитель
зу бо
respon se</w>
г г.</w>
at h</w>
эндо скопи
обзо р</w>
y oun
ur b
le sions</w>
развити е</w>
по вы
особен ностей</w>
тру д
струк ту
рекомен да
артери й</w>
re st
manifest ations</w>
en z
7 -
т ра</w>
ре ти
пра ви
о те
е ся</w>
вли я
ischem ic</w>
л ы
sub st
ser vic
я з
ши ро
обследо ваны</w>
th al
si z
it or
el ial</w>
d ental</w>
ca rotid</w>
м ени
process es</w>
ствен ные</w>
потре б
м р
imp le
b as
то л
мето д</w>
anti -
h el
са х
опреде ление</w>
на у
контро ль
oc ardi
contin u
виру с
mid d
0,00 1</w>
при вед
н ных</w>
ане в
re tro
це ле
проанали зирован
выполн я
psy ch
o logy</w>
group .</w>
exper im
то мографи
стано ви
ли ча
ко л
пла з
пе ред
reduc ed</w>
manag ement</w>
ско м</w>
sur vi
r at
де ми
ig h
gr af
со прово
з ло
д ной</w>
re ma
mol ec
связ ь</w>
опера ций</w>
му ль
ma co
l ic</w>
состави л</w>
мио кар
car di
с на</w>
примен ением</w>
f low</w>
з рения</w>
ви зу
imp act</w>
а б
las er</w>
су деб
по лож
обо сно
ку ле
br an
8 -
анев риз
pres sure</w>
pathogene sis</w>
4 1</w>
ли зи
t y</w>
of ten</w>
cardio vascular</w>
4 7</w>
состави ли</w>
пораж ения</w>
по пу
когни тивных</w>
ве ро
pr acti
m u
condi tion</w>
5 2</w>
не с
контро ля</w>
зо в</w>
grow th</w>
group s.</w>
шизо фр
хирурги и</w>
у ю</w>
со гла
при чи
m ic</w>
b re
t ar
str at
an im
ш ли</w>
та льной</w>
о б</w>
p an
ane ur
ки ш
lo ss</w>
for ensi
forensi c</w>
клини ческие</w>
wor l
par t
физи ологи
рас ши
ки ше
ane ous</w>
поло сти</w>
мо но
други х</w>
pr ac
phar maco
так ти
лим фо
mon ary</w>
depend ing</w>
ро вани
по д</w>
медицин ских</w>
к ва
бо ли</w>
ten tion</w>
si mil
re li
p le
gr ade</w>
со поста
m it
com mun
с п
об ъ
ь ю
ше го</w>
та ких</w>
ак ту
experi ence</w>
де мон
i sts</w>
функ цио
использо вали</w>
c i
ф таль
у спе
к тери
m ut
с ы</w>
о каза
исполь зу
at om
approach es</w>
ap p
ту бер
использо ва
ul tras
mode l</w>
lar ge</w>
b il
at al</w>
prote in</w>
кар дио
вы вод
ca use</w>
сах ар
после ду
questi on
proble m</w>
en .</w>
ver se</w>
dise ase.</w>
0 1</w>
ра ди
analyz e</w>
корре кции</w>
du ce</w>
фарма ко
реги стри
м л</w>
m g</w>
g lu
e al</w>
d n
arter ial</w>
раз рабо
hyperten sion</w>
at er</w>
8 5</w>
цион ного</w>
сопрово жда
зна чения</w>
in formation</w>
con tri
ca uses</w>
печ ени</w>
ко вой</w>
t s.</w>
i at
comp an
201 6</w>
тубер куле
по верх
на .</w>
tu ber
oc cur
i i
ac coun
m ag
fem al
b al
a or
показ ано</w>
ко сти</w>
веро ят
post -
la y
ir atory</w>
impair ment</w>
fu l</w>
201 5</w>
уров не</w>
логи ческой</w>
ни ков</w>
все го</w>
the m</w>
relationshi p</w>
p0.0 5</w>
ha vi
го то
экто ми
pot ential</w>
m l</w>
in -
de ath</w>
ant ation</w>
с д</w>
s ing
clero sis</w>
be havi
та р
ме ся
хо ро
в ро
те ч
послеоперацион ном</w>
н у</w>
my ocardi
ре тро
демон стри
ги дро
ll ed</w>
func tions</w>
al co
regi on</w>
r and
- 2</w>
ход я
н .</w>
p 0,0
in duc
dys function</w>
это го</w>
обла да
обзо ре</w>
да ми</w>
mis sion</w>
int es
endo th
ши е</w>
ря д
про то
ма ми</w>
во в</w>
tuber culo
re cor
hy dro
функ ций</w>
расс мотр
на д
допол нитель
ph al
улуч шение</w>
тех ни
т р</w>
возмож ность</w>
it y.</w>
em ia</w>
ка та
жд ения</w>
man y</w>
eng th</w>
тро в</w>
ти ческого</w>
сочет ании</w>
сосуди ст
отда лен
tech no
strat eg
labor atory</w>
кар ти
каж до
p 0,05</w>
o us
п ы
о грани
ме ро
ку ля
correc tion</w>
м не
practi ce</w>
ре цеп
р с</w>
гла з</w>
psycho logical</w>
d oc
ход е</w>
сто в</w>
со м</w>
со з
кс а</w>
ва ет</w>
th ir
it al</w>
bio logical</w>
образо м</w>
коро нар
resul t</w>
question n
comple te</w>
эндо тели
ф ено
инва зи
жен щ
ab dom
профилакти ки</w>
проти в</w>
graph ic</w>
bo di
anc ed</w>
a ther
эпи тели
ти пи
слу жи
м я
а те
str ation</w>
partic ip
on s.</w>
identi fy</w>
i v</w>
endoscop ic</w>
пу бли
основ ных</w>
ol der</w>
перен ес
обследовани я</w>
6 8</w>
6 4</w>
ющи й</w>
хо ле
су тки</w>
сто мато
v ent
u al</w>
ко ж
емо й</w>
ве ри
ti vity</w>
surger y.</w>
proc e
conduc ted</w>
vir us</w>
комби ни
значи тельно</w>
su b</w>
ч и</w>
фе ри
орг аниз
во е</w>
ба ктери
pul monary</w>
м г</w>
м г
throug h</w>
prog ression</w>
f ul
ai m</w>
7 2</w>
больш о
spec i
si c</w>
immun e</w>
ющи хся</w>
ци р
стой чи
отсутстви е</w>
ment ation</w>
ic ul
частот ы</w>
о кси
o ste
k er
amo un
лю де
ла паро
безопас ности</w>
v a</w>
g ly
e ti
cir c
4 9</w>
стра да
ре ф
ре зи
основ ные</w>
необходи мо</w>
з ных</w>
resp iratory</w>
pur pose</w>
pub lic</w>
o -
сред нем</w>
ен ным</w>
lap aro
транс п
стади и</w>
мы м</w>
ка те
динами ки</w>
а кти
se g
ыва ет</w>
со кра
здоровь я</w>
spec ial</w>
re construc
no ted</w>
in sti
у стойчи
w ar
sup por
as th
arter ies</w>
a z
пе ра
ма кси
re le
pl ast
cor e</w>
ad ap
сетча тки</w>
при сту
к т</w>
w il
id ity</w>
ic k
aneur ys
тро фи
от ра
д ного</w>
высо ко
ne o
it e</w>
confir med</w>
сосу дов</w>
пер вые</w>
ме р</w>
ва кци
ep ith
ad ul
п ы</w>
меро прияти
к ция</w>
un i
iz e</w>
ba sis</w>
у части
пожи лого</w>
sp e
f ail
consi sted</w>
an ter
ag e.</w>
ст ью</w>
раз ных</w>
д ень</w>
выражен ности</w>
hear ing</w>
evid ence</w>
комп ью
y l
valu e</w>
onom ic</w>
ми н</w>
ле й
клини ческого</w>
здоро вых</w>
выявл ена</w>
mo di
inter vention</w>
c in
abdom inal</w>
уче том</w>
симпто мати
на циональ
ин стру
w s</w>
tissu es</w>
t end
pre vi
mo d
ey e</w>
as p
ac compan
201 4</w>
проце ссо
обще й</w>
выполн ена</w>
времен и</w>
mon itor
b acter
abs ence</w>
серд ца</w>
интенси в
covid- 19</w>
уч ре
инди ви
вод у</w>
fac e</w>
al g
пос вя
ма гни
инсуль та</w>
боль ных.</w>
ig n
э коно
hist o
el s</w>
раз делены</w>
r ati
k ers</w>
evalu ated</w>
о ча
мож но</w>
th us</w>
тяже сти</w>
сро ки</w>
ост ры
опреде лить</w>
t ac
ph o
ent .</w>
at tention</w>
an atom
д ве</w>
ca used</w>
обусло вл
настояще е</w>
го р
ан ной</w>
ал кого
scop ic</w>
or s.</w>
mark ers</w>
en e
фе р
о сте
schizophren ia</w>
me .</w>
сни зи
дол ж
б о</w>
re co
p ron
fin d
логи и</w>
каче ство</w>
me ta
develo p</w>
спе циа
р 0,0
ser um</w>
rec ep
as ing</w>
ра ль
пре до
t ur
pron o
prono unc
l un
те ст
процес са</w>
re tinal</w>
симпто мов</w>
мы ше
ко ло
бе ремен
v acc
th or
pers on
is ol
характери зу
тив ные</w>
сниж ения</w>
с ве
по воду</w>
осложн ения</w>
но вой</w>
to mo
comp reh
2 .</w>
ро вании</w>
нор ма
н к</w>
моле куляр
sm all</w>
oc ular</w>
er ior</w>
ни и</w>
str ic
es the
acti ons</w>
г да</w>
st om
lymp h
id al</w>
т у</w>
компью тер
госпи та
par t</w>
ч ки</w>
сниж а
з у</w>
ре кон
индиви ду
inva sive</w>
ч ины</w>
обследовани е</w>
в вед
simil ar</w>
ag e-
специа ли
н га</w>
имп ланта
де фек
дви га
v ess
s en
in hi
effic iency</w>
пер спектив
ва ется</w>
ани ем</w>
fe der
ющи ми</w>
част о</w>
сы воро
желе зы</w>
un d</w>
sp inal</w>
rand om
diff icul
be ing</w>
у г
ре о
перви чной</w>
мис си
инстру мен
pronounc ed</w>
n asal</w>
en sive</w>
ре жи
ли зо
ta in</w>
mem bran
fi el
пред ло
л ли
возник нов
monitor ing</w>
ex tre
an n
х ва
ству ющих</w>
серде чно-
о жи
л .</w>
dist urb
addi tion</w>
8 4</w>
фор мы</w>
со дер
осущест вля
д .</w>
m m
cl es</w>
росси й
действи е</w>
б ен
i a.</w>
avail able</w>
я х.</w>
актив ность</w>
secon d
proce du
pat ter
high -
201 7</w>
стру ктив
пос ред
пов тор
обще го</w>
ло й</w>
wee ks</w>
survi val</w>
moder ate</w>
ра м
ав то
vol um
pro posed</w>
201 3</w>
экспресси и</w>
то ка</w>
ти я</w>
та ким</w>
поли мор
s mo
rang e</w>
те ги
смер тности</w>
обнару жен
но во
д нев
res sive</w>
7 4</w>
1 1
эконо ми
стра теги
проанализирован ы</w>
ous ly</w>
medi an</w>
describ ed</w>
concentr ation</w>
anter ior</w>
терапи и.</w>
корре ля
tuberculo sis</w>
or b
heal th
find ings</w>
e ding</w>
са .</w>
образо вани
on es</w>
ner ve</w>
inflam m
6 2</w>
201 8</w>
заболевани я.</w>
ен ный</w>
al ter
пери фери
pro s
oph thal
le ft</w>
com a</w>
7 6</w>
эффек т</w>
сто м</w>
с ш
ре з
да х</w>
выявл ения</w>
а да
invol ved</w>
ig n</w>
о фталь
к реа
вид е</w>
f av
en h
de gener
юще е</w>
ч ные</w>
у з
ско ро
мони тори
люде й</w>
леч ению</w>
ren al</w>
intes tinal</w>
in sul
dom in
5 8</w>
де я
per for
dam age</w>
aor tic</w>
7 8</w>
це фа
тен зи
т раз
проявл ений</w>
опро сни
обо ло
досту п
tra ining</w>
степ ень</w>
реабили та
по ис
обсу жда
вы жива
tar ge
ta king</w>
po lic
h ol
gast ro
с ен
количе ства</w>
outcom e</w>
j o
da ily</w>
7 3</w>
ри н
ис следу
вы й</w>
physi ological</w>
dynam ic</w>
comp u
achie ved</w>
рен т
депресси и</w>
reg ression</w>
individu al</w>
f ree</w>
b ec
a co
6 9</w>
5 7</w>
у слу
сте ро
орга нов</w>
ок клю
ко э
u cl
corne al</w>
ка мен
дости г
г ри
во шли</w>
vi sion</w>
peri ph
6 3</w>
5 1</w>
у до
рост а</w>
перио да</w>
sensi tivity</w>
le -
il ities</w>
ati vely</w>
5 4</w>
ве ще
s al
oph ag
a x
нача ла</w>
лег ких</w>
ке ра
сти .</w>
ста би
ра я</w>
пу т
определя ли</w>
t ural</w>
is t</w>
уль траз
ультраз ву
тра ди
су ста
боль ные</w>
inten sity</w>
experim ental</w>
ade qu
5 9</w>
э мо
чи та
у чи
ткан ей</w>
ства ми</w>
ниж них</w>
ден ти
sc re
mr i</w>
b ri
кра т
ву ю</w>
u tion</w>
pre gn
plast y</w>
p ne
mal ign
ex trac
ство ва
р ь
призна ков</w>
зло каче
де генера
on set</w>
эпиле пси
су т</w>
дву х</w>
metab olic</w>
es ophag
com e</w>
особен но</w>
за да
estab lished</w>
у си
с ме
рогови цы</w>
приводи т</w>
re duce</w>
depend ent</w>
ша ет</w>
обследо вали</w>
но си
ка м</w>
youn g</w>
st ress</w>
s core</w>
it ed</w>
i st
c an
отнош ении</w>
не д</w>
д ли
rig ht</w>
reg ar
en om
compar ative</w>
т ке</w>
судеб но-
метри и</w>
изу чения</w>
sci enti
m g
ipi 0.0
a -
ро ванием</w>
програм мы</w>
ни ма
inter nal</w>
adv ant
accompan ied</w>
дан ного</w>
в то
ал ле
in te
compreh ensive</w>
рассмотр ены</w>
mu co
i f</w>
f la
ad j
т ыва
с клеро
гено в</w>
poly morph
is su
емо сть</w>
ta k
system s</w>
in tro
at ed.</w>
6 1</w>
ю щая</w>
р та</w>
пати и</w>
з ри
tin e</w>
succ ess
second ary</w>
me ly</w>
gi ven</w>
1 .</w>
чни ка</w>
стви е</w>
сосуди стой</w>
пи ще
op en</w>
inte gr
g en</w>
ch ol
rest or
periph eral</w>
mag ne
f un
estim ated</w>
рос клеро
работ е</w>
га .</w>
чис ло</w>
случа е</w>
позво но
де ла
а м
to l
resist ance</w>
r ates</w>
nor mal
at eral</w>
addi tional</w>
8 6</w>
челю ст
заболевани ями</w>
st ero
si mul
poin ts</w>
or t</w>
bodi es</w>
allow s</w>
це в</w>
муль ти
де т
аор ты</w>
or ig
че р
че н</w>
к та</w>
из мер
volum e</w>
struc tures</w>
сравн ении</w>
синдро м</w>
сво й
распространен ность</w>
при ве
получа ли</w>
марке ров</w>
ате росклеро
si tion</w>
proble ms</w>
mon th</w>
metab ol
disor der</w>
b or
се гмен
с хе
по лага
име ет</w>
recurr ent</w>
inf ecti
in ary</w>
are as</w>
со вер
посвя щ
од ной</w>
необходи мость</w>
гла за</w>
боль ным</w>
тель ный</w>
различи я</w>
не благоприят
зубо в</w>
гори т
б ран
ал горит
por tion</w>
in suff
hist ory</w>
g s</w>
осте о
й ся</w>
ге р
to o
spec tr
initi al</w>
я н
ча сти</w>
харак те
случа й</w>
диагности ке</w>
в ы</w>
r are</w>
1 0,
хирурги ческих</w>
фактор ы</w>
ти пов</w>
миокар да</w>
интра операцион
графи и</w>
pro b
эти ологи
таль ного</w>
спо н
на ции</w>
tro ph
li p
intra operative</w>
gl au
ec h</w>
э ти</w>
pre venti
e tic</w>
ather os
рези стен
при водя
г лю
возра ста
me ll
ми н
а ст
vess els</w>
possib ility</w>
m en
le .</w>
l ight</w>
значи мо</w>
заболе ва
es ting</w>
bas el
шка лы</w>
фе кции</w>
тен ден
стра нах</w>
обе их</w>
и и</w>
выполн ения</w>
system ic</w>
st eno
p tion</w>
myocardi al</w>
ку ль
ин фекции</w>
за ция</w>
вы ми</w>
to co
partic ular</w>
ma in
l -
по тер
ма я</w>
кото рая</w>
вним ание</w>
вмешатель ств</w>
up per</w>
scop y</w>
при е
нес мотр
несмотр я</w>
qu anti
examin ed.</w>
es c
em b
classi fication</w>
8 2</w>
мно же
концентра ции</w>
ка п
бр ю
inflamm ation</w>
a im
пу тем</w>
ref er
hist ological</w>
func tion
con n
умень шение</w>
позволя ют</w>
ор то
меди камен
reco very</w>
трево ж
трав мати
оцен ке</w>
ж ении</w>
necess ary</w>
chang e</w>
3 0
201 2</w>
чис ла</w>
у ме
рас преде
опухо ле
методи ки</w>
oper ations</w>
d m</w>
ствен но.</w>
смер ти</w>
с д
процессо в</w>
привед ены</w>
опухо лей</w>
од ного</w>
комп ен
д рен
а спек
go od</w>
1 0.
тр и</w>
рован о</w>
рам ках</w>
пробле мы</w>
образо вания</w>
не га
ана томи
te sts</w>
ne ur
mon o
k id
i es.</w>
er ing</w>
con cep
cere bro
ма х</w>
wil l</w>
ob struc
kid ne
impro ved</w>
щ ение</w>
че т</w>
стату са</w>
соответ ственно.</w>
ме с.</w>
occur red</w>
molec ular</w>
экто мии</w>
учре жд
синдро мом</w>
tomo graphy</w>
gen o
de part
груп по
брю ш
alg or
п то
макси маль
techniqu es</w>
co uld</w>
c ro
со пут
которы й</w>
в тори
t n
meas ures</w>
associ ation</w>
algor ith
успе ш
ту а
па р
офталь мо
не ско
моде ли</w>
ле м</w>
гла у
vir al</w>
the sis</w>
cont ent</w>
ч ная</w>
sib le</w>
9 8</w>
ки ми</w>
вы де
ани й</w>
u k
thyro id</w>
mell it
maj or</w>
ф ро
провед ена</w>
вл ение</w>
over all</w>
o ur
ill ary</w>
ad verse</w>
accoun t</w>
чи ли</w>
таль ных</w>
с са</w>
на род
ла .</w>
ап пара
ад ено
а три
transp l
rati o</w>
m enti
f am
параме тров</w>
кро ме</w>
живо тных</w>
б ных</w>
log ies</w>
ши ть</w>
ран доми
под держ
re si
or tho
k ed</w>
ba sic</w>
значи мо
us e
tol er
ti l
d o</w>
у д
про ходи
медикамен то
киш ки</w>
rat s</w>
basel ine</w>
10 -
то н
тель ные</w>
потен циа
наль ных</w>
ма ссы</w>
интер ва
е мые</w>
гор мо
th ick
st -
mus cle</w>
de ath
d ens
cal cul
ше е</w>
за х</w>
w om
t or
s a</w>
p c
optim al</w>
indic ations</w>
ca vity</w>
b ular</w>
1 1,
тор а</w>
наблюд ение</w>
мер е</w>
м ы.</w>
s tic</w>
le sion</w>
ex er
6 6</w>
сво е
о ни</w>
ни же</w>
жи д
we ight</w>
ther e
russi a</w>
p d</w>
in o
foc al</w>
con ta
201 0</w>
цере бра
с ре
пато генети
мо ди
л ле
до бро
con tr
anim als</w>
од ним</w>
ter ms</w>
st o
an y</w>
ша я</w>
те ро
ро й</w>
об щи
к ций</w>
l ed</w>
er .</w>
раст во
го да.</w>
on ic</w>
inter national</w>
admini stration</w>
1 4
ч ным</w>
получ енных</w>
а ми
worl d</w>
subst anti
month s.</w>
glu co
det ection</w>
стар ше</w>
ли пи
ин ги
ве ст
боль ни
samp les</w>
midd le</w>
i v
g .</w>
че й</w>
пи л
моде ли
й о
инде кс</w>
инги би
spit e</w>
siz e</w>
posi tion</w>
d s.</w>
д ы</w>
ster ed</w>
oste o
induc ed</w>
i b
ш ению</w>
ф ин
со м
опы т</w>
да вления</w>
д е</w>
в лет
max im
h ar
bu tion</w>
a di
с чита
оцени ва
ль ный</w>
дефици та</w>
t ation</w>
fi x
adequ ate</w>
форми рования</w>
ре мисси
по м</w>
ны .</w>
клини ческий</w>
а г
low -
in trac
air e</w>
ф ра
с лизи
провед ение</w>
наль ного</w>
ми е
ме м
изу ча
го д</w>
выбо р
anc y</w>
7 7</w>
1 2
со образ
лапаро скопи
за регистри
визу а
lar g
cho ice</w>
bi om
1 3
удо влет
удовлет во
на гру
межд у
меди ко-
кор ти
име ли</w>
provid es</w>
proc ed
proced ure</w>
emo tional</w>
целе сообраз
про фе
оцен ку</w>
repor ted</w>
oper ation</w>
c a</w>
20 0</w>
ко е</w>
длитель ность</w>
pub lic
plas ma</w>
фи кси
со зд
прог ности
при нима
относи тельно</w>
н ци
между народ
высо кая</w>
si de</w>
intro duc
comp ens
по ч
от лича
достиг ну
sur face</w>
repor t</w>
incre ases</w>
c is
хирурги ческой</w>
т ность</w>
про тя
о хва
ль но</w>
использо вании</w>
pop ul
i ally</w>
9 -
совер шен
н ения</w>
мр т</w>
ана мне
str y</w>
pres cri
at ely</w>
8 7</w>
этап е</w>
м л
высо ким</w>
v ant</w>
mater ial</w>
e duc
direc t</w>
d es</w>
1 2,
сред него</w>
с но</w>
крово обра
гисто хими
w ho
traum atic</w>
se p
questionn aire</w>
pre par
o t</w>
incre asing</w>
gene sis</w>
f our</w>
f ic</w>
curr ently</w>
7 1</w>
ще й</w>
стацио нар
п нев
п ис
ко а
за ме
акту аль
k es</w>
he mor
e phal
du od
con f
c m</w>
7 9</w>
не о
воз действия</w>
ultras ound</w>
pro per
me ans</w>
fiel d</w>
ep ti
de spite</w>
тель ность</w>
се ле
с -
послед стви
кон тра
кате гори
инва ли
ан ных</w>
kno wn</w>
he pati
fail ure</w>
endoth elial</w>
describ es</w>
19 9
обеспе чи
и о
ада п
thir d</w>
or ity</w>
ner v
i l</w>
d os
201 9</w>
современ ные</w>
вер си
struc tural</w>
psych iat
injur ies</w>
эмо циональ
фе ра
рован а</w>
медицин с
ко вого</w>
w all</w>
to p
scienti fic</w>
p 0,00
imple mentation</w>
co ag
э р
фор м</w>
сред ней</w>
практи ке</w>
y o
u lo
m er
m ass</w>
ed ed</w>
фер мен
сер ва
свидетель ствуют</w>
ра нее</w>
про ис
при нци
органи зации</w>
клини ческое</w>
же л
глю ко
а мп
se ar
mor b
lead ing</w>
as sist
с па
реа кции</w>
по сту
по р
ниж ней</w>
конеч ностей</w>
г ан
procedu res</w>
ke y</w>
in es</w>
ac id</w>
женщ ины</w>
wa ys</w>
random ized</w>
investig ate</w>
diagnos tics</w>
an o
8 1</w>
уме рен
ри и</w>
про ли
отде ла</w>
остро го</w>
ок ру
y mp
su s</w>
par ti
immuno histo
g h</w>
ev ents</w>
ретро спектив
расстрой ства</w>
п .</w>
лан тации</w>
ла х</w>
ком пресси
the tic</w>
investig ation</w>
gen es</w>
fu sion</w>
у х
срав ни
след ствие</w>
рег ресси
послеоперацион ных</w>
о то
мор би
м с</w>
выполн ено</w>
radi ation</w>
mellit us</w>
lun g</w>
effic i
c s</w>
c -
b yp
ф фи
трансп ланта
сс е</w>
сопоста ви
и денти
е м.</w>
te e
te d.</w>
spe ech</w>
pre v
p .</w>
glob al</w>
glau coma</w>
es pec
ф ла
у ста
сред ств</w>
си туа
опти маль
ле го
класси фикации</w>
же н</w>
возраст ных</w>
us ed.</w>
tak en</w>
reg ul
espec ially</w>
ast o
aim ed</w>
2- го</w>
рова н</w>
мно ги
ме ла
куля ри
коа гу
вас куляри
ван о</w>
simul t
progno sis</w>
ecti ng</w>
ши м</w>
различ ные</w>
ра ка</w>
ма .</w>
литера тур
включа я</w>
vent ric
i pl
compon ent</w>
ch a
b ed</w>
ar c
an ning</w>
a b</w>
э мбо
свое времен
с кри
пан креа
ко вых</w>
инсу ли
sk in</w>
ти п</w>
развити и</w>
ло го
зирован ных</w>
восстановл ения</w>
а г</w>
sco res</w>
form ed</w>
defic iency</w>
b ir
acti vi
т ы.</w>
спи ра
современ ных</w>
рован ные</w>
развити ем</w>
поврежд ения</w>
на ходи
malign ant</w>
inhi bit
in e
duod en
ь е
ч но</w>
ства .</w>
кра ни
зо н
гото в
болезн ью</w>
ана сто
vasc ular
sup 2
subj ects</w>
statis tical</w>
p al
1- я</w>
ти рео
проце ду
послед ние</w>
по вед
1 2.
1 1.
ч ин
подтвер жд
л енных</w>
до н
го су
ве н</w>
lin es</w>
следо ва
росси и</w>
и л
во д</w>
se iz
re as
it on
пре ди
поли ти
ма льной</w>
которо й</w>
госу дар
анти те
uni ver
ref l
fav or
d op
b -
8 8</w>
3 .</w>
фе де
син те
проте зи
меди ана</w>
коэ ффи
кар ди
иммуно гистохими
зи он
ани ма
estim ate</w>
dise ases.</w>
appl ied</w>
anti bodies</w>
шизофр ени
т ным</w>
степ ен
содер жа
препара т</w>
ли и</w>
коэффи циен
био ти
w ell
ut es</w>
prot ective</w>
l ing</w>
l ength</w>
kidne y</w>
20 .
эле мен
характе р</w>
ин ду
disorder s.</w>
9 3</w>
слу хо
рекомен до
предло жен
по ро
механиз мов</w>
мен а</w>
и м.</w>
вз рос
аль ная</w>
er e
dens ity</w>
cardi ac</w>
c k
со еди
скри ни
различи й</w>
под рост
ляр ной</w>
име ют</w>
pro lif
prolif er
log y.</w>
lar yn
differ ential</w>
differ enti
8 3</w>
2- я</w>
ри т
причи ной</w>
призна ки</w>
пожи лых</w>
лекар ственных</w>
requi red</w>
om as</w>
femal e</w>
ч ный</w>
спе циаль
содерж ания</w>
ре бен
а .</w>
steno sis</w>
sever al</w>
r ap
provid e</w>
perio d.</w>
organ ization</w>
lead s</w>
im aging</w>
epilep sy</w>
complic ated</w>
analyz ed.</w>
шу нти
мероприяти й</w>
ль ные</w>
re pe
il i
enz y
ыва ют</w>
функцио ни
сосудист ых</w>
му та
групп ы.</w>
в п</w>
ta ke</w>
su per
stud y.</w>
recommend ed</w>
mal e</w>
lim b</w>
cor respon
9 2</w>
тор ной</w>
т ная</w>
следу ет</w>
с чет</w>
нор маль
ка льной</w>
к е.</w>
stim ulation</w>
ро ли</w>
к ана
дифферен ци
if ied</w>
fac ial</w>
f ron
се ро
на за
дифферен циаль
б с</w>
x -
trac he
frequ ent</w>
ex ter
ep ide
de li
con cer
circ ulation</w>
20 ,
1, 5</w>
сыворо тке</w>
станда р
содерж ание</w>
по стоя
он ко
ля х</w>
кон серва
ин ъе
диагно з</w>
ur s</w>
t y-
r he
p sy</w>
9 1</w>
микро скопи
ки с
до хо
а де
comp o
распространен ности</w>
п ен
диагно зом</w>
th em
iz ing</w>
ho l</w>
dis ability</w>
al ong</w>
фи ль
согла сно</w>
продолжитель ность</w>
при чин</w>
крово тока</w>
исследо ва
емо го</w>
выбо ра</w>
sing le</w>
rel ap
pancre atic</w>
or der</w>
erg ic</w>
e uro
a e</w>
ст р
собо й</w>
ж ены</w>
tee th</w>
com orb
alco hol</w>
ag ain
хрони ческого</w>
ran ial</w>
or i
ophthal mo
l .</w>
es s.</w>
compon ents</w>
201 1</w>
ющи еся</w>
суще ственно</w>
су р
ру ющих</w>
не кро
воспалитель ных</w>
в г
surve y</w>
r ad
nerv ous</w>
favor able</w>
byp ass</w>
again st</w>
частот у</w>
то ра
результа там</w>
получ ены</w>
опера тивного</w>
но со
динами ка</w>
г но
би оп
анасто мо
l ation</w>
fic ial</w>
es si
de ta
фактор а</w>
профе сси
оста ется</w>
аде ква
un d
symp tom
post erior</w>
identi fication</w>
clud ed</w>
ad ol
ac u
т ан
структу р</w>
про демонстри
ли .</w>
высо кий</w>
вы явля
se d.</w>
saf e</w>
d enti
comp ression</w>
b p</w>
ствен ным</w>
слизи стой</w>
з н
вы я
вопро сы</w>
re tin
pl at
li ke</w>
hemor rh
com it
a vi
цион ные</w>
сторо н
па х</w>
лазе р
л у</w>
ген ных</w>
выражен ность</w>
ви ч
боль ного</w>
tro p
si g
s ing</w>
s ar
res .</w>
organ s</w>
c es</w>
8 9</w>
сниж ению</w>
си м
связан ных</w>
ми на</w>
ка ри
выявл ение</w>
w ide
thick ness</w>
recommend ations</w>
pre domin
measu red</w>
gu ide
er gen
disturb ances</w>
depres sive</w>
da y
cer tain</w>
b ar
эн цефа
эк ст
ход ы</w>
т ых</w>
показате лями</w>
к г</w>
за тра
ud e</w>
r up
oper ated</w>
n ucl
mil d</w>
magne tic</w>
р 0,05</w>
публи ка
но вого</w>
из вест
заболе вание</w>
дея тельности</w>
ter o
membran e</w>
cr an
an ding</w>
эпи деми
хирурги ческое</w>
механиз мы</w>
логи ческие</w>
инде кса</w>
дис функции</w>
возни ка
акти ва
ver n
suppor t</w>
spec ific
sin ce</w>
s d</w>
on -
de struc
algorith m</w>
ag g
advant ages</w>
3- й</w>
повыш ения</w>
поверх ности</w>
зо не</w>
возникнов ения</w>
ver te
sign ed</w>
pne um
per iton
morph o
me d.</w>
l ong</w>
l it
individu als</w>
impl antation</w>
ци ях</w>
тяже лой</w>
совершен ство
си ст
пер ено
на знач
ль ная</w>
ли бо</w>
год у</w>
вро жд
ra dio
progr am</w>
me l
bet ter</w>
9 6</w>
ству ющие</w>
сохран я
сист ем</w>
д ных</w>
studi ed.</w>
hor mon
anatom ical</w>
ческо му</w>
ци ями</w>
н ного</w>
ин фар
ol e</w>
laparo scopic</w>
con sequ
con comit
and or</w>
проли фера
пи т
от ри
значи мых</w>
до каза
гене за</w>
ви со
perio don
le uk
in .</w>
ific ation</w>
ac cur
тра хе
патологи ей</w>
артери альной</w>
а но
vari ants</w>
scre ening</w>
rec ent</w>
en ro
ран нем</w>
опис аны</w>
низ ким</w>
ен ная</w>
вши хся</w>
s clerosis</w>
exter nal</w>
a k</w>
ча сто
соответ стви
ри на</w>
получа вших</w>
пл ани
объ ем</w>
комплекс ной</w>
us .</w>
lo y
hi v</w>
em ergen
dist ri
comp are</w>
1 3,
я ми.</w>
цо в</w>
показа л</w>
п ления</w>
гипер тензи
ассо циа
qu al
poin t</w>
it ary</w>
gly c
ec onomic</w>
comp ris
car cin
фо то
поче к</w>
логи ческое</w>
s atis
proper ties</w>
fi ve</w>
en vi
defic it</w>
b la
asto mo
an astomo
трав мы</w>
позволи ло</w>
под вер
перено си
ме ти
бро н
pres er
ox y
ocy tes</w>
fla v
concomit ant</w>
у ни
с с</w>
р 0,00
ль ным</w>
в ведения</w>
her ence</w>
differ ence</w>
determin ation</w>
ч ности</w>
рос т</w>
провед ении</w>
пациен ток</w>
за щи
желудо ч
present ed.</w>
p p
op tical</w>
measu re
g a
cho le
acc ess</w>
9 4</w>
суб ъе
с к</w>
отри ца
объе ктив
w ound</w>
r -
asp ects</w>
an esthe
activi ties</w>
ств .</w>
состо я
потен циаль
поз д
опреде лен
диагности ка</w>
выяви ть</w>
ве ге
ван а</w>
tra di
th en</w>
servic es</w>
n a</w>
h al
anti bio
се к
процес с</w>
мы й</w>
лу че
вед у
loc alization</w>
2 5
щ ую</w>
ши й</w>
те сти
различ ной</w>
до в.</w>
в первые</w>
w ide</w>
mater i
gre ater</w>
gen ital</w>
c .</w>
со р
па .</w>
нагру з
которо го</w>
temp oral</w>
ob es
ith er</w>
in str
co lo
chil dr
ab ly</w>
1 4,
1 3.
участи е</w>
точ ной</w>
к тов</w>
досту па</w>
ве сти
stim ul
prog ressive</w>
lac k</w>
l ate</w>
фо с
томографи и</w>
т ные</w>
проце ссе</w>
мы ми</w>
мест о</w>
д п
бел ка</w>
а ф
sel f-
requ ir
pro spective</w>
pro portion</w>
p ic
imp ai
устойчи во
с ь.</w>
подхо д</w>
ко морби
ко в.</w>
st ar
pr inc
o ti
m ig
it ory</w>
en -
bac k
зо ны</w>
до нти
га стро
вы пол
preventi ve</w>
impai red</w>
e th
стру кции</w>
сво бо
ру с
ре ш
професси о
про спектив
обсу жд
м ани
в следствие</w>
боле вого</w>
success ful</w>
ri tis</w>
n .</w>
hel p</w>
frequ ently</w>
fi st
develop ing</w>
струк туры</w>
сто го</w>
перенес ших</w>
пер фу
отно шение</w>
об у
в -
ve in</w>
minim ally</w>
jo in
ш ем</w>
стра н</w>
случа я</w>
ра .</w>
ли н
зи ровать</w>
достовер ное</w>
вид ной</w>
t esting</w>
immunohisto chemical</w>
gen ous</w>
f l
compo sition</w>
adj u
х об
функциональ ных</w>
тр ы</w>
способ ствует</w>
попу ля
пло ща
ла тера
з ма</w>
ды ха
under st
st able</w>
n ia</w>
fist ul
dr a
acti vation</w>
не зависи
ма ло
леталь ность</w>
envi ron
al .</w>
вывод ы.</w>
w er</w>
samp le</w>
rema ins</w>
obser v
medic ine</w>
mat o
ha ving</w>
depart ment</w>
br on
част ности</w>
те м
раз но
пе пти
оте че
ограни ч
но са</w>
низ кой</w>
наруш ение</w>
кровообра щения</w>
t a</w>
sugg est
st atic</w>
quanti t
oc clusion</w>
includ e</w>
im ens</w>
f ra
con venti
9 9</w>
по явл
оболо чки</w>
нер ва</w>
мех ани
г е</w>
s ens
pre operative</w>
po or</w>
isol ated</w>
inter val</w>
import ance</w>
adol esc
1 4.
- old</w>
ци й.</w>
тор ного</w>
препара ты</w>
наблюда ли</w>
изуч ены</w>
и м</w>
ж ение</w>
ен ное</w>
до ля</w>
веге та
re pa
f il
cent er</w>
200 9</w>
резе кции</w>
мини маль
вме ст
больш е</w>
ro ph
regi ons</w>
progno stic</w>
pro vided</w>
p0.00 1</w>
l um
gen der</w>
g li
эпиле пти
стацио на
пере д</w>
пе ро
н п
з .</w>
до зе</w>
sugg est</w>
pe di
o ff
m in</w>
ipi 0,0
inf arc
i ous</w>
he tero
ствен ное</w>
разработ ка</w>
показате ль</w>
подхо да</w>
ли к
кера то
ж ной</w>
ени ям</w>
su m
pro toco
pho to
oc curr
le ad</w>
ischem ia</w>
el im
d ri
2 3
улуч шения</w>
су м
сниж ением</w>
с ви
рован ным</w>
проводи лась</w>
ли ш
глау ко
воспа ления</w>
бал ла</w>
r al</w>
obser vation</w>
m es
k .</w>
insul in</w>
ра х</w>
отмеч ена</w>
per sist
on o
de vic
ble eding</w>
as .</w>
age- related</w>
се ме
реа ктив
протя жении</w>
ляр ного</w>
возраста .</w>
б ной</w>
ане сте
s l
n ature</w>
l l</w>
e ven</w>
e f</w>
ch ro
цито ки
ух уд
уста нов
раз ме
от личи
не посред
кру п
возраст ной</w>
spectr um</w>
s al</w>
m io
ho urs</w>
h old</w>
endo vascular</w>
do es</w>
bec a
beca use</w>
щи е</w>
цере бро
под готов
патологи ческих</w>
патогене за</w>
ку с
комплекс а</w>
клю че
кап су
желу д
глу бо
г ран
x im
pro mo
p i
me x
he ad
e de
conventi onal</w>
bacter ial</w>
ч ными</w>
хо н
стен ки</w>
п ли
недостаточ ности</w>
кры с</w>
к со
re mission</w>
с ани
metabol ism</w>
hy th
health -
asth en
5 00</w>
э п
у точ
сп ин
наблюд ений</w>
ки н
l ast</w>
fo re
flu id</w>
fi br
d m
characteris tic</w>
a ud
- й</w>
трево ги</w>
объе ма</w>
л ении</w>
же ла
е же
v ative</w>
r ine</w>
r hyth
pathogene tic</w>
concentr ations</w>
чет ы
связан о</w>
разрабо та
органи за
наруш ениями</w>
мер ы</w>
использо ваны</w>
sp re
exer cis
enc ephal
em ic</w>
ми не
ле жа
кле т
заболева емости</w>
больш ей</w>
rele vant</w>
re action</w>
ph eno
descri be</w>
bac k</w>
al s.</w>
эффектив ным</w>
требу ет</w>
ряд у</w>
проис ходи
остро й</w>
моз га.</w>
ди н</w>
vi s
ve d.</w>
t ly</w>
s oci
pneum on
is cha
gro und</w>
co ver
cat ar
adv anced</w>
ци но
филь тра
технологи й</w>
о ти
мя г
кур са</w>
куляр ной</w>
до ро
возмож но</w>
wa y</w>
v s</w>
speci al
morb idity</w>
h r
flu o
c s
b ul
1. 5</w>
сш а</w>
соответстви и</w>
остро м</w>
ос ве
ен ными</w>
воз действи
z one</w>
sub sequ
ph os
mo sco
ma ke</w>
al low</w>
a g</w>
ъ ю
фла ви
тру до
тре х</w>
ра ции</w>
примен ении</w>
практи чески</w>
strateg y</w>
signific ance</w>
particip ants</w>
maxim um</w>
instr um
infecti ous</w>
хрони ческим</w>
сторо ны</w>
со мати
систе мати
с м</w>
с дела
ре сур
опти ми
но вые</w>
кон цеп
де те
ve -
v esti
tradi tional</w>
techno logies</w>
ou gh</w>
log ists</w>
invol vement</w>
in tr
ap pe
эк стра
сте р
свидетель ствует</w>
ро вой</w>
разрабо тки</w>
прогресси рования</w>
полимор физ
подтвер жда
поврежд ений</w>
окси дан
ван ной</w>
seg ment</w>
prac tical</w>
ne eded</w>
m ia</w>
en e</w>
discus sed</w>
diab etic</w>
chil d</w>
c ut
фи кса
пер со
нер вной</w>
материа ла</w>
гли ке
взрос лых</w>
анти биоти
remo val</w>
re plac
prof essi
path ic</w>
el ev
ch on
эндо васкуляр
ров .</w>
проявл ения</w>
проте и
особен ност
исхо дов</w>
vie w</w>
ph enom
экспер ти
се кре
медицин ского</w>
лока лизации</w>
группо й</w>
а д</w>
li on</w>
le g
elec tr
de menti
contri b
co verage</w>
2, 5</w>
раз де
ра йо
преимуще ственно</w>
ин фици
и или</w>
з ен
v -
suff ering</w>
re ti
quantit ative</w>
mode ls</w>
m uc
im medi
feder ation</w>
app ear
alter n
эпидеми ологи
ще го</w>
рассматрива ются</w>
рас се
ли я</w>
контроль ную</w>
диа ме
b ers</w>
5 .</w>
чере п
ф ло
проводи лось</w>
пациен тами</w>
отмеч ены</w>
момен т</w>
лока лиза
ишеми ческого</w>
за клю
вари а
s r
prac tic
is ting</w>
ex ac
de n</w>
de ep</w>
co ch
anti oxid
1 000</w>
фи бри
т с
показате ля</w>
наличи ем</w>
ло .</w>
большин стве</w>
ti mely</w>
there fore</w>
sol ution</w>
retro spective</w>
reg ulation</w>
mo re
gr ad
death s</w>
contro lled</w>
центра льной</w>
функциональ ного</w>
уда ления</w>
ря да</w>
поис к</w>
по ла</w>
бу ла
а ффе
pro vi
per fusion</w>
in clusion</w>
in a</w>
ex isting</w>
dr ain
ap par
4 0
это т</w>
уров н
терапев ти
с форми
ри ском</w>
ребен ка</w>
разви ва
отра жа
не де
клини чески</w>
во ло
year -old</w>
tu al</w>
ph ase</w>
mus cles</w>
mi x
in come</w>
fr ac
con genital</w>
complic ations.</w>
c y</w>
assist ed</w>
тив ное</w>
россий ской</w>
прото ко
пораж ением</w>
мо го</w>
ла рин
зи я</w>
ди ста
ге мато
thrombo sis</w>
st er</w>
po l
p s
i .</w>
go vern
e b
0, 5</w>
я сни
ь ю.</w>
тест а</w>
рован ный</w>
раз ры
обсужда ются</w>
невро логического</w>
наличи и</w>
коагу ля
изо ли
ана логи
polic y</w>
o wn</w>
neo plas
maj ority</w>
epide mio
clin ically</w>
at ri
9 7</w>
4 .</w>
у стран
опери рованных</w>
мыш ц</w>
жа ло
други ми</w>
динами ку</w>
vascular ization</w>
sec re
pers ons</w>
ne w
more over</w>
ma kes</w>
high ly</w>
all el
1 st</w>
1 5,
ш ан
ти н
сравнитель ный</w>
по следова
о на</w>
мер а</w>
м т</w>
имму ни
ди ф
w ater</w>
tech n
se t
er b
ре васкуляри
основ ную</w>
мозго вого</w>
которо е</w>
ге мор
б ар
а ку
sit u
previ ous</w>
m i</w>
exac erb
emp loy
deta il
bal ance</w>
ab o
6 .</w>
1- го</w>
расстрой ствами</w>
пре вы
попу ляции</w>
s ection</w>
resear ch
prote ins</w>
pro ved</w>
determin ing</w>
c ity</w>
те ст</w>
такти ки</w>
ре че
представля ет</w>
пласти ки</w>
ни ть</w>
контро лиру
комплекс ного</w>
produc tion</w>
pro mis
phenom en
gu e</w>
g m
et al</w>
хиру р
у станови
точ ки</w>
показа ли</w>
ни .</w>
наличи я</w>
н с</w>
ген а
вне др
ви та
repa ir</w>
p epti
mosco w</w>
em ents</w>
effici ent</w>
aff ected</w>
ру ет</w>
ра льной</w>
послеоперацион ного</w>
определ ены</w>
лей ко
анали зе</w>
th re
restor ation</w>
reconstruc tion</w>
n it
lip id</w>
ker ato
impro ving</w>
guide lines</w>
degener ative</w>
d ge</w>
con ser
я с
хоб л</w>
фин ан
ран ней</w>
перед ней</w>
обо б
кост ной</w>
дис функ
ген ной</w>
во з</w>
ам була
t ute</w>
so ft</w>
si l
re actions</w>
perfor med.</w>
gre at</w>
di sp
c m
back ground</w>
aneurys ms</w>
яз ы
ч ность</w>
ц е</w>
увелич ением</w>
ст .</w>
ро н
пред полага
ожи р
о че
на зна
до вери
диа па
возра стом</w>
во л
tri als</w>
trac t</w>
seiz ures</w>
pot enti
li k
con cluded</w>
20 -
си ну
про е
логи ческий</w>
де мен
выполня ли</w>
res our
ex ten
end oc
day s.</w>
cop d</w>
cir cul
та рной</w>
ре шения</w>
повы си
ме кси
кон так
исто ри
thor ac
ro sis</w>
r a</w>
obes ity</w>
epith eli
cell ular</w>
1 20</w>
т но-
отно шения</w>
опис а
критери ев</w>
ис кус
з ы
до но
анти оксидан
sear ch</w>
scal es</w>
i .
function ing</w>
ar th
ше й
теч ением</w>
спо собо
развити ю</w>
лю д
до каз
t as
st .</w>
recor ded</w>
gluco se</w>
enro lled</w>
e ds</w>
предста ви
ла сти
категори и</w>
ише мии</w>
ж ных</w>
д ности</w>
верх ней</w>
se x
requi res</w>
re al</w>
n e</w>
log ic</w>
ipi 0.00
flav in</w>
compu ted</w>
цито флави
улуч шить</w>
мето дами</w>
инте ре
значимо е</w>
дости жения</w>
вы вод</w>
вос станови
внутрен ней</w>
ve ins</w>
surg e
indic ate</w>
in e.</w>
er -
cro s
ство вать</w>
стар ческого</w>
пре доста
о н</w>
необходи мости</w>
з ан
во в
большин ство</w>
targe t</w>
phos ph
oc t</w>
issu es</w>
is o
eti ology</w>
di g
b ene
1 7,
эндо кри
у же</w>
тер на
рован ная</w>
прие ма</w>
пер вой</w>
з анима
во кру
бал лов</w>
te x</w>
t able</w>
p e</w>
m mp
fr ag
ex po
assess ing</w>
ag ents</w>
ца х</w>
факто ром</w>
услу г</w>
сти ту
реги стра
параме тры</w>
отдален ном</w>
опера ции.</w>
лиш ь</w>
компен са
е в.</w>
безопас ность</w>
ver sion</w>
thorac ic</w>
t un
si x</w>
orig inal</w>
is tic</w>
ing i
gr an
g f
fron tal</w>
extre m
х г
факто рами</w>
ти ть</w>
состави ло</w>
рекоменда ции</w>
рас хо
при чин
ль ности</w>
измен ение</w>
вариан тов</w>
аффе ктив
ани ю</w>
ver sus</w>
regi onal</w>
ref r
pro j
n at
kno w
der s</w>
a ut
ста били
м ного</w>
кож и</w>
к цию</w>
ви ч</w>
бы ло.</w>
v ical</w>
to -
throm b
sta y</w>
om y
materi als</w>
li ving</w>
j a
it u
indic es</w>
i um</w>
examin ations</w>
de fin
1 6,
1 00
цион ная</w>
учи тыва
рецеп торов</w>
о ш</w>
мозго вой</w>
кра й
кон кре
war ds</w>
vit am
se .</w>
r s</w>
psycho pathological</w>
le ast</w>
is h
graf t</w>
dn a</w>
consi der</w>
compar able</w>
bron ch
шизофр ении</w>
тран спо
тив ным</w>
тер ми
тель ным</w>
т вра
сред ним</w>
сопут ству
ро ти
ро б
результа т</w>
различ ными</w>
предо твра
пер вого</w>
н ение</w>
гло б
вра чей</w>
ventric ular</w>
reduc ing</w>
parti al</w>
doc um
depend ence</w>
de vo
aneurys m</w>
этиологи и</w>
тяже лы
се м
обнаружен о</w>
микро цир
болезн ь</w>
б е</w>
антите л</w>
sh ort
prof ile</w>
ic a</w>
distri bution</w>
ch emo
b s</w>
ati tis</w>
ac ro
- based</w>
эти м</w>
сто ли
сред няя</w>
систе ме</w>
си г
разработ ан
прогресси ру
оказ ания</w>
мета ста
м ан
ли нии</w>
критери и</w>
каждо го</w>
г ры
вести бу
брюш ной</w>
ба лан
аль ные</w>
а то
veg f</w>
underst anding</w>
typ ical</w>
so ur
perform ance</w>
ch ed</w>
a f</w>
ру б
остры м</w>
не жела
наблюда лось</w>
каждо й</w>
знач ений</w>
диф фу
д ри
wor king</w>
system .</w>
se par
pub lished</w>
previ ously</w>
mut ations</w>
mac ular</w>
in form
dist al</w>
7 .</w>
энцефа ло
холе сте
у мер
скоро сти</w>
пу тей</w>
психи ческого</w>
при чины</w>
пациен т</w>
литератур е</w>
ли це
за кры
го род
беремен ности</w>
ro u
modi fied</w>
m as
j unc
esophag eal</w>
di ame
b ar</w>
20 20</w>
0. 5</w>
ч то
цион ный</w>
функцио нальной</w>
фика ция</w>
т ное</w>
регу ля
пре облада
наи боль
дол го
ге теро
sta sis</w>
sp as
rap id</w>
person ality</w>
oc ar
n -
emp ha
co hor
3, 3</w>
3 0-
1. 0
це лом</w>
та кие</w>
ра з</w>
пациен тки</w>
о кон
н г</w>
муж чины</w>
и бс</w>
аль терна
st ates</w>
retin a</w>
resist ant</w>
rel ative</w>
de signed</w>
dat ab
cor related</w>
э м
соз да
показ ана</w>
обла ст
мо ду
из -
за коно
д ва</w>
высо кую</w>
бу р
refer ence</w>
promis ing</w>
lat eral</w>
l ig
ex pres
e ither</w>
тив ными</w>
т ный</w>
присту пов</w>
лабора тор
выжива емость</w>
wh ere</w>
ut ri
enc ed</w>
am ine</w>
ad en
achie ve</w>
то вой</w>
па д
основ ным</w>
моди фици
ката рак
ка роти
за ми</w>
бы стро
аль ный</w>
transpl antation</w>
st ent</w>
si mp
possib ilities</w>
pharmaco logical</w>
mex id
h .</w>
fore ign</w>
enc e.</w>
anti- inflammatory</w>
субъе ктив
составля ет</w>
ру ко
рандоми зирован
на м</w>
мен о
ма те
использо вать</w>
д ых</w>
гно й
ва лись</w>
в и</w>
recei ving</w>
pro long
plac e</w>
io p</w>
insuff ici
emergen cy</w>
d en
cer vical</w>
ш та
ш ением</w>
ч ь</w>
х от
произ води
о кис
из- за</w>
и гра
диагно за</w>
виру са</w>
to wards</w>
simult aneous</w>
recep tor</w>
par kin
p 0,001</w>
loc ated</w>
inf ections</w>
ge al</w>
ful ly</w>
devo ted</w>
cat eg
cap ac
a ver
ствен ными</w>
способ ности</w>
социаль ной</w>
современ ной</w>
реф рак
р -
отно ся
м ных</w>
дости га
гран у
ван ные</w>
st abil
plat el
parkin s
ly ing</w>
don tic</w>
ч ном</w>
у ско
то м.</w>
ре спира
мени н
ли зу
значитель ное</w>
выя влен</w>
st ri
sh ap
g o</w>
fra me
concep t</w>
шу н
характеристи ки</w>
ря д</w>
ред ко</w>
провед ены</w>
преди кто
отве та</w>
методи ка</w>
л ением</w>
ки не
ан с
resul ted</w>
public ations</w>
patter ns</w>
or bit
insti tute</w>
enh anced</w>
du al</w>
comp la
ar yn
ad he
сравн ение</w>
психи атри
по ним
осложн ений.</w>
ка са
исто чни
амп ли
y lo
subsequ ent</w>
spre ad</w>
predic tors</w>
b en
что бы</w>
ф рак
ори ен
морфо логических</w>
лабора торных</w>
ка ции</w>
ис ключ
долж ны</w>
wee k</w>
ic o
drain age</w>
d ents</w>
b le</w>
anal o
accor d
2. 5</w>
тр ени
снизи ть</w>
ри о
психи ческих</w>
препара тами</w>
моде ль</w>
ви дов</w>
а с</w>
vol un
ve ments</w>
sti ll</w>
remo te</w>
or ies</w>
mechan ism</w>
go ing</w>
ess ential</w>
er ed</w>
duoden al</w>
be g
adul t</w>
эктоми я</w>
стен ти
связан ные</w>
с фе
реа лизации</w>
объе ди
нов ремен
ль ном</w>
до ли</w>
диагности ческих</w>
да в
го рт
го .</w>
вич -
вг д</w>
vesti bular</w>
traum a</w>
tion s.</w>
smo king</w>
pregn ancy</w>
op to
m c
de mo
conser vative</w>
atheros clerosis</w>
appro pri
1 2-
рети но
под ходы</w>
патогене зе</w>
ло гов</w>
компле кс</w>
за д
генети ческих</w>
ге пати
ан ке
а по
rh in
nucl e
n utri
high est</w>
expo sure</w>
co sts</w>
b ial</w>
щи то
стар ения</w>
рассе ян
ра льного</w>
пра во
од новремен
о ши
о дин</w>
на ряду</w>
на пря
ла м</w>
ку мен
исследо вали</w>
диабе том</w>
год ы</w>
выполн ены</w>
th res
program s</w>
pic ture</w>
it ation</w>
in ts</w>
il lo
ex pl
e g</w>
clin ic
установл ена</w>
структур е</w>
степен ью</w>
случа ев.</w>
с ана
ровани ю</w>
ра льных</w>
произ вод
клеточ ной</w>
до кумен
prev ent</w>
mat ure</w>
introduc tion</w>
indic ated</w>
f as
es tic</w>
coun try</w>
aff ective</w>
характеристи к</w>
удовлетво ри
ти п
тель ная</w>
ства х</w>
симптомати ки</w>
раз лича
лего чной</w>
контро ль</w>
б ло
th ough</w>
st em</w>
ph er
instrum ental</w>
in dependent</w>
ici ans</w>
er s.</w>
epilep tic</w>
dementi a</w>
cyto flavin</w>
compris ed</w>
behavi or</w>
amoun t</w>
фор мой</w>
сосуди стого</w>
ремисси и</w>
оказ ыва
обо стр
на ко
ла ми</w>
кар цино
ис пы
reli able</w>
join t</w>
id o
adul ts</w>
acu ity</w>
0.0 5</w>
это му</w>
характер а</w>
физи ческой</w>
состояни и</w>
пораж ение</w>
па зу
образовани й</w>
нар ко
мо че
ма кро
жид кости</w>
tox ic</w>
s k</w>
ment ed</w>
m s.</w>
j us
i a
fam ily</w>
concer ning</w>
cl ass</w>
adolesc ents</w>
эффек та</w>
ш ко
чис лен
т э
рециди ва</w>
ля м</w>
желудо чной</w>
дете й.</w>
д ня</w>
биологи ческих</w>
б -
reduc es</w>
ex c
1 7.
1 5-
форми рование</w>
те ле
ствен ный</w>
ра ги
програм м</w>
прове сти</w>
на три
ле вого</w>
компьютер ной</w>
ени ем.</w>
госпита лизации</w>
вто рой</w>
бе дрен
st ability</w>
se ud
oc cu
n er</w>
my o
mark er</w>
iz ations</w>
fluo res
ex amp
antioxid ant</w>
ag ic</w>
ac e</w>
хи мио
увелич ения</w>
сочет ан
предо пера
ли на</w>
ку пи
ду од
большин ства</w>
ul es</w>
sp on
ra y</w>
metho ds.</w>
conta ining</w>
2 7
форма ции</w>
сред ства</w>
провед енного</w>
отде льных</w>
наруш ением</w>
г де</w>
rel atively</w>
plas tic</w>
patter n</w>
ho use
fibro sis</w>
f a</w>
bil ateral</w>
3. 3</w>
у потреб
ти е</w>
пол но
опера ция</w>
не доста
жи ть</w>
ж ного</w>
ени .</w>
де мографи
виде о
бо рь
v o</w>
u e</w>
t ent</w>
synd ro
qu e</w>
perio ds</w>
he ad</w>
g -
di m
angio graphy</w>
aff ect</w>
ы м</w>
то мии</w>
регу ляции</w>
ност ь.</w>
л ения.</w>
ид ной</w>
гипер тони
во ль
w al
troph ic</w>
tom y.</w>
techn ical</w>
mexid ol</w>
m es</w>
kin es</w>
ho w</w>
epith elial</w>
bio psy</w>
abo ve</w>
1- ю</w>
э э
уда ление</w>
стиму ляции</w>
ре зон
раз ной</w>
пере ло
да ции</w>
гли о
гемор раги
высо кого</w>
в ным</w>
psychiat ric</w>
professi onal</w>
org an</w>
ol y
necess ity</w>
medi a</w>
know le
h in
exper t</w>
фра гмен
пред лага
под роб
обеспе чения</w>
неско лько</w>
исследовани ях</w>
з ис
восстановл ение</w>
v i</w>
servic e</w>
sel ected</w>
repor ts</w>
op tic</w>
o s</w>
l y.</w>
he mis
f oun
estab lis
dis char
2 4
эксперимен таль
у ст
се ль
с р
по ясни
динами ке</w>
группа ми</w>
ви .</w>
большо й</w>
specific ity</w>
rec tal</w>
j un
fac ilities</w>
ex t</w>
educ ation</w>
8 .</w>
1 8,
тол щ
с ведения</w>
ровани я.</w>
оп у
не которых</w>
и де
дан ный</w>
vit y.</w>
vi ol
ul i
n d</w>
me thy
main ly</w>
infarc tion</w>
he mat
diame ter</w>
di ed</w>
d a</w>
cor tex</w>
conf idence</w>
calcul ated</w>
19 ,
1 5.
0 2</w>
чувстви тельность</w>
ч ное</w>
спек тра</w>
со бы
ру бе
проце ссы</w>
подо б
образ цов</w>
длитель ности</w>
v s.</w>
syndro me.</w>
sub 2
stro k
regi stered</w>
program me</w>
prepar ation</w>
midd le-
loc ation</w>
i or
am in
altern ative</w>
ac qu
ст ы</w>
пред у
пар кин
не .</w>
м ла
persist ent</w>
p seud
obstruc tive</w>
h g</w>
dis tin
ati ves</w>
arth ritis</w>
amoun ted</w>
acc um
ы е</w>
ство вали</w>
соответ ству
слу ха</w>
с н</w>
ру ют</w>
паркин со
ор би
лазе рной</w>
кле тки</w>
инду ци
желуд ка</w>
е ще</w>
ды х
дифференциаль ной</w>
голо вокру
воро жд
бо р</w>
tr ation</w>
ti s.</w>
sh ort</w>
rad ical</w>
per cent
p yl
on co
gener ation</w>
ch all
cerebro vascular</w>
b on
юще йся</w>
те та</w>
со об
ро ди
раз ни
пу ль
подрост ков</w>
под желудочной</w>
по бо
о рес
кол ла
кисло ты</w>
вне ш
вирус ной</w>
вани ю</w>
ауто имму
аневриз мы</w>
u re
insti tu
in ess</w>
ent ed</w>
dos es</w>
def ects</w>
childr en.</w>
ati c
at ors</w>
9 .</w>
200 8</w>
ход ь
страда ющих</w>
сто и
с ка
отмеча лось</w>
м п</w>
ли ца</w>
ли по
ку ро
дан ными</w>
графи я</w>
вши е</w>
вероят ность</w>
бо ра</w>
sib ility</w>
protoco l</w>
fac il
di stric
cros s-
cor d</w>
c ular</w>
3 00</w>
э ри
под чер
обсужд ение.</w>
об мена</w>
но зо
кур с</w>
ис клю
возмож ностей</w>
ва ют</w>
ан ги
us al</w>
sum mar
sp ine</w>
reti no
mal es</w>
ic iency</w>
emb ol
correl ations</w>
cohor t</w>
auto immune</w>
anc e.</w>
1 6.
ск ани
сахар ным</w>
резон анс
режи ме</w>
психо патологи
противо воспалитель
про цен
пре сс
отдален ные</w>
опис ание</w>
обнару жены</w>
о собо
молекуляр но-
ид ных</w>
ено .</w>
strateg ies</w>
ne ph
demo graphic</w>
co st</w>
cal c
2 5-
2 1,
1 50</w>
эффек тов</w>
ф лу
тель ном</w>
спе ктро
слу ж
показа ло</w>
по у
от ро
об работ
морфологи ческие</w>
sig n</w>
s cho
rig h
re cogn
pec uli
or d
comp li
ad d
пря мой</w>
применя ли</w>
повед ен
по ми
п э
ос мо
об служи
о ко
комби нации</w>
интенсив ности</w>
дуод ен
др ени
д нк</w>
г рен
в ены</w>
анали зиру
алгорит м</w>
ve .</w>
r d</w>
p0.0 1</w>
p t
ni h
mater nal</w>
inj ections</w>
hetero gene
ep i
adap tation</w>
уров ни</w>
тив ный</w>
семе й
многи х</w>
мекси до
клини ческая</w>
инфек ционных</w>
имп лантации</w>
вы делены</w>
во да</w>
ro ot</w>
par a
m t
ho od</w>
gast ric</w>
difficul ties</w>
b ase</w>
со нной</w>
р 0,001</w>
произ вед
позвоно чника</w>
пло тности</w>
п я
основ ная</w>
об щая</w>
невро логических</w>
на з
н ений</w>
монитори нга</w>
медико- сани
зи рования</w>
зависи т</w>
за вер
е вро
аль ным</w>
sin us</w>
r ho
prolong ed</w>
lay er</w>
lay ed</w>
g ir
cut aneous</w>
cor tical</w>
atheros clero
юще м</w>
челю сти</w>
су ль
стиму ля
ст а</w>
продолжитель ности</w>
по ведения</w>
опу бли
опубли ко
обла д
о ли
ны м.</w>
н -
критери ям</w>
к цией</w>
информа ции</w>
интерва л</w>
ано ма
v as</w>
t ymp
se x</w>
s chem
pre fer
po wer</w>
periodon tal</w>
ol s</w>
ne t
intra ocular</w>
i red</w>
h c
f ying</w>
appropri ate</w>
a p</w>
5 0
э хо
че к</w>
ти й</w>
симпто мы</w>
рес публи
пре облад
по да
ори ги
на ходя
н г
ле вой</w>
ко гда</w>
заболевани й.</w>
други е</w>
включ ения</w>
spec ies</w>
om e</w>
log ically</w>
l igh
knowle dge</w>
inj ection</w>
il- 6</w>
end arter
depres s
an ds</w>
allow ed</w>
эн дар
шка ла</w>
ф лю
туберкуле за</w>
расс чи
зо н</w>
д р</w>
био хими
б ре
under lying</w>
subj ective</w>
stom y</w>
r 0,
per form</w>
investig ations</w>
impro ves</w>
ig g</w>
health- care</w>
fol d</w>
f at
complic ation</w>
19 .
1 8.
эффектив ной</w>
эндар тер
щито видной</w>
рекоменда ций</w>
последу ющим</w>
полу чи
показ ания</w>
о пи
комплекс ное</w>
дву х
все ми
z ed</w>
vari ant</w>
v .</w>
ti co
sup2 sup</w>
strok e.</w>
soc io
replac ement</w>
recep tors</w>
p 0.
ma king</w>
insuff iciency</w>
difficul t</w>
catar act</w>
ben ign</w>
at or</w>
200 0</w>
экспресси я</w>
у де
само стоя
ро да</w>
назна ча
лич ност
ко ге
за тем</w>
до фа
воз бу
вне д
g ml</w>
fluores c
discus ses</w>
cri tical</w>
contr ast</w>
c all
anti depress
acc ep
ч а</w>
хо рио
стратеги и</w>
пу ти</w>
продол жа
про явля
поло жен
ну кле
ма ссо
ли ли</w>
з я
ги ги
бо ва
ар ко
u si
tre ating</w>
s i</w>
p0,0 1</w>
n p</w>
me tr
k i-
h und
ede ma</w>
coll ag
aud itory</w>
ю щую</w>
фор му
технологи и</w>
сум мар
социаль но-
пла це
на сту
на де
мен ы</w>
магни тно-
лен ного</w>
ишеми ческой</w>
де .</w>
да же</w>
ван ного</w>
болез ней</w>
u sion</w>
symptom atic</w>
sh un
re ad
polymorph ism</w>
ortho dontic</w>
occurr ence</w>
frame work</w>
fix ation</w>
dec i
commun ity</w>
b est</w>
чувстви тельности</w>
частот е</w>
с це
ра ком</w>
представл ено</w>
потер и</w>
па пил
орес цен
низ ко
неско ль
ль ное</w>
коро т
ки та
значи мые</w>
достаточ но</w>
выбо р</w>
ва р
n sa
mig ra
me mor
intrac ranial</w>
impl ant</w>
hepati tis</w>
bir th</w>
as e-
al lo
ц у</w>
сочет ание</w>
ре .</w>
пер фо
оче ред
отмеча ется</w>
о ч
но й.</w>
к г
инте гра
ил -
з ы.</w>
tend ed</w>
sti tu
sho w</w>
s cl
pers onal</w>
g er</w>
el ements</w>
e eg</w>
be d.</w>
6 0
эпители я</w>
экст рак
ь я</w>
характери зо
т г</w>
с ку
рассматрива ется</w>
ран них</w>
ради каль
работ ников</w>
не й.</w>
м ной</w>
исхо да</w>
использова лись</w>
гла зного</w>
га ми</w>
введ ение</w>
ва рь
volun te
vitam in</w>
u re.</w>
repe ated</w>
ref lu
percent age</w>
out patient</w>
hydro x
ex ce
contro ls</w>
consider ation</w>
consequ ences</w>
blo c
behavi oral</w>
ac ter</w>
2 5,
тради цион
ти ческим</w>
сред нее</w>
сопровожда ется</w>
ско ль
ра дио
плаз ме</w>
нейро дегенера
ме д
за рубе
гри п
воз действие</w>
вмешатель ство</w>
варь и
wh ere
som atic</w>
requir e</w>
re vascularization</w>
p -
ort a</w>
investig ated</w>
hy dr
f -</w>
el er
disc ipl
compla ints</w>
comb in
cl ass
carcin oma</w>
capac ity</w>
a orta</w>
2- ю</w>
эри тро
э о
хро мо
установл ены</w>
пу нк
профилакти ке</w>
пол ностью</w>
обо их</w>
магнитно- резонанс
гемо динами
вывод .</w>
wh ole</w>
val ve</w>
v d</w>
ti n</w>
sub group</w>
r y</w>
p on
o id</w>
n ed</w>
fact ory</w>
coag ul
ass a
al y
6, 7</w>
щ ены</w>
цитоки нов</w>
тем пера
тель ное</w>
са х</w>
ре к
ран него</w>
происходи т</w>
проду ктив
препара том</w>
полож ения</w>
ориен ти
компонен тов</w>
клини ческими</w>
з ным</w>
добро каче
голо в
гидро кси
выжива емости</w>
вено зной</w>
в до
u ary</w>
sen ile</w>
orbit al</w>
ol ar</w>
oc c
nat ural</w>
muc h</w>
mit ted</w>
mil lion</w>
immedi ate</w>
head ach
femal es</w>
c n
analy sis.</w>
accord ance</w>
ч ную</w>
уг ле
ре в
паро дон
об ре
когни тивного</w>
карти ны</w>
горт ан
артери ального</w>
wor kers</w>
tn f-</w>
stud ying</w>
rou tine</w>
parkins ons</w>
l ens</w>
hyperten sive</w>
gi ves</w>
ec t
biom ar
ств у</w>
со нных</w>
реа кций</w>
по страда
отде лов</w>
наблюда ется</w>
на уч
ми я</w>
методи к</w>
ло н
ин .</w>
за дней</w>
глу та
а с
w ed</w>
verte bral</w>
ser ious</w>
reve al</w>
qual it
no d
n ar
m d</w>
k -
ipi 0,05</w>
er y
detail ed</w>
cont act</w>
c d</w>
aut onomic</w>
at tac
asth ma</w>
2 1.
1, 0
эта пах</w>
уда лось</w>
систе ма</w>
ру ется</w>
рент ген
пробле ма</w>
пред вари
по ра
ни ми</w>
моло до
метри ческих</w>
контроль ная</w>
дру го
до би
де мии</w>
бу ду
ti t
resul ting</w>
pl anning</w>
p ac
min eral</w>
mechan ical</w>
manifest ation</w>
ic ro
gastro intestinal</w>
f s</w>
diff er</w>
ar t</w>
af ric
7, 5</w>
3 0,
1, 2</w>
эп изо
х ло
у ха</w>
тони на</w>
ствен ная</w>
сердечно- сосудистой</w>
с кий</w>
ру ющей</w>
проте ктив
пред ше
получ ения</w>
п рав
око ло</w>
о г
мем бран
кро ви.</w>
кон ъю
клини ческую</w>
измен ениями</w>
диабе та</w>
vi a</w>
veg f-
v ul
t b
st res
p h</w>
lim ited</w>
l ab
inf il
hund red</w>
hormon e</w>
ac ts</w>
18 -
умень ши
стату с</w>
рт .
разно образ
ра ни
прогно за</w>
прогно з</w>
по се
организ ма</w>
оказа лись</w>
н ю
з р
вы с
бли жа
аб доми
tw o-
exper ti
e o
comp os
arti ficial</w>
ты вать</w>
стран ы</w>
стандарт ной</w>
са м</w>
ров ки</w>
резе кция</w>
представл ена</w>
пре ж
пер вых</w>
отсутстви и</w>
отме чен</w>
метри я</w>
м к</w>
лим фа
зо фа
зи ей</w>
ен ности</w>
высо кие</w>
аф ри
s w
mode ling</w>
mm se</w>
mix ed</w>
mark ed</w>
m -
k g</w>
fem oral</w>
b ility</w>
хо да</w>
улуч шению</w>
ст ин
рован ное</w>
ран ы</w>
подхо дов</w>
мк м</w>
корре ляции</w>
и к
досту п</w>
да м</w>
би на</w>
spec tro
rema ined</w>
prote in
includ es</w>
hy bri
e lo
dy sp
diff use</w>
comple x
b ile</w>
anesthe sia</w>
amp lit
al most</w>
2 nd</w>
цен тро
фибро бла
умень ша
тер ри
терри тори
тель ства</w>
спо со
са ми</w>
ри я</w>
поу г</w>
ост р
особо е</w>
коронар ного</w>
ба зо
um .</w>
u su
trop ic</w>
tic s.</w>
syndrom es</w>
s ou
prolifer ative</w>
geno type</w>
foc us</w>
def ect</w>
co herence</w>
2 3,
я за
шизофрени ей</w>
созд ания</w>
случа й
р .</w>
превы ша
пре бы
полимор ф
повы ша
п ят
п ж</w>
одно момен
мень ше</w>
ин фильтра
из бы
ги бри
выполн ение</w>
вним ания</w>
ва зо
в ные</w>
ал ло
y r
vi de
v es
ular ly</w>
resi dual</w>
re -
phar yn
ell ular</w>
ear li
cor p
con junc
compli ance</w>
chro mo
bio chemical</w>
b el
acc eler
функциони рования</w>
ти ческий</w>
стре сса</w>
следу ющие</w>
сердечно- сосудистых</w>
расши р
рас положен
пробле м</w>
п лан
опти ческой</w>
му ю</w>
моло дых</w>
меся цев</w>
м ся</w>
м б
ль ными</w>
и ни
возраст у</w>
вер ти
аль ную</w>
ur g
to ge
tion ally</w>
ser o
prescri bed</w>
oun ds</w>
li qu
li po
ec ts.</w>
cyto kines</w>
bu ted</w>
у правл
ре спон
р ных</w>
откры то
обследо ванных</w>
край не</w>
корти ко
клеточ ного</w>
де компресси
аг ресси
thor aco
techno logy</w>
su mp
str a
res ol
my op
mat ri
lik ely</w>
influ enz
cy tes</w>
coch le
b l
ap opto
ac r
эпилепси и</w>
ы й</w>
терапи ю.</w>
стро фи
скоро сть</w>
при обре
п п
охва та</w>
конеч ност
заболевани ях</w>
ени и.</w>
в са</w>
боль ших</w>
z ation</w>
well -
se en</w>
s in</w>
pan de
ki- 67</w>
i an</w>
h b
ex tent</w>
ecti on.</w>
corne a</w>
cho ro
acti v
6 0,
2 2,
рабо та
поми мо</w>
подготов ки</w>
персо на
не которые</w>
когни тивные</w>
к т-
глу б
в кла
бе з
анастомо за</w>
ul c
subj ected</w>
st enting</w>
pro phy
physi o
p itu
is e</w>
hemorrh agic</w>
endoc rine</w>
d ou
6. 7</w>
э зофа
ф а</w>
та б
се год
результа тами</w>
на чи
ли ней
л ло
ка жд
вы пис
вы дел
ва .</w>
wom en.</w>
toge ther</w>
to ol</w>
th s</w>
re produc
r u
oti tis</w>
nec k</w>
man di
hy gi
g al
func tion.</w>
extre mely</w>
encephal o
dim ensi
comorb id</w>
ca mp
ang le</w>
х бп</w>
схе мы</w>
рас че
р ф</w>
публика ций</w>
постоя н
патологи и.</w>
наблюда лись</w>
мие ли
коагуля н
до полн
дальней шего</w>
вариа бе
ба за
апо пто
vacc ine</w>
vacc ination</w>
trache al</w>
t ex
su ic
sel ection</w>
pub med</w>
patho logy.</w>
on in</w>
obser ved.</w>
o re
ipi0.0 5</w>
ipi 0,00
in ning</w>
cl ear</w>
c ad
bur den</w>
am s</w>
a si
эк зо
у ча
сдела н</w>
с мо
ри ги
рав но
пациен та.</w>
пати ей</w>
оказ ывает</w>
ни ки</w>
кост ей</w>
име ющих</w>
де т</w>
де ся
ампли ту
а це
where as</w>
tran sc
t 2
re active</w>
r o</w>
p a</w>
n ine</w>
mel an
lat er</w>
i tion</w>
h is</w>
h d</w>
f atal</w>
ec y
d ent
car bo
ac et
судебно- медицинской</w>
спин ного</w>
рт. ст.</w>
при род
при мер</w>
пит ания</w>
пере да
ок т</w>
об яза
лож ены</w>
лиза ция</w>
днев ной</w>
вопро с</w>
вариан ты</w>
ва ли
sc anning</w>
rhe um
recurr ence</w>
platel et</w>
p ass
ig g
ic d-
ar ities</w>
al though</w>
ag on
- 9</w>
форма ми</w>
фикса ции</w>
тяже сть</w>
те .</w>
соб люд
с лю
с ла
рован ными</w>
ню ю</w>
мио пи
ля .</w>
леч ением</w>
леталь ности</w>
ес ли</w>
ден тов</w>
го ни
в п
аппара та</w>
а ка
thrombo tic</w>
rel ation</w>
regar d
regard less</w>
r ural</w>
pros thetic</w>
p el
me lat
integr ated</w>
h and</w>
e very</w>
di um</w>
devic e</w>
7. 5</w>
хо зя
ультразву ко
сколь ку</w>
се б
себ я</w>
реф лю
послеоперацион ной</w>
положитель ная</w>
по все
основ ными</w>
на значения</w>
и мен
за труд
з ные</w>
емо м</w>
боль ной</w>
vari ability</w>
questionn ai
nih ss</w>
mod ul
indic ates</w>
i on</w>
ho mo
enc ing</w>
countri es.</w>
con tra
antibio tic</w>
3 1.
2 5.
эмбо ли
част ь</w>
тив ная</w>
та ция</w>
ствова ло</w>
рова л</w>
рекон структив
при ори
по скольку</w>
па т
лимфо цитов</w>
гру дной</w>
ви да</w>
wo uld</w>
se ven</w>
re public</w>
pre -
periton eal</w>
memor y</w>
inter est</w>
inf ected</w>
identi fi
end s</w>
deter ior
chole stero
2 8,
ст ной</w>
соста ва</w>
преимуще ства</w>
посред ством</w>
повы шает</w>
оп ласти
мо би
лечеб но-
л ю</w>
л п
и дов</w>
жиз ни.</w>
др .</w>
довери тельный</w>
г ре
взаимо связь</w>
биоп си
анти коагулян
show s</w>
r e</w>
matri x</w>
hospit als</w>
er ous</w>
endarter ectomy</w>
e ight</w>
correc t</w>
col on</w>
admini stered</w>
2 2.
. в.</w>
ц .</w>
участ ников</w>
увелич ению</w>
тенден ция</w>
те ли</w>
стать я</w>
поло ви
перифери ческой</w>
панкреа ти
не фро
н го
ми грен
ме .</w>
м -
конеч ности</w>
компен си
здравоохран ения.</w>
за фикси
ен ном</w>
ана вли
res on
psycho tic</w>
po ag</w>
muco sa</w>
f ut
epitheli um</w>
degener ation</w>
clin ic</w>
circul atory</w>
ad vis
ad s</w>
abil ities</w>
1, 3</w>
ф п</w>
тре х
тол щи
т ка</w>
связан ы</w>
раз и
прове ли</w>
призна ками</w>
полож ение</w>
позволи т</w>
повыш ению</w>
пнев мони
оцен кой</w>
опросни ка</w>
нау чных</w>
ку ляции</w>
кост ного</w>
кор ы</w>
клини ческим</w>
ин ститу
евро пе
внутри вен
tox ic
spec imens</w>
resour ces</w>
r ab
pri or</w>
or ph
ocy te</w>
migra ine</w>
micro scopy</w>
int act</w>
hypo x
elev ated</w>
dis section</w>
destruc tion</w>
d ate</w>
cor tico
continu ous</w>
bene f
3 5
2 4,
ше д
четы ре
характеризу ется</w>
сред не
состояни й</w>
со труд
рент гено
резистен тности</w>
ред у
рег рес
профи ля</w>
ни тельно</w>
несколь ких</w>
концентра ция</w>
комби на
из бе
зо м.</w>
доби ться</w>
до ба
деб ю
гортан и</w>
во й
влия ет</w>
ба зе</w>
ар три
tic ity</w>
syn thesis</w>
s an
prog ress</w>
princ ipl
ne l</w>
inf erior</w>
g a</w>
experti se</w>
em ber</w>
descri bed.</w>
chol ecy
200 5</w>
специали стов</w>
рова лись</w>
ретроспектив ный</w>
пре ры
пол ной</w>
по этому</w>
очеред ь</w>
отве т</w>
е мый</w>
включ ено</w>
ви тре
большо е</w>
бо ль</w>
ter r
s f-
revie ws</w>
pregn ant</w>
po is
minim al</w>
l or
ecti vely</w>
deli very</w>
def ined</w>
acro ss</w>
accur acy</w>
1 10</w>
элемен тов</w>
ци тар
терапев тических</w>
су точ
на -
ли яни
жи телей</w>
добро воль
sk ul
satis factory</w>
reson ance</w>
res t</w>
produc ts</w>
popul ations</w>
n as
meta st
jus ti
descri ption</w>
coag ulation</w>
ch ing</w>
atherosclero tic</w>
ar ch
al b
эндотели я</w>
хот я</w>
х ру
тяже лых</w>
ти пом</w>
терапи ей</w>
спа сти
со пря
серде чной</w>
сахар ного</w>
приори те
ны ми.</w>
ност о
модели рования</w>
ма сш
дых ания</w>
во до
ве т
wor k
we igh
um ab</w>
re present
p ast</w>
organ ic</w>
hepati c</w>
gre at
fol low</w>
fin anc
eno pa
di ver
щи й</w>
ч ка</w>
сер ье
сегмен та</w>
с е</w>
регресси он
пресс ан
параме тра
опы та</w>
окклю зии</w>
медици ны</w>
клеточ ных</w>
к ту
ге ри
г -
встреча емости</w>
возбу ди
в ше
в м
бел ков</w>
reconstruc tive</w>
re stric
por tun
pneumon ia</w>
perform ing</w>
op portun
on e-
mut ation</w>
medic ation</w>
lum bar</w>
frac tures</w>
endo genous</w>
enc ies</w>
car ies</w>
c b
bor n</w>
aff ecting</w>
ad enom
3 0.
- b
часто той</w>
х -
фи ли
ту го
стандар ти
соста ве</w>
расс мо
пребы вания</w>
от лож
опухо ль</w>
ляр ных</w>
исход но</w>
зирован ной</w>
зависи мость</w>
дефек та</w>
го ся</w>
ген ного</w>
вклю чили</w>
ver ified</w>
th i
tend ency</w>
temp er
so f
pati ent.</w>
oxid ative</w>
on to
n a
melat onin</w>
indicat or</w>
i- iii</w>
examp le</w>
en erg
demonstr ate</w>
appe ared</w>
anastomo sis</w>
am ylo
4 0,
ы ми</w>
туго ухо
трансп лантации</w>
стационар е</w>
систе му</w>
сем ь
с кая</w>
повыси ть</w>
нежела тельных</w>
мо ск
ку ло
кари е
инвали ди
изуча ли</w>
и г
в н
ближа й
б ля
un ited</w>
struc tu
principl es</w>
practic e.</w>
perio per
or ts</w>
l s.</w>
inten sive</w>
indi rec
fe a
fact ors.</w>
ent er
соста в</w>
пра вой</w>
подчер ки
пери операцион
п се
отсутстви ем</w>
остр ых</w>
нейро нов</w>
ме диа
мани фе
ж ности</w>
длитель ностью</w>
гисто логи
взаимо связи</w>
благо дар
аст ени
tr end</w>
t ab
prob ability</w>
perioper ative</w>
p ig
or .</w>
log ist</w>
fistul a</w>
er ro
ck d</w>
can al</w>
at ric</w>
ap s</w>
2 3.
функциональ ные</w>
физиологи ческих</w>
физи о
с п</w>
р у</w>
р нк</w>
проте ка
мето до
луч ения</w>
к рас
исследу емых</w>
жиз не
допол нительно</w>
гипо кси
внед рения</w>
важ ным</w>
би ра
z y
regul atory</w>
ph il
on e.</w>
normal ization</w>
neuro pathy</w>
neur ons</w>
m l
iz ation.</w>
ing ly</w>
gran ulo
gen s</w>
epidemio logical</w>
cl ar
cd 4</w>
adap tive</w>
2 7,
хрони ческих</w>
холе ци
у строй
рекон струкции</w>
приводя тся</w>
послед них</w>
полити ки</w>
патологи ческого</w>
оча го
опери рованы</w>
окру жа
ми ре</w>
корреля ция</w>
и ци
заклю ча
до зы</w>
де прессан
внутрен них</w>
аневриз м</w>
v ic</w>
too th</w>
toler ance</w>
st re
ri mal</w>
neph ro
n d
inf ants</w>
in som
fibro bla
dom estic</w>
can di
b a</w>
appear ance</w>
all ergic</w>
шка лам</w>
способ ность</w>
со лю
селе ктив
свой ств</w>
с арко
рентген ологи
про жива
по стро
па ми</w>
ль ную</w>
ли н</w>
коро на
интенсив ность</w>
да ет</w>
госпита ли
веще ства</w>
благодар я</w>
а т</w>
who se</w>
who m</w>
ves se
vesse l</w>
t s
suggest ed</w>
str ength</w>
sk el
pc r</w>
out .</w>
ol aryn
medic ines</w>
le p
iti es.</w>
impl ants</w>
fut ure</w>
discus s</w>
dep th</w>
bo t
b mi</w>
2 9,
2 8
1, 4</w>
э ро
ф .</w>
тол стой</w>
таль ная</w>
та ла
т ки.</w>
т .
ство ло
сни жен
сер ди
потре бова
под кож
мо стью</w>
л ению</w>
з ная</w>
дву сторон
ге ми
вери фици
аб солю
vi rus
t ory</w>
surve ill
sump tion</w>
sub -
st ep</w>
reg ular</w>
pitu itary</w>
ma .</w>
glo mer
f .</w>
commun ic
as c
6 0.
3 2.
эффек ты</w>
щи хся</w>
ты м</w>
разработа ть</w>
проводи ть</w>
показате лям</w>
под дер
пов торных</w>
площа ди</w>
п г
основ ного</w>
окон ч
но ворожд
не челюст
не рги
ла тен
кише чника</w>
зи ровали</w>
ени ю.</w>
дви ж
голо вной</w>
анти депрессан
аль ном</w>
x- ray</w>
w ing</w>
toler ability</w>
so dium</w>
pyl or
p u
graf ting</w>
gr av
gi ve</w>
fun g
euro pe
enzy me</w>
enc e-
elim in
ch y
c g
acqu ired</w>
широ ко</w>
чере па</w>
че та
хозя й
фе ро
учи тывать</w>
установи ть</w>
указ ан
ткан е
тен зии</w>
сро к</w>
со чета
случа и</w>
по ня
отде лении</w>
мие ло
ме л
л ены</w>
значи мость</w>
жи т</w>
е мым</w>
дис ци
дан ном</w>
глюко зы</w>
визуа лизации</w>
верх них</w>
в с</w>
ами ло
top ical</w>
t m
set tin
regi men</w>
r 0.
os in
obstruc tion</w>
manifest ed</w>
lat ter</w>
it es</w>
io l</w>
gir ls</w>
de layed</w>
com mon
chon dri
cholestero l</w>
br ain
b c
amplit ude</w>
явл ений</w>
тор но-
рекомен ду
пред серди
плаз мы</w>
оч ень</w>
опухо лями</w>
о коло
му тации</w>
ка льного</w>
к три
злокаче ственных</w>
гемо ста
встреча ются</w>
вра ча
вод ного</w>
адап тации</w>
univer sal</w>
thyro i
ter min
temp or
st rom
special ists</w>
reflu x</w>
pros thesis</w>
prog res
p ed</w>
k h
headach e</w>
gl ut
ex tra
discipl inary</w>
bronch ial</w>
atri al</w>
3, 5</w>
эле ктри
х сн</w>
тре ть
ти ва
стади ях</w>
ро до
ресур сов</w>
ре й</w>
ре генера
по ле
пище вода</w>
отда ленных</w>
осно вания</w>
направл ения</w>
ми ну
з ре
генети ческого</w>
г эр
возмож ные</w>
внедр ение</w>
висо чной</w>
взаимо действия</w>
ба зис
аспек ты</w>
ад ге
w at
u mo
sc t</w>
o m</w>
nec rosis</w>
m atic</w>
j an
inter action</w>
int ell
i. e.</w>
end ing</w>
ane ously</w>
200 7</w>
2 6,
увеличи ва
соеди нитель
с се
ра м</w>
практи ки</w>
последу ющей</w>
положитель ный</w>
пе .</w>
пати я</w>
от кло
обеспечи вает</w>
м 2</w>
инде кс
вклю чение</w>
аль ное</w>
thres hold</w>
stand ardi
skul l</w>
q -
o ro
o g
neuro surgical</w>
influenz a</w>
immun ological</w>
exp end
europe an</w>
e l</w>
differenti ated</w>
ch d</w>
b dn
ati n</w>
3 2,
ээ г</w>
ткан ях</w>
те ля</w>
т ными</w>
т ную</w>
рова ла</w>
повыш ением</w>
ну жда
необходи мы</w>
методи ке</w>
ко н</w>
еди н
дисци пли
д ней.</w>
генера лизо
выполн ении</w>
wh ite</w>
var ying</w>
uc id
sk ill
reas ons</w>
pan ss</w>
n 1</w>
min utes</w>
iz es</w>
identifi ed.</w>
gener alized</w>
fam il
exercis e</w>
earli er</w>
depend s</w>
compens ated</w>
ce phal
anti coagul
analy sed</w>
3- я</w>
ци ям</w>
церебро васкуляр
финан си
устойчиво сти</w>
те стов</w>
с лабо
при в
послеоперацион ные</w>
поверх ност
побо чных</w>
пнев мо
об раж
не специфи
мк б-
л -
куро рт
крово теч
ка пил
изуч ению</w>
жи ровой</w>
женщ ин.</w>
алле рги
x .</w>
u ter
tw ent
tre at</w>
system atic</w>
sup2 sup
s d
pla y</w>
phenomen on</w>
il -1</w>
hal f</w>
ger iat
examin ation.</w>
ex tr
ery thro
con clusion</w>
collag en</w>
chang ed</w>
chall eng
b asal</w>
at yp
9 0
2 9.
1 4-
то мо
ру ющего</w>
рит ма</w>
проте за</w>
преде лах</w>
паркинсо на</w>
отсутстви я</w>
обу чения</w>
нов .</w>
мыше чной</w>
молодо го</w>
моле ку
мем бра
ку п
ко к
им т</w>
и р
зри тельного</w>
зо на</w>
диабе тической</w>
вмешатель ства.</w>
би р
артери о
ад рен
а сси
vas o
under going</w>
sub groups</w>
ser ies</w>
sel f</w>
prot ection</w>
i ri
clo se</w>
cl im
bil i
ar tic
ant s.</w>
abs ol
6 4,
эта па</w>
э т
хон дри
уль тра
толщ ины</w>
со вмест
расхо дов</w>
раство ра</w>
рабо та</w>
псе вдо
при над
показ аний</w>
пер си
нейро психо
не н</w>
на раст
лет няя</w>
крово из
кровоиз лияни
кол ле
к -
законо мер
гипер тензии</w>
во р
ва н</w>
в води
б лока
авто рами</w>
youn ger</w>
we l</w>
too k</w>
se -
s qu
par ts</w>
neuro degenerative</w>
ne u
middle- income</w>
inhibit ors</w>
hol ds</w>
ha emo
gener ally</w>
facil it
fac t</w>
dop pl
cs f</w>
chemo therapy</w>
ca re.</w>
auth or</w>
au g
at tri
ant .</w>
agg reg
5 0,
4 0.
эффектив но</w>
т ном</w>
сс -
орг ана
обусло вли
образо вание</w>
наблюда лась</w>
ме ри
ишеми ей</w>
дефици т</w>
vari ed</w>
u ally</w>
s ac
rang ed</w>
mo vement</w>
invol ving</w>
insom nia</w>
h am
fix ed</w>
di c</w>
dat a.</w>
consider ed.</w>
compu ter</w>
coll ected</w>
all s</w>
ag es.</w>
8 0
2 8.
те ку
су ици
снижа ет</w>
са м
по -
па мя
орто донти
наль ные</w>
ко ле
е мая</w>
брон хи
боле вой</w>
u r</w>
surge ons</w>
secre tion</w>
organ izations</w>
observ ations</w>
m ir
high ligh
hemis pher
f if
exam ine</w>
establis h</w>
de compression</w>
continu ed</w>
consider s</w>
conjunc ti
beg inning</w>
allel e</w>
1, 8</w>
1 sup
ц нс</w>
то ну
ти ческие</w>
тель ную</w>
те х</w>
сти ческой</w>
со обще
про кси
примен ению</w>
осуществля ли</w>
остры й</w>
описа н</w>
ми ко
ли ни
кри о
ко ди
ка льных</w>
инвази вных</w>
зу б
емо е</w>
гла з
ва ш</w>
ul tra
tum ors.</w>
surveill ance</w>
scal e.</w>
s me
relationshi ps</w>
re main</w>
pepti de</w>
partic ularly</w>
my elo
hospit al-
gl and</w>
g on
form ul
fibrobla sts</w>
exper ts</w>
en ess</w>
el ucid
dis m</w>
dec line</w>
call ed</w>
at roph
al ve
ad mission</w>
1. 2</w>
целесообраз но</w>
форми ровании</w>
феде рации</w>
у го
т ща
суста ва</w>
спосо б</w>
соз н
сен со
ри но
реваскуляри зации</w>
ре же</w>
потенциа ла</w>
оста ются</w>
об структив
нер вных</w>
независи мо</w>
на след
микроскопи и</w>
луче вой</w>
лечеб ных</w>
к та
й -
измен я
деся ти
глауко мы</w>
актива ции</w>
wide ly</w>
tr ends</w>
syst olic</w>
pur ul
phys icians</w>
peculi arities</w>
mono therapy</w>
mo ti
metast ases</w>
i ro
h c</w>
electr ical</w>
compar ing</w>
bili ary</w>
asthen ia</w>
ab normal
3 5,
. н.</w>
- related</w>
щ у
ш енных</w>
хру ста
хруста ли
фор ма</w>
фо кальной</w>
факто р</w>
ру ющие</w>
проспектив ное</w>
приве ло</w>
представл ения</w>
пласти ка</w>
пи ри
ме га
к сов</w>
за цию</w>
выражен ной</w>
вариан т</w>
wal king</w>
w ard</w>
tac tics</w>
str ong</w>
sing le-
sel ective</w>
pharmaco therapy</w>
p .
o tor
ne eds</w>
lar s</w>
hybri d</w>
her ni
ex tended</w>
en chy
d ine</w>
contri bution</w>
ch ain</w>
approach .</w>
an other</w>
aco us
5 0.
2 4-
я ся</w>
ч ре
систем ы.</w>
сво ю</w>
ряд е</w>
раз ре
при сут
перфу зии</w>
перио де.</w>
о к</w>
находи лись</w>
коронар ных</w>
комбини рованной</w>
двига тельных</w>
д ж
визуа лиза
вари ко
бли з
ба ра
ассоции рованных</w>
velo city</w>
usu ally</w>
t l
sup pres
succ ess</w>
s s
r n
per man
pa ro
measure ment</w>
lin ear</w>
icd- 10</w>
feder al</w>
f inal</w>
doc tors</w>
det ect</w>
circ um
cal ci
ad ren
щи м</w>
ца .</w>
услови й</w>
туберкуле зом</w>
ро дов</w>
прогресси рование</w>
по ни
основ ном</w>
на д</w>
ли й</w>
кла п
исследова тель
ди строфи
д ра
глике мии</w>
г б
встреча ется</w>
боль ными</w>
а трофи
tymp an
te ar</w>
sh if
ris ks</w>
resul ts.</w>
regar ding</w>
pro spec
pel vic</w>
o to
o p</w>
ne on
mini stry</w>
meta -
lo co
l ang
inter pre
immun ity</w>
he pat
govern ment</w>
ful l</w>
for c
child hood</w>
c t
bo wel</w>
ang i
a ir</w>
2 4.
ц п</w>
фос фо
ф ен
установ лен</w>
тон зи
то к.</w>
терапев тического</w>
та ми.</w>
т но</w>
стено за</w>
систем ного</w>
с ход
приня ли</w>
подроб но</w>
по рого
площа д
оказа лась</w>
обеспе ч
куль тур
и но
желудоч ка</w>
до п
дис се
ди на</w>
возмож ных</w>
ве о
вариан та</w>
volunte ers</w>
spon t
sci ence</w>
popul ation.</w>
phar mac
peop le.</w>
neoplas ms</w>
metho d.</w>
lymp h</w>
insuffici ent</w>
i k
fo ot</w>
f low
extrem ities</w>
energ y</w>
elim ination</w>
destruc tive</w>
co ord
c in</w>
4 2,
2 50</w>
- 3</w>
тель ными</w>
ро жд
разме ров</w>
пре пят
оптими зации</w>
обще ственного</w>
обнаружен а</w>
наблюд ениях</w>
кре ст
клет ках</w>
имен но</w>
желудо чно-
еди ни
де во
д ра</w>
ген е</w>
г ля
выз ыва
во лю
виру сом</w>
в т</w>
актив ного</w>
throug h
th .</w>
psych os
occu r</w>
neuro psychological</w>
lif e.</w>
her e
form ations</w>
for ce</w>
en ed</w>
employ ed</w>
contrib ute</w>
comorb idity</w>
bdn f</w>
avail ability</w>
atyp ical</w>
an tim
3 d-
3 6,
3 5.
- 0.
учитыва я</w>
ты е</w>
ти на</w>
ствен ности</w>
си столи
рассматри вать</w>
распреде ления</w>
рабо тки</w>
протези рования</w>
провед енных</w>
про све
посвящ енных</w>
помощ ь</w>
пи гмен
пер вую</w>
пат тер
не преры
мо ль
медикаменто зной</w>
лег кого</w>
ле пти
которо м</w>
клини ке</w>
исследо ваны</w>
доп пле
действи й</w>
вакци нации</w>
ана лого
whe ther</w>
univer sity</w>
stand ar
speci alized</w>
sof tw
sit e</w>
s ph
re ver
pylor i</w>
princ ip
pois on
p t</w>
otor hin
otorhin olaryn
micro circulation</w>
m an</w>
lymph ocytes</w>
low -</w>
li tis</w>
indirec t</w>
graf ts</w>
fo od</w>
correspon ding</w>
confir m</w>
be ta
7 0,
7 0
4 00</w>
1, 7</w>
фор ме</w>
учрежд ений</w>
умень шения</w>
уг ро
спек тра
рус ла</w>
рециди виру
рекон струк
ра ми
пре жд
пози ции</w>
позволи ли</w>
пе ди
мяг ких</w>
момен та</w>
мо щ
марке ры</w>
з м</w>
десяти ле
гемо динамики</w>
всеми рной</w>
воз ду
во к</w>
биоп та
амп у
vit ro</w>
ur ing</w>
sup ple
pl an
op ini
h olic</w>
en ic</w>
differenti ation</w>
cor tex
ch lor
c p
alco holic</w>
200 6</w>
ца ми</w>
ц ы.</w>
х и</w>
фибри л
учрежд ениях</w>
трахе и</w>
тр е</w>
тори но
торино ларин
сс у</w>
специфи чность</w>
социаль ного</w>
смер тность</w>
под в
подв здо
подвздо ш
пери тони
па рен
отличи е</w>
обсужда ется</w>
о ториноларин
о пас
ми ей</w>
м рт
лю бо
корре ли
каль ци
инфек ций</w>
и до
де структив
выяви ли</w>
воспалитель ного</w>
в ная</w>
z he
usi tis</w>
tran si
ther s</w>
sympto m</w>
sta ined</w>
s es
respon dents</w>
recor ds</w>
pro xim
p 0,
oxy gen</w>
g ingi
endoth eli
canc er.</w>
3 7,
200 3</w>
0.00 1</w>
успеш ного</w>
ультразву кового</w>
тип у</w>
та ба
суще ствует</w>
ско в</w>
с х
ре продуктив
пу ст
проте зов</w>
пробле ме</w>
о кра
мате мати
крово течения</w>
контро лем</w>
компонен та</w>
ио л</w>
д вен
двен ад
двенад ца
бо р
y m
wor ks</w>
w .</w>
urg ent</w>
str eng
respon sible</w>
occur s</w>
my el
mat ter</w>
intra venous</w>
hygi ene</w>
es tion</w>
ent ation</w>
doppl er</w>
cy cle</w>
cran ial</w>
cover ed</w>
conn ective</w>
c p</w>
c ab
6 2,
2- 3</w>
ш ки</w>
ч рез
ци ей.</w>
уров ней</w>
ты вали</w>
те к
социаль ных</w>
со во
прави ло</w>
полу чить</w>
подо бных</w>
п ц
не му</w>
лиру ет</w>
имп уль
и дио
желудочно- кише
е сте
вено зного</w>
большо го</w>
аль но</w>
алкого ля</w>
алкого льной</w>
wee k
sta ining</w>
sex ual</w>
r ing</w>
perman ent</w>
p 53</w>
new ly</w>
l d
jan uary</w>
it able</w>
i dio
he ight</w>
fluoresc ence</w>
de sign</w>
cochle ar</w>
cap su
aff ects</w>
ad renal</w>
ad herence</w>
7 0.
1, 6</w>
э сте
ч мт</w>
ц ве
уде ля
тро пи
то гда</w>
со н
ре чи</w>
пост травмати
подтвер ди
перифери ческих</w>
ор дина
опера тивных</w>
од на</w>
но вый</w>
моде лей</w>
ма тер
ль ность</w>
лег кой</w>
контра ст
ката мне
идио пати
жен ности</w>
вкла д</w>
вид ного</w>
ви н
ве лич
ан та
we ak
through out</w>
t ely</w>
stud ents</w>
proc ess.</w>
pri mar
per oxid
pancre atitis</w>
p ly</w>
p i</w>
os ing</w>
neuro imaging</w>
max illary</w>
le th
le ar
glyc emia</w>
f al
bo ys</w>
acous tic</w>
accum ulation</w>
absol ute</w>
- induced</w>
эпилепси ей</w>
тора ко
ся т</w>
способ ствовать</w>
расши рен
проте ктор
про меж
при ем</w>
печ ено
опис ыва
настояще й</w>
ми но
ма м</w>
ку .</w>
европе й
длитель ного</w>
дефек тов</w>
дан а</w>
г у</w>
выявл енные</w>
trans formation</w>
seg ments</w>
relap se</w>
reg imens</w>
re ach
pro vision</w>
particip ation</w>
mus t</w>
in take</w>
in ner</w>
consider ing</w>
cc us</w>
biomar kers</w>
be come</w>
ab les</w>
6. 5</w>
2 9
экст рен
цио нальной</w>
форми рованием</w>
сопутству ющей</w>
служи ть</w>
сиг на
с ке
распростран ения</w>
рабо т</w>
поч ти</w>
положитель но</w>
недостаточ ность</w>
мла ден
массо й</w>
ло р-
комбини рованного</w>
з ра
дис пла
двенадца ти
вита мина</w>
вено зных</w>
б ю
асси сти
анатоми ческих</w>
w ist
vit re
vari ety</w>
un ti
un favorable</w>
ul si
skill s</w>
process ing</w>
mit o
la sia</w>
it .</w>
inform ative</w>
heal ing</w>
fr action</w>
expl or
ex pla
en ame
ann ual</w>
4 6,
17 -
я ли</w>
шунти рования</w>
че го</w>
хон дро
физ а</w>
су да
стре ссо
си бир
с ан
разработ ке</w>
проявл ениями</w>
практи ку</w>
пра вого</w>
поста нов
позволи л</w>
по пы
пер во
ль ю</w>
лич ности</w>
липи дного</w>
л п</w>
кор те
кише чной</w>
ква ли
ин сом
иммуно фермен
измер ения</w>
за жи
з ный</w>
двенадцати пер
в д</w>
биологи ческого</w>
ба ссе
анти бактери
акту альной</w>
wa ve</w>
use ful</w>
tri al</w>
suggest s</w>
sub2 sub</w>
si ded</w>
regi stration</w>
rec ently</w>
om orph
oc clu
mac ro
m enopa
lymp ho
issu e</w>
is h</w>
idio pathic</w>
id es</w>
dep end</w>
comple tely</w>
carbo hydr
c c</w>
8 0,
3 3.
201 7.</w>
201 6.</w>
10 4</w>
щи .</w>
шу ю</w>
ш ении</w>
цион ное</w>
физи ческого</w>
услови я</w>
умень шению</w>
тро м</w>
способо в</w>
сово куп
сниж ении</w>
сегод ня
сегодня ш
пу зы
при мере</w>
подвер г
од ном</w>
объ яс
обследо вано</w>
о а</w>
неблагоприят ных</w>
настояще го</w>
насе ления.</w>
мо тор
мень шей</w>
кла сте
кла сса</w>
киш ки.</w>
инсуль том</w>
инсули но
и да
защи ты</w>
жен ных</w>
дополнитель ных</w>
де с
вер те
бассе й
артери и.</w>
y a</w>
ur ine</w>
unti l</w>
soci ety</w>
s ections</w>
prolifer ation</w>
ja w</w>
iz umab</w>
io us
her nia</w>
f ill
f ati
ex cep
emb olic</w>
docum ented</w>
discus sed.</w>
decre ases</w>
d g
cran io
contrib utes</w>
conn ection</w>
clo sure</w>
c iti
bar ri
analy ses</w>
acc id
abnormal ities</w>
4 8.
4 8,
4 5
3 4,
19 .</w>
э ма
цель .</w>
фо каль
у р
сто яни
сре до
способ а</w>
слож ности</w>
скрини нго
регистра ции</w>
процеду ры</w>
проводи лись</w>
пред поч
последстви й</w>
обзо ра</w>
об ы
нер вов</w>
многи е</w>
ми то
мест ного</w>
материа лов</w>
кри п
кана ла</w>
к ции.</w>
инфек цией</w>
ин у</w>
зри тельных</w>
значи тельной</w>
ди ла
да ле
гэр б</w>
гло бу
гери атри
ге й
в ского</w>
в ный</w>
аль ными</w>
а к</w>
um -
ton si
tempor ary</w>
success fully</w>
stabil ization</w>
st s.</w>
se n</w>
plac eb
pande mic</w>
oc al</w>
main ta
le t</w>
ischa emic</w>
if y</w>
ic -
hi v-
ell ar</w>
dist ance</w>
deterior ation</w>
de gre
con current</w>
choro idal</w>
ag ent</w>
ac ids</w>
6 4.
4 5,
юще еся</w>
шка л</w>
ходь бы</w>
х ря
уз и</w>
у кре
тре бо
рециди вов</w>
рас полага
полу ша
перви чного</w>
па у
ност ью.</w>
недостаточ но</w>
наблюд ением</w>
на вы
микроцир куляции</w>
логи ческими</w>
исследовани й.</w>
инсу льта
гипо тензи
выражен ное</w>
все й</w>
веще ств</w>
в ла
боль шая</w>
ами но
актив ных</w>
ав торов</w>
visu alization</w>
tu b
tox ication</w>
sy m
st oma</w>
s ecti
ro bo
ra ther</w>
pne umo
pa id</w>
om al
incre as
impair ments</w>
fe w</w>
expend it
eti o
en su
char acter</w>
ch f</w>
alve olar</w>
acti vity.</w>
4 4,
щ ений</w>
указ анных</w>
тра кта</w>
та кой</w>
сло я</w>
при вер
па ль
особенност ями</w>
на ви
марке ра</w>
максималь но</w>
ло сь.</w>
ло га</w>
л ено
коэффициен т</w>
к р
из ображ
дости чь</w>
де ка
двенадцатипер стной</w>
го мо
воло кон</w>
ани .</w>
анамне зе</w>
а типи
а т
un il
surger ies</w>
stro ph
si ons.</w>
sensi tive</w>
re sis</w>
qualit ative</w>
placeb o</w>
op en-
n 1
myop ia</w>
level .</w>
k in</w>
inter vie
foc used</w>
f l</w>
environ mental</w>
en sure</w>
dy stroph
distin gu
con sumption</w>
al ph
10 2</w>
эксперимен тальных</w>
щ ж</w>
соответ ствующих</w>
созд ание</w>
со вой</w>
проду ктов</w>
програм ме</w>
програм ма</w>
позво н
по ряд
по л</w>
от рост
опросни к</w>
метри ю</w>
маль чи
ма куляр
коге рен
кароти дной</w>
к н</w>
графи ю</w>
вм д</w>
ви зи
бр ь</w>
zhe im
ul in
tran scri
thre e-
ten sion</w>
t an
sp ace</w>
sero ton
reli ef</w>
prospec ts</w>
medic ations</w>
k ne
house hold</w>
hospit alization</w>
environ ment</w>
cl onal</w>
arter ies.</w>
ar m</w>
al zheim
ad dic
a h</w>
a er
3 rd</w>
3 9
2 7.
цен тра</w>
у пра
та -
сло й
синдро мов</w>
связ ей</w>
профилакти ческих</w>
переноси мости</w>
перед него</w>
от вер
окис литель
нп вп</w>
низ кий</w>
на й
л ж</w>
зан яти
жиз нен
демен ции</w>
гетеро ген
гепати та</w>
ген дер
выпол ни
вакци на
ар тро
wide spread</w>
ul cer
tw ice</w>
te st.</w>
suff ici
situ ation</w>
sh or
sf- 36</w>
sens ory</w>
schem e</w>
od es</w>
morpho metric</w>
la x
i el
g d
ey el
enc y.</w>
dischar ge</w>
con stitu
am er
3 d</w>
0 5</w>
ци к
церебра льной</w>
хоро ш
фибро за</w>
ти ческая</w>
сфе ре</w>
с ким</w>
р0,0 1</w>
пробле мой</w>
пред поло
помо щи.</w>
памя ти</w>
п р</w>
мо ля
логи ческим</w>
значи мости</w>
долж на</w>
выражен ные</w>
во сти</w>
вл ении</w>
ver ti
veg et
th -
sp a</w>
ro w</w>
provi ding</w>
predomin antly</w>
pre lim
oph il
o ked</w>
nsa ids</w>
measure ments</w>
ma them
intra vit
in toxication</w>
g one</w>
foc i</w>
exp an
ec t.</w>
determin ed.</w>
de vi
co -
cl avi
al ities</w>
ad mitted</w>
ac ade
э та</w>
цион ным</w>
цион ном</w>
це ф
фибробла стов</w>
труд ности</w>
томографи я</w>
таль ный</w>
таль ном</w>
сту па
соединитель ной</w>
си лы</w>
с пуст
ру ются</w>
реф ле
рекомендо вать</w>
объеди н
оболо ч
на значение</w>
монитори нг</w>
мо й.</w>
ми на
метри ческие</w>
медицинс кие</w>
ма с
искус ственного</w>
инсули на</w>
заболевани ем</w>
з е.</w>
друго й</w>
гла зах</w>
в не</w>
анке ти
ани я.</w>
анали за.</w>
актив ной</w>
vi si
unil ateral</w>
tur ned</w>
trans mission</w>
sk y</w>
si x
s ting</w>
r ating</w>
hospital- stay</w>
h e</w>
geriat ric</w>
foun d.</w>
fat ty</w>
f at</w>
equ ip
duc t</w>
co efficient</w>
calci um</w>
bre ast</w>
5 6,
3 8,
200 1</w>
ци фро
умер ших</w>
у дел
точ ного</w>
т к
ствова ла</w>
спуст я</w>
слож ных</w>
рав а</w>
психо эмоциональ
про ни
обеспе чить</w>
натри я</w>
нагруз ки</w>
липи дов</w>
леталь ных</w>
кого рт
кардио мио
исхо д</w>
инфар кта</w>
из мени
заме д
дыха тельных</w>
д н
актив ностью</w>
under gone</w>
te sted</w>
skel etal</w>
simult aneously</w>
respon ses</w>
polymorph isms</w>
or a</w>
o a</w>
no s
max illo
i- ii</w>
h a</w>
fac tion</w>
et c</w>
es sive</w>
ep iso
em s</w>
criter ion</w>
coun ter
class ical</w>
c ic
appl ic
am d</w>
abilit y.</w>
5 8,
4 9
ян вар
явля лись</w>
центра льного</w>
хорош о</w>
удел ено</w>
то по
тести рования</w>
те ори
су хо
ства м</w>
сле зо
сек су
ру ющим</w>
ри ть</w>
ре чи
прогно зирования</w>
поис ка</w>
оши бо
обе з
националь ных</w>
направл енных</w>
мо торных</w>
медико-сани тарной</w>
лице вой</w>
класси фика
дрен а
выражен ным</w>
выз ывает</w>
вопро сов</w>
вид у</w>
вз ро
в но-
unc ture</w>
to po
ti es.</w>
temper ature</w>
te m</w>
ta x</w>
standardi zed</w>
simp le</w>
s at
ri se</w>
rheum ato
prepar ations</w>
pedi atric</w>
paro x
men ing
m ass
lac rimal</w>
graph y.</w>
expres sed</w>
enh anc
ename l</w>
e di
di ast
def ine</w>
d r</w>
d in
bu il
5 2,
эндоскопи ческой</w>
щ ению</w>
шта м
челюст но-
ци кло
фос фа
ф к</w>
то м
ти па.</w>
стар ших</w>
ситуа ции</w>
сегодняш ний</w>
свой ства</w>
с кие</w>
ре й
принад ле
предполо жить</w>
прави тель
пораж ений</w>
подвер га
пер вый</w>
па ре
обще е</w>
обра ща
носто рон
ново образований</w>
не состоя
наль ный</w>
на пример</w>
концеп ции</w>
конечност ей.</w>
ко пи
иммуни тета</w>
жа ть</w>
достовер ных</w>
диагности ческие</w>
д вой
включа ет</w>
бе с
ба зы</w>
артери й.</w>
аль вео
z z
tu mo
syn thetic</w>
sit es</w>
sin uses</w>
prelim inary</w>
po li
on asal</w>
ol ig
ocar dio
micro scop
long er</w>
heterogene ity</w>
estim ates</w>
educ ational</w>
con trac
co ding</w>
b ut
antim icro
af f</w>
8 0.
1. 3</w>
1, 0</w>
яви лось</w>
я сь</w>
экс суда
требу ется</w>
техни ки</w>
структур у</w>
стать и</w>
ста ции</w>
спек тр</w>
синте за</w>
с н
резе р
раз ные</w>
процес са.</w>
посвящ ена</w>
по кры
отро п
отече ственной</w>
обще приня
обследовани и</w>
об щих</w>
нави га
механиз м</w>
ме н</w>
мг сут</w>
маль ных</w>
м би
клини ки</w>
и то
зо ла</w>
зарегистри ровано</w>
ен ность</w>
все гда</w>
взро сло
вероят но</w>
борь бе</w>
us a</w>
tom atic</w>
star t</w>
reg ard</w>
proxim al</w>
path y.</w>
o f-
neuro physiological</w>
mor tem</w>
iti s.</w>
is m.</w>
ido sis</w>
hemo dynamic</w>
ech ocardio
e thy
cre ation</w>
cont ext</w>
avi g
advis able</w>
6 0-
5 4,
2 1-
я го
ч е</w>
физи ческих</w>
увеличи вается</w>
ти пы</w>
такти ка</w>
руко вод
рован ную</w>
ро бо
приводи тся</w>
представля ется</w>
показ ани
относя тся</w>
одновремен но</w>
не одно
над поче
микроцир куля
менин гио
м м.</w>
ло ску
ло б
круп ных</w>
и ф
и т</w>
зи и.</w>
дисципли нар
д с</w>
грип па</w>
голо вы</w>
выз ванных</w>
втори чной</w>
вод ы</w>
ассоциа ции</w>
а стро
up .</w>
sle ep
s- co
regar ded</w>
recei ve</w>
r ac
po int
neuro protective</w>
mat ched</w>
log istic</w>
ischa emia</w>
ipi 0,001</w>
id -
frag ments</w>
endo metri
ec tomy.</w>
cre ated</w>
conduc t</w>
at tit
at temp
alzheim ers</w>
al ity.</w>
7 7
6. 2</w>
3 4.
2 6
1- 2</w>
тяжелы м</w>
тенден ции</w>
ствен ную</w>
све то
перо кси
п г</w>
общи й</w>
мис я</w>
корте кси
инсульта .</w>
гло тки</w>
глау ком
ги ган
ге о
ге н</w>
ве личи
ва лен
thyroi dism</w>
st ly</w>
spont aneous</w>
sour ces</w>
requir ing</w>
requi re
rema ining</w>
polic ies</w>
ophthal mic</w>
neon atal</w>
n t-
maxillo facial</w>
lymph oma</w>
leg al</w>
lang u
kne e</w>
form ing</w>
fo ur
ex posed</w>
ex hi
ep is
el e
el abor
clin ics</w>
ca us
b in
asthen ic</w>
arter io
apopto sis</w>
anal ge
acc es
a a</w>
4 2.
3 6
1, 9</w>
ю но
ы вать</w>
шка лу</w>
четыре х</w>
успеш но</w>
тив но-
стран е</w>
сти ческого</w>
стеро ид
ри ни
расстрой ств.</w>
рас стояни
приве ден</w>
поли ме
поддерж ки</w>
патологи я</w>
от сро
опухоле вых</w>
ожи рения</w>
од но</w>
на шей</w>
микро организ
мети л
мексидо л</w>
м ле
кор не
ко сть</w>
инсуль т</w>
ж о
дан ная</w>
гра ф
вмест е</w>
ван ным</w>
в р</w>
в ными</w>
бра хи
б .</w>
th es
targe ted</w>
sup ply</w>
st sup</w>
sar s-co
ph aco
per cep
parox ys
outcom es.</w>
orig in</w>
o metry</w>
mus cular</w>
mul tic
mathem atic
lo ad</w>
ha em
clud e</w>
b ones</w>
an -
agg ressive</w>
acr y
a war
9 9
4 5.
1. 4</w>
1 i</w>
0 .</w>
я м.</w>
эффектив ного</w>
ще е</w>
хло ри
флю оресцен
ти ческими</w>
ти ли</w>
терапев тической</w>
сме шан
случа ях.</w>
про вер
полиморфиз ма</w>
п ление</w>
оценива лись</w>
од носторон
обостр ений</w>
лечеб ной</w>
ки на</w>
иденти фикации</w>
за па
жало б</w>
долго сро
дис пан
внутрен него</w>
вегета тивной</w>
ва ющих</w>
в но</w>
бр я</w>
беремен ных</w>
б ан
алгорит ма</w>
актив но</w>
ur ia</w>
ster one</w>
ser ve</w>
s pati
periodon ti
men ingi
medi um</w>
me t</w>
ma inten
le ts</w>
larg er</w>
inva sion</w>
experi enced</w>
exercis es</w>
do wn</w>
dig ital</w>
car til
calc ulation</w>
b f
at s</w>
acti on.</w>
1sup stsup</w>
10 5</w>
1 a</w>
1 40</w>
ше и</w>
ч с</w>
форму ли
уровн ю</w>
тро п
транспланта та</w>
таль ные</w>
сро ков</w>
реабилита ционных</w>
распростран енных</w>
раз мер</w>
про исхо
пол ного</w>
под группы</w>
па ри
образо ва
нега тивных</w>
не т</w>
наль ная</w>
моло чной</w>
леч ение.</w>
клап ана</w>
к э
ин так
ж а</w>
го во
гемо гло
вл ением</w>
бо ту
актуаль ность</w>
ug h</w>
t y
substanti al</w>
subst ances</w>
statis tics</w>
softw are</w>
shap e</w>
reveal ed.</w>
recomm end</w>
psycho metric</w>
ocar cin
mathematic al</w>
inhibit or</w>
ho me
glob in</w>
fibr ill
fac ility</w>
exp lo
ex ud
estim ation</w>
dec ember</w>
de d.</w>
covid- 19.</w>
communic able</w>
common ly</w>
ar thro
antibio tics</w>
я дер
эффектив ных</w>
щ а</w>
ши ми</w>
ча й
це р
фу н
уско рен
удовлетво рен
транспо рт
тон кой</w>
те о
та ко
стар ых</w>
сотруд ни
с м
проду кции</w>
пол ное</w>
п к
ожир ением</w>
облада ет</w>
об ши
некро за</w>
мест ных</w>
ма кулярной</w>
м м
лик во
кла д
кисло т</w>
ж .</w>
еже днев
диагности ку</w>
депресси вных</w>
гормо на</w>
г ря
ван ный</w>
бо ч
адап та
а з
wist ar</w>
tion ing</w>
thal am
symptom s.</w>
satis faction</w>
s clero
revie wed</w>
purul ent</w>
primar ily</w>
patho genic</w>
ob liter
my co
multi -
me gal
inv ent
in king</w>
hydrox y
here in</w>
great est</w>
g em
exten sive</w>
d one</w>
d d</w>
d ation</w>
con clu
cell s.</w>
ast ro
as ymp
anatom y</w>
analyz es</w>
am b
ag re
5 5,
2 sup
1. 8</w>
1 30</w>
ща яся</w>
ш о
цион ными</w>
фро н
т ностью</w>
стади ей</w>
совершенство вания</w>
скрини нга</w>
ско е</w>
ра не
р п
послед нее</w>
показ аны</w>
поддер жива
орто педи
опухо ли.</w>
о дина
нау чной</w>
над зо
мкб- 10</w>
компенса ции</w>
коморби д
использова н</w>
диагности ческой</w>
двига тельной</w>
выпол нен</w>
возраст ные</w>
важ но</w>
больш ую</w>
боль ю</w>
атеросклеро за</w>
w in
ur inary</w>
t le</w>
reproduc tive</w>
polymorph ic</w>
pla sia</w>
per in
optim ize</w>
on euro
net work</w>
muco us</w>
mainten ance</w>
m s
introduc ed</w>
inter fer
expendit ure</w>
ev ol
e .
direc tly</w>
direc tion</w>
c yp
bal lo
ati ne</w>
at us</w>
antidepress ants</w>
1. 0</w>
1 b</w>
1 6-
эо зи
экспресси ю</w>
цион ную</w>
хирурги ческом</w>
умень шением</w>
трудо способ
транс крип
ти .</w>
тести рование</w>
ста ми</w>
сочет ания</w>
се пси
са мых</w>
регу ляр
рев мато
ре и</w>
протези рование</w>
проводи лся</w>
появл ение</w>
полу чили</w>
перви чных</w>
пер вом</w>
отмеча лись</w>
об щ
нор мы</w>
наруш ений.</w>
моль л</w>
метаболи зма</w>
лекар ственной</w>
латера льной</w>
крани о
ко ордина
инте лле
же ст
ен ную</w>
де ти</w>
ви ди
ар ной</w>
vasc ul
val id
us t</w>
si de
shi p</w>
sel y</w>
s n
s mal
res ort</w>
q ol</w>
ple x</w>
pl an</w>
n 30</w>
micro organ
mic e</w>
m as</w>
k ine</w>
equ al</w>
em ulsi
don or</w>
der i
da y.</w>
d b</w>
colo r</w>
6 2.
4. 5</w>
челове ка.</w>
це ло
хирурги ческая</w>
функциональ ное</w>
фи сту
умерен ной</w>
улуч ши
у .</w>
судебно- медицинских</w>
структу ра</w>
спон ди
служ бы</w>
си я</w>
се ч
рандоми зированных</w>
представля ют</w>
по чки</w>
площад ь</w>
перспектив ы</w>
но го.</w>
недостаточ ностью</w>
мела тонина</w>
ко х
ко й
катарак ты</w>
к сом</w>
зо ло
жи ли</w>
еже год
группа х.</w>
грану ле
гла зной</w>
гемоста за</w>
га м</w>
водя щих</w>
включа ло</w>
ti me.</w>
st aff</w>
si on-
separ ate</w>
posi ti
n avig
laryn geal</w>
la y</w>
ipi 0.
ia sis</w>
fati gue</w>
fact or
exp ect
exacerb ations</w>
exacerb ation</w>
ev oked</w>
estab lish
epis odes</w>
de x
comm it
colo rectal</w>
ch ina</w>
ca the
b al</w>
associ ations</w>
aro und</w>
add res
9 2,
3. 5</w>
3 8.
201 5.</w>
щи ми</w>
ф ле
управл ения</w>
т ено
со отношения</w>
склеро за</w>
результа том</w>
ра к</w>
приводя т</w>
потенциаль но</w>
пострада вших</w>
обслужи вания</w>
нейро визуализа
нау чно-
наблюд ения.</w>
муль си
мо торной</w>
мл н</w>
ми лли
мела но
когни тивной</w>
карие са</w>
инъе кции</w>
интра крани
зо р
затра ты</w>
за держ
з ную</w>
е мыми</w>
дохо да</w>
до з</w>
дальней шем</w>
г от
бу дет</w>
амбула тор
акти ви
w id
verti go</w>
ulc er</w>
str ati
stom ach</w>
s s.</w>
remo ved</w>
program mes</w>
potenti ally</w>
pe ter
pa st
oly tic</w>
nd sup</w>
n 2</w>
mito chondri
injur y.</w>
h t
glyc emic</w>
gi ant</w>
f re
dr y</w>
ch in
carbohydr ate</w>
an am
amp ut
al ing</w>
adju sted</w>
a virus</w>
a h
9 0,
2 6.
шан сов</w>
ц с
ц гей
холесте рина</w>
хирурги ческие</w>
умень шить</w>
тран зи
те сто
т к</w>
стволо вых</w>
стациона ра</w>
ста я</w>
сре ди
си ли
связан а</w>
регрес с</w>
расшир ение</w>
про изо
посту пл
позволи ла</w>
по ко
плаце бо</w>
печ ени.</w>
пен ди
обез боли
нейро хирургии</w>
на х.</w>
международ ных</w>
мед лен
л анти
жен ность</w>
дол ла
груп пе.</w>
гру дного</w>
госпитали зированных</w>
гипо те
выяви л</w>
в ное</w>
балан са</w>
аст ении</w>
анали за
аль цгей
wh at</w>
u ve
tb i</w>
super ior</w>
pharmac eu
od ds</w>
o red</w>
nutri tion</w>
k o</w>
initi ation</w>
grow ing</w>
ge l</w>
fic ations</w>
enti re</w>
distric t</w>
contro ls.</w>
condi tions.</w>
cl e.</w>
an omal
ab le.</w>
a qu
8 4,
3, 7</w>
3, 6</w>
2sup ndsup</w>
цитофлави на</w>
цио ни
фа зы</w>
ф р</w>
у тра
су пра
сопут ствующих</w>
со отношение</w>
симпто мами</w>
про сле
паро кси
оши б
отмеча лась</w>
отвер сти
определя ет</w>
общи е</w>
о р</w>
новорожд енных</w>
нару жного</w>
молекуляр ных</w>
мозго вых</w>
мен я
магни то
ма ги
корре кция</w>
клини ческом</w>
исход ы</w>
использу я</w>
инфар к
интенси вной</w>
имп ланти
значи мой</w>
з вен
жи вания</w>
ду .</w>
достовер ные</w>
долж но</w>
до нор
дет ского</w>
г б</w>
вакци ны</w>
ва лась</w>
в ени
антиоксидан тной</w>
антибиоти ков</w>
ангио графии</w>
авто мати
а сим
to b
scho ol</w>
re presented</w>
questi ons</w>
on ed</w>
obj ecti
metr y.</w>
medi as
i- iv</w>
h an
fun dam
follow s</w>
extrac tion</w>
dop amine</w>
di lat
demonstr ates</w>
co st-
bur g</w>
accur ate</w>
1- 3</w>
эндо наза
целесообраз ность</w>
фармако терапии</w>
увеличи вает</w>
тревож ности</w>
толщи на</w>
ти ков</w>
таль ное</w>
та кого</w>
су доро
стомато логической</w>
сред них</w>
рециди в</w>
проанали зировать</w>
парокси з
парен хи
отсро ч
отече ственных</w>
ни на</w>
мута ций</w>
мо тива
метод у</w>
ля ри
ли хо
количе ством</w>
ка фе
име ть</w>
зирован ного</w>
ж и</w>
е н</w>
де форма
д к</w>
влияни и</w>
ба .</w>
аналого вой</w>
ton sil
t- sided</w>
surve ys</w>
standar ds</w>
sour ce</w>
res er
pri or
otorhinolaryn go
oper atively</w>
m r</w>
it self</w>
im ages</w>
i lo
hospit alized</w>
hist or
h z</w>
g ang
fir st-
electro n</w>
ear s</w>
coll ection</w>
chon dro
as ym
ap hy
antimicro bial</w>
4 7,
200 4</w>
10 8</w>
1, 1</w>
1 25</w>
январ я</w>
э нер
череп но-
цитофлави н</w>
характеристи ка</w>
уст анавли
способо м</w>
совершенство вание</w>
свобо д
ран ние</w>
при мер
пле че
па рт
оча гов</w>
муж чи
мито хондри
лож ения</w>
ло ку
л лю
крат ко
комплекс ном</w>
когерен тной</w>
к лу
инъе кций</w>
ин токси
изуч ена</w>
иде и</w>
жиз н
вя з
выявл ено.</w>
выполн енных</w>
вс пы
аль но-
а ди
we ak</w>
ver s</w>
tran sition</w>
ter s.</w>
smo o
si a.</w>
show n.</w>
short -term</w>
prescri ption</w>
on ce</w>
neur onal</w>
ner ves</w>
n t
ment s.</w>
lay ers</w>
ger d</w>
g est
cortex in</w>
con st
compens ation</w>
awar eness</w>
appro xim
adj ac
adenom as</w>
6 7,
3 8
201 8.</w>
ю щаяся</w>
эндартер эктомии</w>
эн теро
чни ка.</w>
хрустали ка</w>
у ши
стра хо
ста х</w>
ста ли</w>
специфи ческих</w>
содержа щих</w>
скопи и</w>
систем ной</w>
ру емых</w>
ро товой</w>
ре га
райо нах</w>
при чем</w>
под ви
повсе дневной</w>
пло ско
пле кс
пе ча
отде ле</w>
определ ении</w>
оли го
обусловл ено</w>
носо вых</w>
нейро пати
нг мл</w>
му ко
мини ми
мин да
магнитно-резонанс ной</w>
куль ту
кар бо
исход ного</w>
имп лан
избе жать</w>
иденти фици
здоровь е</w>
дохо дов</w>
действи ем</w>
ге пато
выражен ный</w>
влияни ем</w>
ва ться</w>
в ред
био механи
w ounds</w>
ul e</w>
tri c</w>
tob acc
tobacc o</w>
t2 dm</w>
siz ed</w>
regi on.</w>
pol yp
ob vi
num erous</w>
mandi bular</w>
man u
laryn x</w>
initi ally</w>
hemo dynamics</w>
fla p</w>
fi bers</w>
ere bral</w>
empha sis</w>
ec ted.</w>
diagno sis.</w>
deli ver
cy clo
cr p</w>
c f
aly sis</w>
adjac ent</w>
abs ent</w>
9 0.
7 8,
5- year</w>
5 8.
3 7.
201 4.</w>
явл ения</w>
четы ре</w>
челове к.</w>
ци ю.</w>
улуч шает</w>
у м
т г
стро ения</w>
способ ы</w>
ско р
рон то
реги ст
расче та</w>
раль ная</w>
прожива ющих</w>
потенциа л</w>
положитель ное</w>
подчерки вается</w>
пан демии</w>
п лен
определя ется</w>
норма лизации</w>
ма тки</w>
исследу емой</w>
использо ванию</w>
зу бных</w>
ж ением</w>
до мини
гипо физа</w>
ге ронто
выражен ная</w>
врожд енной</w>
вен ти
venti lation</w>
vari ate</w>
var ico
um p</w>
too th
to ols</w>
tic a</w>
thes es</w>
si des</w>
rhe a</w>
reas on</w>
pat ency</w>
opini on</w>
op tion</w>
o d.</w>
no vo
ne ar</w>
multic ent
mo bility</w>
methy l
l and
inf ra
f le
f ast</w>
evalu ated.</w>
di et</w>
develop ment.</w>
degre es</w>
d or
coron avirus</w>
contro l.</w>
consider able</w>
con sc
clu ster</w>
chole ste
cho osing</w>
bl ad
b .</w>
as h
all y.</w>
addi tionally</w>
a esthe
6 8,
3, 2</w>
3 6.
фибри но
уз лов</w>
тромбо за</w>
се ти</w>
р 0,
по р</w>
перспектив ным</w>
остро ты</w>
ни ка</w>
не проходи
не отлож
муж ского</w>
му .</w>
мо в.</w>
масш та
м в</w>
лихо ра
лабора тори
ла ми
ктор а</w>
кор риги
концентра цию</w>
карти на</w>
интер лей
и на</w>
затра т</w>
зарубе жных</w>
зада ч</w>
з ными</w>
дву мя</w>
групп .</w>
гиги ены</w>
ген ные</w>
выявл енных</w>
времен ной</w>
вол ны</w>
вероят ности</w>
брюш ин
анти -
ан тро
virus es</w>
un it</w>
su spec
studi es.</w>
sti ff
st ment</w>
rhin itis</w>
re modeling</w>
r .</w>
phaco emulsi
per cutaneous</w>
obta in</w>
no w</w>
nec ro
n gml</w>
mon it
mol l</w>
mo de</w>
min er
m onal</w>
igg 4-
hor monal</w>
h ba
end onasal</w>
e k</w>
comple ted</w>
b if
arti cles</w>
ar rhyth
appar ent</w>
ad ing</w>
3, 4</w>
3 4
1. 1</w>
эндоскопи ческого</w>
ы .
щ ении</w>
хрони ческий</w>
хро мато
холесте ато
территори и</w>
та я</w>
суще ству
структур ных</w>
сто мы</w>
ство ла</w>
со мато
рова ло</w>
регио нах</w>
расши рения</w>
разнообраз и
ра н</w>
пузы р
появл ения</w>
пол у</w>
по пере
орг ана</w>
о щу
не редко</w>
не дав
мо е</w>
мембран ы</w>
матери н
маги стра
м то
ку ли
кох ле
конъю нк
к м</w>
из в
значи мым</w>
за цией</w>
желе зы.</w>
доступ ности</w>
диа столи
дальней шие</w>
грам мы</w>
го ме
выбор ки</w>
вз гля
био маркеров</w>
аку ше
u l</w>
tur n</w>
sup th
sep t
se m
pul se</w>
peter s
p0.00 01</w>
ox ide</w>
or rh
multi disciplinary</w>
mr s</w>
lo t</w>
langu age</w>
ipi 0,
integr ation</w>
in- hospital</w>
ili ac</w>
i s.</w>
f r</w>
es tive</w>
ent ero
en ia</w>
diast olic</w>
cyto kine</w>
condi tion.</w>
con sul
ci sion</w>
bec ame</w>
assa y</w>
analo gue</w>
an thro
al ways</w>
3 9,
эр г</w>
эксперти зы</w>
чре ско
хи м</w>
функ цию</w>
фе мто
ф ри
учре ждения</w>
установл ения</w>
угле водного</w>
у чеб
торно- курорт
та зо
суще ственное</w>
суста вов</w>
сте рео
сравнитель ное</w>
снизи лась</w>
сана торно-курорт
реа кция</w>
рак е</w>
ра ко
про ст
пре кра
поврежд ение</w>
переда чи</w>
пен си
патогене з</w>
от яго
оста льных</w>
осложн ениями</w>
он ной</w>
оконч ания</w>
ново образовани
не стаби
нача ле</w>
метри и.</w>
метаболи ческих</w>
ко ну
кли ма
к б</w>
интере с</w>
интер пре
ини циа
за ции.</w>
до вой</w>
дисфунк ция</w>
диапа зоне</w>
диа б
диаб ет</w>
ди ен
графи ческих</w>
вра ча</w>
вн чс</w>
ва ку
брон хо
безопас ным</w>
zy g
y et</w>
ther mal</w>
t one</w>
sup pur
spe ed</w>
sib ir
sal i
repor ting</w>
poly mer
po ol
ph en
patho logies</w>
on e
occ up
it y-
interventi ons.</w>
imple mented</w>
im ag
hba 1
h om
ge o
fea sibility</w>
f ast
evalu ating</w>
dr s</w>
deri ved</w>
der m
c r</w>
c ci</w>
c am
br achi
ax ial</w>
at ure.</w>
an ted</w>
a i</w>
6 5,
3, 8</w>
10 3</w>
эритро цитов</w>
эндотели альной</w>
х т</w>
установи ли</w>
уси ли
уни верси
тив ности</w>
сред ы</w>
составля ла</w>
ско рост
раз дел
р т</w>
положитель ных</w>
перфо ра
п п</w>
окклю зион
ок т-
обла сти.</w>
насту пления</w>
мо м.</w>
мероприяти я</w>
м мп
логи ческая</w>
ку рения</w>
ка пе
ка ми.</w>
использо вана</w>
инвали дности</w>
ин фу
жен ного</w>
ени ями.</w>
диагности рован</w>
гипер трофи
вос прияти
вирус ных</w>
верси и</w>
боль шим</w>
бал ло
анти психо
ака д.</w>
visi t</w>
vi sc
tympan ic</w>
tri gem
supth sup</w>
sp ectively</w>
ro un
retino pathy</w>
r in
preser ved</w>
predic tor</w>
poison ing</w>
ph ag
p ene
p as
o .</w>
invent ory</w>
immuno deficiency</w>
i ting</w>
health care</w>
go al</w>
f g
ent -
datab ases</w>
cre ate</w>
correc ted</w>
con ver
compos ite</w>
combin ations</w>
cent ers</w>
cap sul
bel ong
analy tical</w>
adhe sive</w>
ach ment</w>
6 3.
5 0-
ши хся</w>
ци на</w>
тро й
те ло
судеб ной</w>
су льта
стено зом</w>
соб ственных</w>
со ас</w>
с ка</w>
реа ги
рассеян ного</w>
разде лили</w>
преоблада ли</w>
пле вра
пер вым</w>
определ ением</w>
опис ан
ми н.</w>
механиз мах</w>
ле чи
ле во
кон сульта
кера ти
до операцион
выполни ли</w>
выбор ке</w>
вы .</w>
важ ную</w>
аце ти
wom an</w>
varico se</w>
uter ine</w>
ultras ono
strom al</w>
st ag
settin gs</w>
research ers</w>
pseud o
pri v
pre mature</w>
ph le
no vel</w>
man ual</w>
lo be</w>
isol ation</w>
inter val
infecti on.</w>
ili ary</w>
hi p</w>
glob ul
financ ial</w>
expan sion</w>
elucid ate</w>
di zz
de lu
consc ious
chro mato
benef its</w>
ar ch</w>
an al</w>
aden ocarcin
э ла
ще н</w>
щ ением</w>
широ кого</w>
це лей</w>
указ ывает</w>
требу ют</w>
тив ном</w>
ск ф</w>
ре анима
послеоперацион ный</w>
положитель ные</w>
по ля</w>
переноси мость</w>
п с</w>
оча га</w>
от раж
объяс ня
непосред ственно</w>
невро логической</w>
не стре
наз ыва
мыш цы</w>
ми ро
маль ного</w>
логи и.</w>
ло к</w>
комплекс ную</w>
имму нной</w>
зави се
до м
дет ской</w>
де формации</w>
выбо ре</w>
времен ных</w>
воспалитель ной</w>
важ ней
бал л</w>
анамне за</w>
ur ation</w>
top ic</w>
tas k</w>
stero ids</w>
seroton in</w>
rup ture</w>
re ly</w>
prev ail
pp v</w>
post- stroke</w>
pl ann
per c
path ways</w>
mo vements</w>
micro surgical</w>
mg day</w>
medi al</w>
lis t</w>
las tic</w>
l v</w>
k ar
gen ome</w>
evid ence-
diagno se</w>
co sme
ch es</w>
cerebro ly
capsu le</w>
ballo on</w>
b cl
b at
attac ks</w>
ar -
ad es</w>
ac ting</w>
5 7,
5 2.
1 15</w>
юще гося</w>
электро энцефало
ше к</w>
це лях</w>
ха .</w>
фа коэ
факоэ мульси
улуч ша
у зло
сут .</w>
сто пы</w>
содер жи
со вых</w>
рован ном</w>
раз ру
ра циональ
профи ль</w>
принима ли</w>
от мены</w>
определ ена</w>
област ях</w>
надпоче чни
на ра
молекулярно- генети
микро фло
ми ровой</w>
лихора д
лет него</w>
кост ных</w>
к ж</w>
ишеми ческим</w>
зу ба</w>
значи мая</w>
заболева емость</w>
гормо нов</w>
глике ми
ги б
выде ля
вто ро
верте бра
анесте зии</w>
а .
z o
trigem inal</w>
trans fer
ton ic</w>
t on</w>
system ati
suppor ted</w>
subst ance</w>
stiff ness</w>
spectr al</w>
spas ticity</w>
secti onal</w>
rele v
recogn ized</w>
predomin ance</w>
predic t</w>
path ies</w>
optim ization</w>
l d</w>
k o
ipi0.00 1</w>
im balance</w>
i di
gf r</w>
geno typ
fung al</w>
f a
eth n
equ i
e ts</w>
dysp lasia</w>
disturb ance</w>
datab ase</w>
centr e</w>
categ ory</w>
auto psy</w>
anthro po
anim al</w>
adju vant</w>
adhe sion</w>
7 4,
ющи мся</w>
эпилепти ческих</w>
хрони ческая</w>
физиологи ческие</w>
участи ем</w>
тяже лого</w>
тромбо цитов</w>
то р</w>
стратеги й</w>
стои мость</w>
ст ры
сокра ти
слухо вой</w>
ру ю</w>
рова лась</w>
распростран ение</w>
проб ы</w>
при мени
практи ке.</w>
потер я</w>
последстви я</w>
показа ла</w>
под группе</w>
пло тность</w>
опублико ванных</w>
ограни чения</w>
обла сть</w>
об работки</w>
ма ш
лазер ного</w>
коэффициен та</w>
когни тивными</w>
ко з</w>
индивиду альной</w>
из лучения</w>
из гото
диагности ческого</w>
движ ений</w>
дви жения</w>
вопро сам</w>
вен тра
введ ение.</w>
бактери й</w>
анесте зи
y ed</w>
veget ative</w>
s 100
rhyth m</w>
produc ed</w>
preser vation</w>
pre dis
periton itis</w>
oc k</w>
nos ological</w>
no des</w>
ne ural</w>
med ul
m ing</w>
lax is</w>
l en
interventi on.</w>
inhi bi
her ed
glut am
determin es</w>
defin ition</w>
cy sts</w>
ch i
and ro
200 2</w>
1. 9</w>
1. 7</w>
1 12</w>
эта пом</w>
ци ти
тра к
ти мп
суль фа
ста ло</w>
сравни ть</w>
соответ ствует</w>
се ри
с дви
рефлю кс
разни ца</w>
програм му</w>
приня тия</w>
пе тер
отнош ению</w>
откры той</w>
от чет
ог нестре
о фи
находя щихся</w>
наде ж
наблюда лся</w>
моно терапии</w>
моз же
логи ческом</w>
леталь ного</w>
л ги
критери ями</w>
колла гена</w>
клу боч
источни ков</w>
инвалиди зации</w>
ид ного</w>
и ю
дли ны</w>
диаме тр</w>
головокру жения</w>
глубо ких</w>
выражен ностью</w>
артери ях</w>
z ones</w>
vol u
vi vo</w>
v -2</w>
up on</w>
tu be</w>
transc ranial</w>
su sc
questionnai res</w>
osteo po
or ption</w>
ocy tic</w>
mo stly</w>
menti oned</w>
lin ked</w>
le x</w>
le f
infil tr
geno types</w>
g y
es sed.</w>
el as
eff orts</w>
ecti n</w>
e es</w>
disp lac
dimensi onal</w>
coun tr
childr ens</w>
b ud
ar ia</w>
a w
7 7,
7 6,
0 4</w>
я и
эхо кардио
чрез вы
хирур гов</w>
тяже стью</w>
тону са</w>
те й
суб то
сооб ща
согла со
сдела ть</w>
руб цо
ри носи
риноси ну
про шед
препара тов.</w>
потреб ления</w>
поним ание</w>
повыш енной</w>
петер бур
оцен ены</w>
ост ров
оптималь ного</w>
объе ме</w>
обнару жива
о здоро
норма льной</w>
нача льной</w>
много фактор
лимфа тических</w>
ли рования</w>
ком пози
ки сто
каж дом</w>
з ное</w>
дополнитель ного</w>
дол жен</w>
ди стан
дальней ших</w>
дальней шее</w>
включа ла</w>
верх нечелюст
важ ное</w>
ва х</w>
в виду</w>
бар ье
ба зах</w>
амплиту ды</w>
а ли
well .</w>
vit al</w>
tr un
ro ad</w>
r t
prophy laxis</w>
preventi ng</w>
p g
op tions</w>
nucl ear</w>
metho d
mar g
ma x</w>
liqu id</w>
lim it
l a</w>
intravit real</w>
intell ig
in no
imp os
if or
h ads</w>
erro rs</w>
equi val
epidemio logy</w>
dra wn</w>
dr d
diagnos ing</w>
cy te</w>
car b
arterio venous</w>
appe ar</w>
anti viral</w>
anti gen</w>
al le
ad eno
accep ted</w>
7 2,
5 9,
5 5.
ше стви
чрезвы чай
фра г
форма х</w>
ты ми</w>
тромбо эмболи
такти ку</w>
сх ем</w>
суще ствующих</w>
сочет анной</w>
смер тей</w>
сель ских</w>
с в
регресси и</w>
противо речи
перфу зион
паро донти
оте ка</w>
опухоле вого</w>
окра ши
образ цы</w>
но м.</w>
ни я</w>
ней трофи
мо г
липо протеи
ле й.</w>
кажд ый</w>
импланта та</w>
желудочно-кише чного</w>
ж к</w>
диа ли
ди е
гер пе
во -
визу альной</w>
ви р
ва лся</w>
в г</w>
б ремен
антро по
year .</w>
week s.</w>
vegf- a</w>
ur ity</w>
ucl e
twent y-
transi ent</w>
ti al</w>
sta in
st ers</w>
spati al</w>
sp or
si es</w>
sal iv
r ing
predic tive</w>
person alized</w>
out bre
on ia</w>
oc ephal
mono clonal</w>
mig r
melan oma</w>
meas ure</w>
loc alized</w>
kin e
ish ed</w>
infil tration</w>
ib le</w>
hospit al
hormon es</w>
home o
hered itary</w>
fe ed
enzy mes</w>
dys function.</w>
drug s.</w>
de form
cor tis
consi stent</w>
blad der</w>
biom echan
appar atus</w>
app end
alter ations</w>
acceler ated</w>
8 2,
7 9,
5 7.
3, 9</w>
10 6</w>
х с</w>
участ во
у ро
тив ную</w>
таль ным</w>
стиму лиру
стеро на</w>
социально- экономи
с и</w>
ред кое</w>
про до
принци пы</w>
при зн
предикто ров</w>
получа ющих</w>
параметра ми</w>
панкреа то
ограни чи
обще ства</w>
о м</w>
не до
нача ло</w>
мате рей</w>
м н
л т</w>
коло рек
ко ленного</w>
кан ди
испы т
игра ет</w>
достигну т</w>
диа фраг
выяви ло</w>
высо ких</w>
ва ции</w>
ассоции рованной</w>
uni que</w>
tox in</w>
tin g.</w>
thir ty-
sul f
ster n</w>
so me
si lic
s low
rab b
ple ural</w>
pharmaceu tical</w>
p y
n t</w>
mo ca</w>
leth al</w>
larg ely</w>
k er</w>
io dine</w>
in adequate</w>
ic ity</w>
hemorrh age</w>
em ent.</w>
dischar g
differ ed</w>
d l
clo sed</w>
challeng es</w>
carri ers</w>
cab g</w>
b lin
b eli
b d</w>
ass essed.</w>
ak i</w>
ag grav
a .
9 2.
7 5,
4 4.
3 9.
201 9.</w>
2 2
10 1</w>
1. 6</w>
яви лись</w>
эма ли</w>
эксперимен тальной</w>
ты й</w>
тс я.</w>
трав мой</w>
спонди ло
со вого</w>
свя за
сахар ный</w>
с де
с вер
расстрой ство</w>
разни цы</w>
равно мер
пц р</w>
преоблад анием</w>
прежд е</w>
пред ме
пред ложены</w>
полно цен
пожи лы
пла цен
оценива лась</w>
отде ления</w>
осве щены</w>
опера цией</w>
образ у
начи на
напря жения</w>
наблюд ении</w>
мыше чного</w>
метри ческий</w>
мета лло
матер и</w>
лока лизо
кс ан
крово потери</w>
критери й</w>
кон струк
ко й.</w>
использова ться</w>
информа ция</w>
интраоперацион ной</w>
ин форми
име ла</w>
жен ной</w>
госпита лиза
гер м
гемогло бина</w>
г ц</w>
выде лить</w>
во сто
вер с
вани я.</w>
вани е.</w>
в ки</w>
ба ми</w>
аутоимму н
ар хи
ад ъю
u til
tu red</w>
suspec ted</w>
substanti ally</w>
st or
scl er
re do</w>
radi ological</w>
potenti als</w>
plac ed</w>
perfor ation</w>
organ ism</w>
omorph ological</w>
neu troph
lim bs</w>
lac tic</w>
ir radiation</w>
il- 8</w>
il lu
ell a</w>
decre asing</w>
d re
cor por
contri buted</w>
com ing</w>
ch est</w>
bri ef</w>
atroph y</w>
arter y.</w>
ant agon
and -
alco hol
advant age</w>
achie ving</w>
5 4.
4- й</w>
ющи йся</w>
фе рен
ультразву ковой</w>
увелич ении</w>
то рами</w>
стомато логического</w>
стви ем</w>
ствен ном</w>
стандарт ную</w>
склеро зом</w>
сан кт-
санкт- петербур
ри н</w>
реабилита ции.</w>
ре пара
распреде ление</w>
рандомизирован ное</w>
различ ным</w>
р н</w>
процеду р</w>
произвед ена</w>
пост инсуль
показате лем</w>
повыш енным</w>
пародон та</w>
п н</w>
отнош ений</w>
отмеча ли</w>
отде лах</w>
опис ана</w>
ок рас
но вая</w>
микроорганиз мов</w>
мета стати
ма сси
лет ней</w>
лаборатор ные</w>
кро ли
кра я</w>
капсу лы</w>
исход я
исследо ванных</w>
изуч енных</w>
законо да
е вой</w>
д т
гипо тала
гипертензи ей</w>
гено типа</w>
вы чис
важ ных</w>
бы стры
ба зи
ате ро
ана томии</w>
альцгей мера</w>
адъю ван
а ло
vitre ous</w>
vic tim
tra ff
ten sive</w>
stra ins</w>
st ep
shap ed</w>
set ting</w>
se min
ro c-
rheumato id</w>
res ections</w>
rele ase</w>
refr active</w>
re generation</w>
ran kin</w>
pe ak</w>
omy el
ocephal ic</w>
observ ational</w>
navig ation</w>
mort ality.</w>
mo lars</w>
lear ning</w>
laparo tomy</w>
j ap
ip i</w>
in ated</w>
in ate</w>
en atal</w>
dra w
dizz iness</w>
d i</w>
consi sting</w>
cerebro spinal</w>
be low</w>
b enz
av oid</w>
at oma</w>
anxi et
an .</w>
ac tual</w>
4 7.
ш ло</w>
челюстно- лицевой</w>
характер ные</w>
уров не
то пи
ти ви
тель ностью</w>
те лями</w>
т. е.</w>
стабили зации</w>
се чения</w>
сде лан
сд -2</w>
ри сков</w>
респон дентов</w>
рас ходы</w>
провед енное</w>
полиме разной</w>
плаце бо
пазу х</w>
открыто уго
отде л
осно вы
опросни ку</w>
обо ст
обо до
о ф
много центро
механи ческой</w>
ли сь.</w>
ле жит</w>
ла сь.</w>
ключе вых</w>
класси фикация</w>
использу емых</w>
инфици рованных</w>
значимо го</w>
за пис
з в
диаме тра</w>
государ ственных</w>
гла д
вы ше
вы бран
ау ди
us e.</w>
system s.</w>
suic idal</w>
stimul ating</w>
sp ac
sol u
read y</w>
r na</w>
r as
r ag
qu estion</w>
post mortem</w>
positi vely</w>
periodonti tis</w>
par an
oti de</w>
on es.</w>
occ ip
o don
no ted.</w>
myocardi um</w>
microorgan isms</w>
med line</w>
lif e-
is ed</w>
il- 4</w>
for ty-
evidence- based</w>
equip ment</w>
encephalo pathy</w>
e ous</w>
deci sion</w>
cross- sectional</w>
c x
brachi ocephalic</w>
beli e
anti bacterial</w>
allow ing</w>
add ress</w>
ac s</w>
ab led</w>
5 7
1- е</w>
00 -
эта пов</w>
экспер тов</w>
цеп ной</w>
це в
у ш
транс крани
трав м</w>
тк ани.</w>
тив ность</w>
счита ть</w>
су ток</w>
сте .</w>
ства ми.</w>
способ ствовало</w>
сокра тить</w>
созн ания</w>
сле по
с кле
режи ма</w>
реа лизо
ре кти
проводи мой</w>
потенциа лов</w>
по зна
перо раль
основ у</w>
опис ано</w>
оказа лся</w>
оказа лось</w>
обост рения</w>
об а</w>
нормаль ным</w>
но вым</w>
низ кая</w>
невро логический</w>
не инвази
мен та</w>
использу ются</w>
импланта тов</w>
значитель ные</w>
жен е
демонстри рует</w>
дан ных.</w>
д ания</w>
глюко кортико
внутри глазного</w>
ве с
ве ли
бо м</w>
бара б
б ин
worl d
ver ification</w>
tur ing</w>
te ach
som al</w>
sec tor</w>
sars-co v-2</w>
rec tomy</w>
psycho -
pro ven</w>
pol ar</w>
peroxid ation</w>
paran asal</w>
non- invasive</w>
n y
micro bio
meta static</w>
me -
liter ature.</w>
k gm
intra -
inter medi
institu tions</w>
induc tion</w>
illu str
identi fying</w>
he d.</w>
h -
ge t</w>
fem to
extrac ted</w>
enhanc ement</w>
e a</w>
devic es</w>
cyto plas
cul ture</w>
cour ses</w>
cl e
cerebroly sin</w>
cap illary</w>
c ns</w>
appear s</w>
al is</w>
ab normal</w>
9 5,
9 4,
3 7
20 .</w>
0 9</w>
0 3</w>
эффектив ностью</w>
эт ни
щ енной</w>
цион но-
ци тах</w>
це ли</w>
хоро ший</w>
хо д</w>
фермен тов</w>
ультразвуко вое</w>
увеличи лась</w>
ти ки</w>
тест ы</w>
су пресси
сти ческих</w>
ста .</w>
сравнитель ная</w>
содерж анием</w>
собы тий</w>
са мым</w>
результа та</w>
рассмо тре
пря мая</w>
профессио нальной</w>
предло жен</w>
поступл ении</w>
отлича ется</w>
оп п</w>
об литера
о чи
нейро трофи
нейро протектив
морфо логического</w>
м ные</w>
лен ной</w>
комплекс ный</w>
кле ток.</w>
карцино мы</w>
интра витре
зи гот
зен та
з ву
дополнитель ные</w>
дополнитель ной</w>
дис ку
диагности рована</w>
депресси ей</w>
да вление</w>
гисто логического</w>
гено типов</w>
во му</w>
ви сце
ва ются</w>
бедрен ной</w>
апопто за</w>
ак цен
wid th</w>
tr ic
su d
sp g
s on</w>
rever sible</w>
protoco ls</w>
pro -
physi ology</w>
osteo arthritis</w>
open- angle</w>
nt- prob
no ve
n ur
long -
j ection</w>
in du
il s</w>
expla ined</w>
ess es</w>
ed ss</w>
e igh
der mal</w>
d ol
conta ined</w>
conduc tion</w>
complex es</w>
chang ing</w>
ar g
ant ation.</w>
acti vely</w>
acet yl
6. 1</w>
6 8.
5 9.
3. 0</w>
10 7</w>
шунти рование</w>
цер ви
хорио идеи</w>
химио терапии</w>
уни верс
тя м</w>
томографи ю</w>
то но
то -
статисти ческий</w>
с формули
с фин
с на.</w>
ру ющий</w>
ре ли
ран няя</w>
разработа н</w>
раз ы</w>
раз ного</w>
публика ции</w>
процен т</w>
проис шестви
производ ства</w>
про шли</w>
преоблад ание</w>
подтвержда ют</w>
по степен
по в.</w>
пара лле
охва т</w>
осмо тр</w>
онко логических</w>
начи ная</w>
на ж
моно кло
минималь но</w>
ме зен
макси мальной</w>
ле ран
ле ка
кто ров</w>
кон цу</w>
ко сме
ка вер
иммунофермен тного</w>
иммуно глобу
зо й</w>
е .
до р
до зи
длитель ной</w>
вше йся</w>
вс кры
вра ч
вос ходя
valu able</w>
ter .</w>
t- assisted</w>
stre p
si s-
schizophren ia.</w>
refl ect</w>
refer red</w>
ran k</w>
predic tion</w>
par enchy
ortho pedi
occurr ing</w>
ne a</w>
molec ules</w>
minim um</w>
kin etic</w>
inter actions</w>
in her
i i-iii</w>
her p
hemo stasis</w>
fin d</w>
exc essive</w>
endotheli um</w>
effecti vely</w>
ec tor</w>
death .</w>
cortis ol</w>
artic ular</w>
and ed</w>
an k
afric a</w>
3. 7</w>
3. 4</w>
1 3-
эктоми ю</w>
щ и</w>
церебро лизи
хирурги и.</w>
х ра
у ли
трахе о
ти м
структур ные</w>
стандарт ных</w>
ста ть</w>
спон тан
составля ют</w>
сину си
сегмен тов</w>
ре шение</w>
ран нее</w>
различ ного</w>
про является</w>
причи нами</w>
преж де
поче чной</w>
показ ывают</w>
пли ка
ото бран
осно вой</w>
ос ла
обоб щены</w>
о до
не доно
не д.</w>
миопи и</w>
ми т
мено пау
которы ми</w>
консерва тивного</w>
коморби дности</w>
кана лов</w>
исключ ением</w>
иммуно дефицита</w>
зи й</w>
ени ях.</w>
де тер
д у</w>
ги бе
выявл ении</w>
влия ют</w>
ва ль
а мери
vide o-
trache o
tra ined</w>
to sis</w>
tissu es.</w>
terr itor
star ting</w>
sp ir
sou th</w>
simil ar
sc an</w>
rhin osin
relap ses</w>
plann ed</w>
peters burg</w>
parame ters.</w>
p d
oc or
non communicable</w>
ne t</w>
multicent er</w>
meas uring</w>
kerato plasty</w>
inter sti
inf usion</w>
inf lic
histor ical</w>
hemo globin</w>
h r</w>
graph ical</w>
glomer ular</w>
fl ora</w>
f c</w>
eyel id</w>
enh ance</w>
enc es.</w>
ed ge</w>
dilat ation</w>
cy stic</w>
cri min
cosme tic</w>
contra st-
cere b
c el
bla stoma</w>
anti hypertensive</w>
admini str
a ks</w>
8 5,
6 6,
- effects</w>
эк ви
ь ми</w>
щ енных</w>
цик ла</w>
ци тарной</w>
це в.</w>
устойчиво сть</w>
то леран
ти н</w>
ти ем</w>
те с
т с</w>
т б</w>
счита ется</w>
су точной</w>
сохран ения</w>
сосудист ые</w>
служи ли</w>
сло ев</w>
синдро ма.</w>
са ха
с- реактив
риносину си
ре ша
раз мера</w>
про исходя
представи телей</w>
предсерди й</w>
предоста вля
практи ческой</w>
поним ания</w>
повтор ного</w>
пато лого
п т</w>
п к</w>
открыто е</w>
ос во
опухо лях</w>
опера ций.</w>
ободо чной</w>
о .</w>
нукле оти
мк г
мини -
мине ра
мин ан
микро б
материа ле</w>
мани пу
ма б</w>
ло бной</w>
ле .</w>
кри тической</w>
коле б
каль ция</w>
к се
интерлей ки
индекс у</w>
изуч ено</w>
изуч ении</w>
до пу
дево чек</w>
де ть
д ная</w>
д б</w>
год .</w>
глауко мой</w>
ги п
вши еся</w>
вра че
влия ющих</w>
вер ну
важ ность</w>
в ную</w>
бараб анной</w>
артери альная</w>
ади по
ав м</w>
un its</w>
ulin um</w>
tr ue</w>
su m</w>
statis tica</w>
socio -
ses sions</w>
s p</w>
s es.</w>
robo t-assisted</w>
ri l</w>
refl ects</w>
r r</w>
r ational</w>
poli tical</w>
po or
pheno type</w>
p ing</w>
om a.</w>
nt-prob np</w>
neuro trophic</w>
n or</w>
n one</w>
menopa usal</w>
me ter</w>
mainta ining</w>
m ight</w>
ll ing</w>
ine ural</w>
in st
immedi ately</w>
ill ness</w>
h la
ger many</w>
g am
f ar</w>
enter ic</w>
en counter
elev ation</w>
el is
de .</w>
compris ing</w>
cholecy sti
ca ref
c v
c .
attit ude</w>
anim als.</w>
al ize</w>
6 7.
этап ы</w>
эм бри
эксперти з</w>
цеф альных</w>
характеризу ются</w>
фарма цев
транс формации</w>
тради ционной</w>
схе му</w>
стенти рования</w>
сте кло
ство вания</w>
стандарт ного</w>
сопря жен
сопостави мы</w>
секре ции</w>
се вер
сд 2</w>
росси я</w>
рит ми
распространен ным</w>
разви вается</w>
психо логического</w>
пример но</w>
при ходи
пи рами
пе т
патогенети чески</w>
па но
остро та</w>
оп ла
обнару жения</w>
о жо
ново образования</w>
националь ном</w>
настояще м</w>
направл ений</w>
наиболь шее</w>
н ми
медико-сани тар
лен а
корре лирует</w>
интер в
зе р
живо т
дп пг</w>
достовер ная</w>
динами ческого</w>
гисто логических</w>
г м</w>
вов леч
внутривен но</w>
вл ены</w>
включа ли</w>
взросло го</w>
вестибу лярной</w>
вводи ли</w>
ар ти
аор ты.</w>
амбула торных</w>
аг рега
z e</w>
vis its</w>
vent ral</w>
to genic</w>
t b</w>
sup pression</w>
subj ect</w>
stero idal</w>
smoo th</w>
s .
retro peritoneal</w>
re mis
r ying</w>
psychiat ri
pl us</w>
phenomen a</w>
phacoemulsi fication</w>
per ic
pepti des</w>
patho gens</w>
ol ip
obj ects</w>
novo sibir
nor m
n m
m us</w>
low est</w>
justi fied</w>
h d
g as</w>
fe eding</w>
fav our
experim ents</w>
es -
eff ects.</w>
echocardio graphy</w>
direc tions</w>
cul ti
conscious ness</w>
coch ran
c vd</w>
beta -
au re
approxim ately</w>
am ide</w>
8 6,
1 60</w>
0. 8
ща ет</w>
ци я.</w>
цен тре</w>
у бе
тяже ло
тель ств</w>
сти л
стар шего</w>
стади я</w>
сро ках</w>
способ ствуют</w>
спо р
род ствен
республи ки</w>
респира торных</w>
расши ря
разработ ана</w>
раз ными</w>
пролифера тивной</w>
про лакти
положитель ной</w>
полиморф ных</w>
позд них</w>
относи тся</w>
открытоуго льной</w>
орга но
опти мальной</w>
опера цию</w>
опера тивное</w>
ологи ческого</w>
об уч
недоста тки</w>
н м</w>
метаболи ческого</w>
лон ги
лет ний</w>
ла й
кор ня</w>
интере со
изу чили</w>
игра ют</w>
значи мыми</w>
здравоохран ение</w>
ду ги</w>
достигну та</w>
доброволь цев</w>
до за</w>
демонстри руют</w>
гри б
г р</w>
веду щих</w>
в шего</w>
б м</w>
анта гони
ан дро
а ген
urb an</w>
u tive</w>
typ ic</w>
them sel
techniqu e.</w>
sho t</w>
shif t</w>
s c</w>
resi dents</w>
public ation</w>
pac k
p po
p d-
n 20</w>
min i-
method ological</w>
metho do
l es.</w>
l er</w>
hypo thalam
hc v</w>
gr am</w>
gingi val</w>
ger onto
g ab
fibrill ation</w>
experi ment</w>
episo de</w>
dis advantages</w>
chang es.</w>
car rying</w>
can not</w>
bre ath
bir ths</w>
bacter ia</w>
are a.</w>
amer ic
ame ly</w>
ab lation</w>
8 4.
4 9,
4 0-
3. 2</w>
3, 0</w>
201 3-
хрони ческими</w>
флу оресцен
ф -
участ ни
уси ление</w>
умер ли</w>
точ ность</w>
сопровожда лось</w>
селе зен
сек вени
результа тах</w>
разры ва</w>
р ного</w>
психи ческими</w>
про зра
приобре тен
привед ено</w>
пре вен
посту пи
послеоперацион ная</w>
пораж ении</w>
перио дах</w>
пациен ту</w>
отража ет</w>
особенност ях</w>
об следу
об и
о пор
о з</w>
нор ме</w>
националь ного</w>
находи вшихся</w>
н .н.</w>
мы шей</w>
мрт -
мла д
методо м.</w>
м ж</w>
локализа ция</w>
л г</w>
ку ри
ко ми
к ционных</w>
исто рии</w>
измер яли</w>
и стин
зн аний</w>
же ва
гипо тирео
гене за.</w>
виру с</w>
ви д</w>
анали зировали</w>
алле ля</w>
we stern</w>
ver tical</w>
u -
traff ic</w>
thre at
suffici ent</w>
st en
sign al</w>
sal t</w>
re ach</w>
r f</w>
predic ting</w>
polymer ase</w>
pla ys</w>
oxy gen
n r
n g
multi focal</w>
micro circulatory</w>
mes h</w>
mar ch</w>
m m.</w>
larg est</w>
l p
l ing
in i</w>
impro vements</w>
health .</w>
he m
fi -
f os
ex cre
et ary</w>
er ad
e x</w>
e ties</w>
drug -
domin ant</w>
disorder .</w>
dis rup
di ar
de sc
citi z
choleste atoma</w>
ch am
ca p</w>
bit ed</w>
au tis
assist ance</w>
ag e
a sia</w>
7 8
3. 8</w>
1 17</w>
энцефа ли
чис ленных</w>
ци н</w>
центра льных</w>
характер ны</w>
установл ение</w>
тревож но-
теч ении</w>
таб ле
стре сс</w>
ста л
состояни ем</w>
слухо вого</w>
рогови цы.</w>
регио на</w>
разработ аны</w>
психо патологических</w>
про ста
потреб ность</w>
по ле</w>
плани рования</w>
патогенети ческие</w>
офи циаль
остео поро
определ енных</w>
окис ления</w>
обусловл ена</w>
обу чение</w>
обра тной</w>
обосно ван
наль ным</w>
му ля
мо чи</w>
мигрен и</w>
ми шен
метаста зов</w>
мест е</w>
лежа щих</w>
ла би
л с</w>
кон тек
к м
использу ют</w>
ингиби торов</w>
зада чи</w>
за интересо
з ин
дыха тельной</w>
длитель ное</w>
д же
га р
выде ления</w>
вани й</w>
ва лось</w>
ар ного</w>
x es</w>
visc eral</w>
tu re.</w>
tissu e.</w>
targe ts</w>
t p
sy .</w>
so -
retro spectively</w>
restor e</w>
require ments</w>
repe at</w>
rehabilit ation.</w>
reas on
re tention</w>
rad ic
proj ect</w>
pri ority</w>
prefer red</w>
p r</w>
os as</w>
om yo
occu pati
nutri tional</w>
multi variate</w>
morph ology</w>
mmp -9</w>
m en.</w>
long it
longit ud
lit tle</w>
level s.</w>
le v
is sion</w>
intr am
ing -
id ed</w>
id .</w>
i b</w>
hypo tensive</w>
h our</w>
gly cer
gluco cortico
gl ands</w>
gastro esophageal</w>
g un
fundam ental</w>
fibro us</w>
f lo
encounter ed</w>
e ver
de si
d ang
coord ination</w>
concep ts</w>
co me.</w>
chlor ide</w>
character ize</w>
cap abilities</w>
c l</w>
bi di
b ppv</w>
b m</w>
au dio
ather o
ath le
appl i
anomal ies</w>
al one</w>
9 0-
4 6
3. 6</w>
0, 9</w>
0, 6
0, 3</w>
экви вален
э ко
шей ки</w>
цен три
холеци сти
финанси рования</w>
ф гб
ухуд шение</w>
услу гами</w>
у твер
тугоухо сти</w>
томи я</w>
токси ко
тив но</w>
т тг</w>
суще ствующие</w>
сти г
ста ла</w>
сосуди сто
си х</w>
сен сор
с .
рис ка.</w>
рассматрива ться</w>
ра ти
психо логических</w>
психи ческой</w>
протеи на
прог рес
причин е</w>
представи ть</w>
полови ны</w>
повтор ной</w>
пере хода</w>
пере ме
опухоле вой</w>
ожи да
облада ют</w>
нейро патии</w>
не инфекционных</w>
микро ско
микро би
методи ку</w>
лекар ственные</w>
кро вос
количе стве</w>
карти не</w>
кавер но
использова лась</w>
ис че
информа цию</w>
интер сти
ин ф
ин ти
из ви
и в
до маш
дер мато
де ли
дан ное</w>
выполня лась</w>
возра сте.</w>
внутри череп
влия ть</w>
ве .</w>
боль шие</w>
б к</w>
аспек те</w>
анти тела</w>
а -
um in
tri gg
tooth past
tm j</w>
terr itory</w>
t d</w>
super ficial</w>
sh ock</w>
saliv ary</w>
sac ral</w>
resol ution</w>
re al-
r ated</w>
pos es</w>
oper ating</w>
obvi ous</w>
o vari
micro scopic</w>
maxim al</w>
m f</w>
lo x
ir i</w>
hyperten sion.</w>
heterogene ous</w>
gli omas</w>
esophag us</w>
en ous</w>
el ective</w>
develop s</w>
cochran e</w>
ci vi
chromo some</w>
barri er</w>
ar ach
appl ying</w>
analyz ing</w>
amo us</w>
al e</w>
201 0-
2. 2</w>
1 80</w>
энер ге
э волю
щ ения.</w>
чи тельно</w>
хирурги ческому</w>
х но
функциональ ный</w>
устран ения</w>
употреб ления</w>
тру пов</w>
ти вой</w>
тель ство</w>
су гу
стр о</w>
сторо ну</w>
ствова л</w>
ст е</w>
составля л</w>
сопоста вление</w>
со вме
своевремен но</w>
с ъе
реш ений</w>
резе кций</w>
приве сти</w>
при бли
потреб ности</w>
поль зо
пг мл</w>
от ка
остры ми</w>
он ного</w>
окон ча
около носовых</w>
но я
нми ц</w>
неблагоприят ным</w>
не фри
навы ков</w>
моди фикации</w>
множе ственной</w>
ма ба</w>
лице вого</w>
кровос наб
ке то
исключ ения</w>
интра о
ин е</w>
имму н
из ложены</w>
зиру ющих</w>
дли ной</w>
дан ы</w>
д на</w>
д г</w>
гли це
выявля ли</w>
восстановл ению</w>
в ской</w>
быстро го</w>
биологи ческой</w>
бер цо
адеква тной</w>
y iel
v ocal</w>
up take</w>
ultras onic</w>
ther n</w>
tas ks</w>
t c</w>
sur ance</w>
s wit
rat s.</w>
prophy lactic</w>
predomin ant</w>
per spective</w>
pancre as</w>
p gml</w>
orthopedi c</w>
onco logical</w>
occip ital</w>
ob ic</w>
no -
n amely</w>
modi fication</w>
mo ment</w>
min or</w>
mas sive</w>
m fi-
lat ent</w>
intersti tial</w>
impair ment.</w>
ide as</w>
highligh ts</w>
haem orrh
h s</w>
h ard</w>
g ht</w>
fil tration</w>
ex o
ex clusion</w>
ens es</w>
dis semin
cyp 2
correl ates</w>
compens atory</w>
cir rho
ch an
camp a
blo ck
at e-
anti psycho
alg ia</w>
accum ul
ab sc
a id</w>
8 9,
7 8.
6. 3</w>
5. 5</w>
1 1-
0. 7
0 6</w>
электро н
част ыми</w>
ч ностью</w>
ч .</w>
цен тров</w>
характер но</w>
упра ж
у ма</w>
ти ро
сыворо тки</w>
стенти рование</w>
стар ении</w>
сокра щения</w>
сокра щение</w>
слож ной</w>
следова тельно</w>
си фили
серо тонина</w>
связан ной</w>
сво ей</w>
с у</w>
ри бо
пя ти</w>
посвя щен</w>
полож ении</w>
повыш енного</w>
план е</w>
п и</w>
от слой
осложн енной</w>
обосно вание</w>
о ру
но э</w>
нео на
моля ров</w>
мето дам</w>
мест ной</w>
международ ной</w>
мг кг</w>
мати ческих</w>
магистра льных</w>
ль но-
луч шие</w>
компьютер ная</w>
ка мп
инде ксом</w>
ингиби тора</w>
извест но</w>
значитель ный</w>
дисфунк цией</w>
дефици том</w>
двига тельного</w>
ги пера
герм ания</w>
вмешатель ств.</w>
вид ы</w>
велич ины</w>
вариан тами</w>
бо др
анали зом</w>
амило идо
аб сце
а пи
x ab
v ag
under taken</w>
til l</w>
suppur ative</w>
su itable</w>
st atin</w>
sp le
sequ encing</w>
russi a.</w>
ra rely</w>
promo te</w>
prof il
prob ably</w>
por tal</w>
pool ed</w>
percep tion</w>
or rhea</w>
of f</w>
num bers</w>
n ation
mg kg</w>
mem bers</w>
mar row</w>
mac roph
m w
lep tin</w>
labor at
l ess
l acti
join ts</w>
indi a</w>
il- 10</w>
hi a</w>
function s.</w>
feder ation.</w>
f ar
exhi bited</w>
el ess</w>
eff ect.</w>
ec onom
diver sity</w>
cr yo
con sen
bur den
be sides</w>
atic ally</w>
asymp tomatic</w>
asp ect</w>
al ready</w>
adi po
7 7.
5 4
2. 7</w>
2 b</w>
2 8-
1 19</w>
0. 9</w>
0. 9
ющи мися</w>
эзофа го
шун та</w>
ци ты</w>
центра х</w>
функ ция</w>
форми рованию</w>
ф в</w>
уделя ется</w>
у сугу
т м
стре сс-
соответ ствующие</w>
сим пати
связа н</w>
рова лось</w>
ри ва
ре моделирования</w>
ре зор
расстрой ством</w>
рас чет
ра -
проанализирован а</w>
про лонги
пред ы
подтвержд ена</w>
пи ло
персо ни
перело мов</w>
осложн ение</w>
органа х</w>
оп рав
обусловли вает</w>
носи т</w>
неблагоприят ного</w>
нача лом</w>
направл енные</w>
мп а</w>
мини стер
ми ре.</w>
ми гра
меся ца</w>
кто в.</w>
критери ем</w>
контро ля.</w>
ко мо
кари о
к л</w>
иммуногистохими ческое</w>
желе з</w>
ди сто
дебю та</w>
гисто логическое</w>
восстанови тельном</w>
вери фикации</w>
в р
болез ни.</w>
ацети л
атеросклеро зом</w>
анализиру ются</w>
а гони
su stain
ster eo
so- called</w>
sib er
sep sis</w>
sens or
res ection.</w>
reli ability</w>
rel ax
rap id
pre clinical</w>
patho physiological</w>
paroxys mal</w>
p w
p ts</w>
p in
p c</w>
opportun ities</w>
non specific</w>
medi ated</w>
m ci</w>
ly sis</w>
le ak
laryn g
la si
l c</w>
l 1</w>
io id</w>
inhibi tion</w>
in ous</w>
hba1 c</w>
hb v</w>
gli al</w>
famil ies</w>
expect ancy</w>
excep t</w>
erad ication</w>
er g</w>
end ed</w>
e ting</w>
dm 2</w>
depres sion.</w>
cy tom
con focal</w>
comp et
chan nel</w>
ch ec
c- reactive</w>
au tom
anti- vegf</w>
al o
a thetic</w>
1 11</w>
0, 7
эта п</w>
эндоскопи ческих</w>
целесообраз ности</w>
фено типи
тро мб
тор ные</w>
тив ному</w>
те пло
те ла.</w>
так си
сту дентов</w>
стено з</w>
станови тся</w>
сред ние</w>
сотрудни че
сосу дах</w>
сле зной</w>
реа лизу
рав ен
р0,00 01</w>
психиатри ческой</w>
протоко ла</w>
промеж уточ
проводи тся</w>
преды ду
поведен ческих</w>
па сси
оториноларин го
оте к</w>
организа ций</w>
окружа ющей</w>
объе к
образ цах</w>
моз ге</w>
механиз ма</w>
мест а</w>
лик ви
лапароскопи ческой</w>
клубоч ковой</w>
кла ссо
зубо челюст
зр ения.</w>
жен ского</w>
ду плекс
деть ми</w>
г ены</w>
второ го</w>
висо чных</w>
виру сов</w>
в шей</w>
бы стро</w>
а про
yr am
vo ice</w>
tra its</w>
themsel ves</w>
t al
summar izes</w>
streng th
shun t</w>
s aph
rehabilit ative</w>
refr action</w>
poor ly</w>
pa resis</w>
pa in.</w>
out come.</w>
oscop y</w>
os es</w>
oly sis</w>
n 10</w>
medic ine.</w>
lo st</w>
lat ency</w>
j ak
io sis</w>
indic ation</w>
indic ating</w>
impl anted</w>
hypo thesis</w>
hel ps</w>
ga it</w>
f alls</w>
explor e</w>
exp ected</w>
endoscop y</w>
dy st
det achment</w>
cur ve</w>
consi st
clinic al-
c g</w>
c ase.</w>
br ary</w>
biomechan ical</w>
au di
are as.</w>
an te
amylo id</w>
6 9,
4 4
3, 1</w>
0.0 1</w>
- to-
эпители альных</w>
церебра льных</w>
ца м</w>
хромо со
ход у</w>
функ ций.</w>
уве и
трудоспособ ного</w>
тромбо з</w>
то на</w>
стомато логических</w>
сто л
стено карди
с г</w>
росси и.</w>
резистен тной</w>
режи м</w>
регио не</w>
разви лись</w>
р эн
пролифера ции</w>
пробле му</w>
предопера ционной</w>
полуша ри
полу ш
пози тивных</w>
по н
отра вл
отлича лись</w>
опис ания</w>
он мк</w>
обосно вание.</w>
об мен
националь ные</w>
морфологи ческой</w>
модифици рованной</w>
ме ру
мальчи ков</w>
макро фа
м ск
лекар ственного</w>
критери я</w>
концеп ция</w>
кон ститу
количе ственного</w>
класси фици
й е
имму нного</w>
избы точной</w>
за раж
го ду.</w>
вывод ы</w>
вы здоро
все общего</w>
возника ет</w>
в тэ
больни цы</w>
боль шее</w>
ассоциа ция</w>
аспек тов</w>
анали зу</w>
аль бу
y l</w>
vari ations</w>
v ill
u res.</w>
toxic ity</w>
thrombo embolic</w>
the ory</w>
the ore
sur roun
sub 1
si onal</w>
se ems</w>
s m</w>
s h</w>
reli ably</w>
refr ac
reach ed</w>
re t
psycho therapy</w>
practic es</w>
parame ter</w>
p en
ob st
neuro pathic</w>
mus culo
mo bil
methodo logy</w>
mal aria</w>
main tain</w>
m 2</w>
m 1</w>
leg is
intermedi ate</w>
in ti
immuno globul
house holds</w>
follow- up.</w>
fic ation.</w>
feed back</w>
fe br
f en
eti ological</w>
eno sis</w>
ear ing</w>
dos age</w>
distric ts</w>
dis c</w>
dimensi ons</w>
dec ades</w>
d c</w>
commun ication</w>
coll abor
clinic al
categ ories</w>
bot ulinum</w>
aver aged</w>
a y</w>
2. 3</w>
1 16</w>
0. 6
явля ться</w>
эффек том</w>
ше му</w>
уменьши лась</w>
та и
схе ме</w>
ско н
серд ца.</w>
семе й</w>
с л
рова лся</w>
рече вых</w>
ре я</w>
психи а
пря мого</w>
прото ка</w>
происхо ждения</w>
препара там</w>
преду пре
положитель ным</w>
пан деми
ошиб ки</w>
он то
од ну</w>
обы чно</w>
обеспе чение</w>
о л
ново сибир
нару ж
най д
на си
много числен
ме ду
луч ше</w>
кри вой</w>
контра сти
коагу ляции</w>
ко ль
ка дро
зо нах</w>
жд ение</w>
дрени рования</w>
дп тр</w>
долла ров</w>
до й</w>
депресси я</w>
де струк
гипо фи
встреча лись</w>
вопро са</w>
возника ют</w>
вирус ного</w>
вир ту
worl d.</w>
we b</w>
ulcer ative</w>
ular -
sup ra
sta ke
st ectomy</w>
siz es</w>
sensor ineural</w>
s low</w>
s ds</w>
rapid ly</w>
princip al</w>
present ation</w>
pharyn geal</w>
pancre ato
p v</w>
ne ver
n 15</w>
mp -1</w>
medias tin
mal formations</w>
low er-
l ary</w>
k lo
j ug
increas ingly</w>
in patient</w>
h is
fe ature</w>
f ing
ensu res</w>
emb ase</w>
dr inking</w>
de als</w>
d ness</w>
conta ins</w>
con vul
con version</w>
com es</w>
cardi omyo
al i
7 9.
6 00</w>
5 8
10 9</w>
0, 9
0, 8
эндо метри
эмбри о
электри ческой</w>
э .</w>
цир ро
цен тр</w>
характер ных</w>
фрагмен тов</w>
фо н
установ ки</w>
темпера туры</w>
стандарт ное</w>
ста тей</w>
сро ка</w>
сор тов</w>
се пти
рекоменду ется</w>
ре ма
рема ксо
ре до
рассмо трен
распреде лены</w>
пря мых</w>
прогно зировать</w>
постанов ки</w>
получа ла</w>
под с
по грани
перси сти
перио ди
пери на
п ш
ортодонти ческого</w>
но ва
необ рати
недоста т
не удовлетвори
наж бп</w>
молеку л</w>
манифе стации</w>
ло вой</w>
ла я</w>
кур сов</w>
купи рования</w>
ку ря
комплекс ная</w>
коге рент
ишеми ческих</w>
име ются</w>
значитель ным</w>
зада чей</w>
зад него</w>
заболевани ями.</w>
за полн
жел чного</w>
е сть</w>
декомпресси и</w>
де тям</w>
вы х.</w>
вто ром</w>
воспа ление</w>
возмож ной</w>
во сть</w>
в ности</w>
бе сси
z ing</w>
wor s
wom ac</w>
victim s</w>
verte br
troph y</w>
t ability</w>
surge on</w>
strati fied</w>
sit u</w>
s po
represent ative</w>
regi ster</w>
rand om</w>
pro per</w>
por tions</w>
po c
pig ment</w>
phys ici
perin atal</w>
pene tr
p0,00 01</w>
n m</w>
n 2
mfi- 20</w>
man ip
le u
k az
investig ators</w>
in stability</w>
immun ization</w>
hemispher ic</w>
gly co
evol ution</w>
ep ig
e co
dou ble</w>
contri bu
cont ents</w>
consider ably</w>
candi da</w>
c ar</w>
bene ficial</w>
arach no
anticoagul ant</w>
anthropo metric</w>
al ine</w>
aden oma</w>
ad op
a u</w>
4 9.
1 13</w>
- like</w>
эмоциональ ного</w>
эктоми и.</w>
экспер тных</w>
черепно- мозговой</w>
цито в.</w>
характеристи ками</w>
фор му</w>
улуч шением</w>
указ ывают</w>
у би
ти и</w>
таи лан
стади й</w>
сравнитель ного</w>
снижа ется</w>
республи ке</w>
резе кцией</w>
регио нов</w>
реа кци
раз меры</w>
ра за.</w>
проявл ением</w>
про пор
про леч
применя лись</w>
предпоч ти
пос мер
показ анием</w>
позвоно чника.</w>
пожи лом</w>
персони фици
перви чным</w>
па м</w>
от че
орг ан
низ кие</w>
несостоя тельности</w>
нау чного</w>
наи мень
му ни
множе ство</w>
мини му
ме тропи
материа лом</w>
локализа цией</w>
лока льного</w>
куляр ных</w>
корти зола</w>
инструмен тальных</w>
инди ка
име ется</w>
ил- 6</w>
и даль
зу бной</w>
зиру ющего</w>
зарегистри рованы</w>
ж ению</w>
е м
достовер ной</w>
ди ско
дет ском</w>
гоме оста
го ро
гли ко
гене зе</w>
ген ными</w>
выз ванной</w>
вы бро
анома ли
ангио графи
ак со
y sm
xab an</w>
wat ers</w>
wa vel
v inc
trun k</w>
trac k</w>
ti a</w>
sur fac
str ong
st op
sear ched</w>
sali va</w>
resp ect</w>
relev ance</w>
re gener
pu t</w>
pro lacti
par ents</w>
p up
ovari an</w>
out flow</w>
on line</w>
ne ither</w>
micro biological</w>
meta- analysis</w>
limit ations</w>
lif ied</w>
intes tine</w>
h if
fiel ds</w>
fg f-
favour able</w>
et c.</w>
er r
embol ism</w>
em erg
denti stry</w>
de compensated</w>
corp ses</w>
clar ify</w>
cholecysti tis</w>
b lu
aug mentation</w>
ation -
at e.</w>
ar s</w>
angio genesis</w>
all -
8 8,
0. 4
0. 3</w>
э т</w>
э ласти
ь ма</w>
хо ждения</w>
фло у
физиологи ческого</w>
фа кти
ухо да</w>
трени ро
тре ти</w>
ти пами</w>
статисти ческого</w>
ст ь.</w>
сс з</w>
современ ного</w>
са мой</w>
са й
с матри
регио нар
ре аль
рас ще
развити я.</w>
раз у</w>
пузыр я</w>
психо логической</w>
противо воспалительных</w>
предотвра щения</w>
период ы</w>
пере город
перво нача
пе диа
пара но
отяго щ
от а</w>
обра ти
о п</w>
необходи ма</w>
нейродегенера тивных</w>
на та</w>
н ан
муж чин
моск вы</w>
мо че</w>
мени .</w>
матри кс
ман у
ли но
ла зы</w>
кровотеч ений</w>
коронар ное</w>
кой ко-
кардио васкуляр
исклю ча
интер феро
институ та</w>
и ми</w>
заме сти
достигну то</w>
доказ ано</w>
до мо
ди ть</w>
дегенера ции</w>
дале е</w>
да ми.</w>
д ный</w>
го вой</w>
выражен ными</w>
враче й-
воз вра
верх него</w>
в тор
в .
бы .</w>
бесси мпто
ау ти
ау дио
ар т</w>
ап пенди
аор тального</w>
альтерна тивой</w>
ада пти
а эро
а э</w>
а бер
zyg ous</w>
with draw
win do
wh it
vie ws</w>
us ers</w>
transp ar
there by</w>
te sto
sub stitu
spon dy
sple en</w>
scho ol
reg im
priv ate</w>
ppo camp
ph ere</w>
pe d
par ano
pancre ati
p uncture</w>
p ine</w>
off ic
n s
n ess.</w>
mo thers</w>
microbio ta</w>
m app
ly s
longitud inal</w>
li ve</w>
j u
in surance</w>
in s.</w>
in k
hospit al.</w>
hi ppocamp
excre tion</w>
elec tric</w>
dis continu
defic i
cy st</w>
cirrho sis</w>
ch rom
cd 34</w>
c al</w>
at t
at ric
arti cle.</w>
ap illary</w>
6. 4</w>
201 3.</w>
2. 4</w>
2, 4</w>
1 70</w>
0, 2</w>
0, 1</w>
широ кое</w>
хирурги ческим</w>
устойчи вого</w>
установл енным</w>
трав мы.</w>
терапевти ческие</w>
тер мо
счита ют</w>
степ ени.</w>
со ли
со в.</w>
смер т
скани рования</w>
синдро ме</w>
се рии</w>
ру до
россий ских</w>
ро стом</w>
рис ки</w>
рече вой</w>
реци пи
реципи ен
ретроспектив ное</w>
рези ду
разработ анной</w>
разви лся</w>
р ти
прог ре
прие мле
пред ъ
пораж ениями</w>
повыш ении</w>
опера циях</w>
нор мо
неде ле</w>
надзо ра</w>
множе ственных</w>
миокар ди
ми ра</w>
мето дов.</w>
мало инвази
ли ном</w>
кур ение</w>
кров ен
компонен т</w>
колла гено
ко рен
кита е</w>
кар м
ишеми ческий</w>
инфек ция</w>
импланта цией</w>
иммуно супресси
име ющихся</w>
име ющие</w>
заклю чение</w>
го на
выпол нить</w>
времен ного</w>
возмож ным</w>
возмож ност
ве й
вариабе льности</w>
ван ными</w>
ван ная</w>
в ч
бронхи альной</w>
брахи о
биохими ческих</w>
аффектив ных</w>
адрен о
а кро
vi r</w>
vari able</w>
vacc ines</w>
ulc ers</w>
transpl ant</w>
them .</w>
te en</w>
supple mented</w>
sub cutaneous</w>
su med</w>
sin usitis</w>
sh ar
schiz o
s pher
s he
rel atives</w>
re par
re in
random ly</w>
pro to
pro min
post- traumatic</w>
pla que</w>
p b
or bidi
oph aryn
novosibir sk</w>
n ext</w>
mo id</w>
meningi omas</w>
megal y</w>
j ud
inflic ted</w>
if n
ic k</w>
hypox ia</w>
fer ence</w>
ex ist
establis hed.</w>
est er
em ia.</w>
doc tor</w>
dig estive</w>
develop mental</w>
depart ments</w>
da i</w>
const ant</w>
conduc ted.</w>
conclu sions</w>
commun ity-
com orbidi
cho sen</w>
c um
b is
as a</w>
ant enatal</w>
allel es</w>
alb ic
adi pose</w>
8 7,
7 4.
2, 2</w>
0, 6</w>
- s</w>
яз вен
эндоскопи ческая</w>
эксперимен те</w>
числен ности</w>
фо ре
участи я</w>
у глуб
техни ка</w>
те л</w>
та м.</w>
сфе ры</w>
слухо вых</w>
скрини нг</w>
свобо дного</w>
с я.</w>
с бор</w>
россий ского</w>
рецеп тора</w>
рассеян ным</w>
рас сло
рас кры
профилакти ка</w>
профессио нальных</w>
провед енной</w>
при рост</w>
пода вля
пи та
пери то
перенес енного</w>
перен ос
пере ч
пере строй
перви чная</w>
пати и.</w>
пара лич
отрост ка</w>
ос мотр
опухо лью</w>
определя лись</w>
определен ные</w>
оказ ывают</w>
одно крат
обнару жили</w>
обеспечи ва
об но
о ро
о по
о дон
ну три
неспецифи ческой</w>
модели рование</w>
мо ско
мо му</w>
множе ственные</w>
микро рнк</w>
мати ческого</w>
ли ц.</w>
лазе ра</w>
кратко сро
контро льных</w>
кла пан
каса ющиеся</w>
ка м.</w>
использу ется</w>
и р</w>
и .
зо в.</w>
зафикси ровано</w>
за ты
за брюшин
е вых</w>
доступ ность</w>
доппле ров
доказ ана</w>
де струкции</w>
да ют</w>
гря з
генети чески</w>
во в.</w>
вита ми
взрос лы
ве к</w>
важ ной</w>
в ходя
бур ден
борь бы</w>
благо получи
ауто пси
ангио генеза</w>
vari eties</w>
th eless</w>
t ele
summar ize</w>
sh are</w>
schem es</w>
s ound</w>
reco ver
promo tes</w>
po pl
pers on</w>
per s</w>
path way</w>
path omorphological</w>
pap illo
pap illary</w>
pa h</w>
p p</w>
p -1</w>
ophthalmo logical</w>
oc ial</w>
never theless</w>
n estic</w>
n af
mo bile</w>
min ute</w>
metabol ites</w>
membran es</w>
manu fact
lo l</w>
lo b
le sions.</w>
iro n</w>
interval s</w>
influ enced</w>
inf ant</w>
inc i
in corpor
fil m</w>
e ven
de lay</w>
criter ia.</w>
consen sus</w>
conduc ting</w>
commun ities</w>
com for
cl ip
c gi
breath ing</w>
bran ches</w>
av o
asym metry</w>
as signed</w>
adenocarcin oma</w>
ad .</w>
9 4.
8 8.
эндокри нной</w>
эмоциональ ных</w>
электро нной</w>
экспер тной</w>
э мисси
ь ев</w>
ча стой</w>
це ллю
хо ло
фильтра ции</w>
ты с.</w>
тонзи лли
ти о
техни ческих</w>
техни ческие</w>
те ль</w>
таль но</w>
суици да
сту ю</w>
стра я</w>
ср б</w>
спо рт
соответ ствовали</w>
след ствием</w>
сен си
своевремен ное</w>
са д
с-реактив ного</w>
ро ждения</w>
резор б
ре ла
простран ства</w>
прово ци
провед ению</w>
принци пов</w>
преж нему</w>
пред расположен
пол ный</w>
подо зр
повед ение</w>
пласти кой</w>
перито не
оцен о
организ ме</w>
ожир ение</w>
одон то
обра щения</w>
обо рудо
нк -
недостаточ ной</w>
не измен
н п</w>
мо били
ме ло
ля ция</w>
ктор ы</w>
крест цо
кон ца</w>
компресси и</w>
клю чи
кла сс</w>
капил ля
к ш</w>
к р</w>
к ну
к л
к д</w>
к в</w>
истори й</w>
исследо вать</w>
инфек ции.</w>
интокси кации</w>
инсом нии</w>
импуль с
иммуногистохими ческого</w>
изуч ен
и ди
зи ю</w>
занима ет</w>
домо хозяй
до к</w>
до зах</w>
диста льной</w>
дея тельность</w>
демографи ческих</w>
д ные</w>
генети ческие</w>
га х</w>
г ро
высо кими</w>
воздействи ем</w>
ве й</w>
введ ении</w>
бремен и</w>
без рециди
ан аль
актива ция</w>
ав тор
абдоми нальной</w>
z e
vir tual</w>
ventric le</w>
v aro
under go</w>
ta thi
t i</w>
suff ered</w>
su g
stres s-
st aged</w>
sign aling</w>
si vely</w>
si o
servic es.</w>
s pheno
righ t-sided</w>
rhinosin usitis</w>
real- time</w>
re max
r pe</w>
psychos ocial</w>
pros the
produc t</w>
proble m.</w>
pro pose</w>
p v
p ump</w>
om atic</w>
neuro surgery</w>
ne ed
n ight</w>
moti vation</w>
micro vascular</w>
le g</w>
ke t</w>
is s</w>
ipi0.0 1</w>
individu als.</w>
inde x.</w>
glu tathi
g g</w>
fal se</w>
extrac ellular</w>
ene tic</w>
en se</w>
e osin
e bo
don ors</w>
di alysis</w>
de sign
d sa
consequ ence</w>
conf lic
classi fied</w>
cartil age</w>
car ry</w>
c anal
b- cell</w>
b ing</w>
b ab
aphy loco
anticoagul ants</w>
aneur ysm
analyz er</w>
amylo idosis</w>
adap ted</w>
6 5.
5 5
4, 5</w>
3. 9</w>
2, 3</w>
1 18</w>
экс кре
эзофа ге
шей ного</w>
чи вости</w>
ходи т</w>
фо ку
умень шает</w>
тру да</w>
та кими</w>
стра нах.</w>
стаби ло
способ а
со в
сно вид
снизи лся</w>
смер ти.</w>
системати ческий</w>
систем ных</w>
се л
рассчи т
ран ним</w>
работ у</w>
пя ть</w>
про б</w>
применя ться</w>
получ ено</w>
печа т
пере мен
патогенети ческих</w>
пас са
папил ло
отсут ствуют</w>
отлича ются</w>
осуще стви
орто дон
орби ты</w>
ор ви</w>
ологи и</w>
непосред ственные</w>
неотлож ной</w>
н ги
мыше чных</w>
мн ению</w>
микрофло ры</w>
ми д</w>
метри ческого</w>
менин ги
ли ны</w>
ле та</w>
лазер ная</w>
ла кта
крово то
кото рую</w>
кор ковых</w>
консерва тивной</w>
ин стил
измен ением</w>
и н</w>
знач ениями</w>
злокаче ственности</w>
заты ло
заняти й</w>
живот ных.</w>
дуоден альной</w>
досту пом</w>
доппле ро
дополн ение</w>
диагности ки.</w>
ди сло
де зада
глице ри
гип пока
гиган т
гемодинами чески</w>
ге ля</w>
га зо
выражен ного</w>
включ ением</w>
ва емых</w>
бе лок</w>
балан с</w>
антите лами</w>
актуаль ным</w>
а о</w>
wor se</w>
withdraw al</w>
v sky</w>
v .
threat ening</w>
theore tical</w>
tab lets</w>
sulf ate</w>
sub 3
su re.</w>
strep toco
stat us.</w>
star ted</w>
specific ally</w>
sensi ti
sar cop
rabb its</w>
r ms</w>
r it
provi ders</w>
pros theses</w>
post ural</w>
physio therapeutic</w>
over view</w>
organ iz
occupati onal</w>
ob acter</w>
o ther
nit ro
mor ning</w>
mem ber</w>
mat ous</w>
man dat
loc al
ke to
in tub
immuno suppres
hypo thyroidism</w>
hemis phere</w>
he mato
h ex
fi ber</w>
fgf- 23</w>
fail ed</w>
extrem ity</w>
epilep sy.</w>
embol ization</w>
em br
el low</w>
e. g.</w>
derm is</w>
de formation</w>
cul tural</w>
con sci
comp res
categ or
bc va</w>
ap o
ap ical</w>
antidepress ant</w>
an emia</w>
amin o</w>
al log
adju stment</w>
ab err
8 5.
5, 5</w>
3. 1</w>
201 1-
2. 6</w>
2 40</w>
1 27</w>
1 24</w>
я м
эндоваскуляр ного</w>
эксперименталь ные</w>
эксперимен та</w>
широ кий</w>
шизофрени ческого</w>
ши ри
цен ность</w>
це лле
хоро шие</w>
факто рам</w>
туберкуле з</w>
стимуля ция</w>
статисти ческой</w>
сохран ение</w>
скор ректи
систе мой</w>
се кто
ро кса
рива рокса
респон ден
регист ра</w>
регенера ции</w>
рег ре
раство р</w>
разме ром</w>
р с.</w>
пш ени
помо чь</w>
показате лей.</w>
позд нем</w>
позволя ющие</w>
под ъ
по- прежнему</w>
пе да
патологи ческой</w>
патологи ческие</w>
отверсти я</w>
органи зация</w>
определ ено</w>
обусловл ены</w>
направл ении</w>
нагру зо
наблюда ются</w>
мин зд
минзд рава</w>
мексидо ла</w>
марке ром</w>
м бе
логи стической</w>
ла ен
компле ксов</w>
ки ст</w>
ка х.</w>
ка ли
использова лся</w>
инди и</w>
ин вести
име лись</w>
зо ну</w>
значитель ная</w>
зажи вления</w>
зави сят</w>
доказа тельной</w>
действи и</w>
гло меру
гла за.</w>
вы ступа
вре мени.</w>
воспалитель ные</w>
вну три</w>
введ ением</w>
вас кули
в д
б аль
анома лий</w>
аналь ге
а го
w alls</w>
vess el
un known</w>
tri tic
to ward</w>
t g</w>
sy phil
sur ing</w>
spas tic</w>
sp l
sl igh
sho ul
se e
rn fl</w>
ri varo
research .</w>
rati os</w>
qu ite</w>
q p
pre pa
physio therapy</w>
par i
p0.0 2</w>
ori entation</w>
on d</w>
nod ular</w>
necro tic</w>
mm hg</w>
met allo
lun gs</w>
log ous</w>
ipi0,0 1</w>
interpre tation</w>
inf er
in tran
il l</w>
h l</w>
g old</w>
g l</w>
fl uc
f er</w>
ex cluded</w>
erythro cyte</w>
equival ent</w>
ent eral</w>
da -
coun t</w>
correspon ded</w>
consi sts</w>
consci ous</w>
compos ed</w>
complex ity</w>
comp ounds</w>
com mod
characteris tics.</w>
cc al</w>
burden ko</w>
bacter io
b c</w>
ang ina</w>
all ing</w>
ag ing.</w>
8 9.
7 5.
6. 6</w>
6 3
200 9-
10 .</w>
0. 5
0. 1</w>
0,00 0</w>
0 8</w>
эти л
эпи дер
цито токси
холеци ст
физиологи и</w>
устран ение</w>
успе х</w>
услу ги</w>
уровн ях</w>
то му</w>
ти пах</w>
тель ности.</w>
суще ственные</w>
ствен но-
стациона р</w>
сохраня ется</w>
сомати ческих</w>
со проти
служи т</w>
систоли ческого</w>
симптомати ка</w>
све товой</w>
с разу</w>
ровани е.</w>
рети нального</w>
ремисси я</w>
резистен тность</w>
рас позна
прогности ческой</w>
причи на</w>
приводи ть</w>
приводи ло</w>
поясни чного</w>
пол ная</w>
показате лях</w>
позволя ющих</w>
пла зии</w>
патологи ей.</w>
патогенети ческой</w>
оцени вать</w>
обусловл енной</w>
об стоя
ниж него</w>
не стероид
назнача ли</w>
морфологи ческое</w>
марке рами</w>
ма сса</w>
лег ки
креа ти
корре кцию</w>
корона вирусной</w>
ка д
исход ной</w>
исследовани е.</w>
интраоперацион ных</w>
интраоперацион ного</w>
индивиду альных</w>
измер ение</w>
зирован ы</w>
зв ена</w>
жало бы</w>
доро ж
дол ю</w>
диссе кции</w>
диспла зии</w>
диску сси
грануле мато
гра ж
го лен
глубо кой</w>
втэ о</w>
боле вых</w>
бе ссо
бе дра</w>
бе д
б п.</w>
антибиоти ко
актив ное</w>
акро мега
а ри
y s.</w>
viol ation</w>
transcri ption</w>
thres holds</w>
termin al</w>
ta ined</w>
surroun ding</w>
suic ide</w>
sugg esting</w>
some times</w>
som ato
show ing</w>
shor ter</w>
scri min
saph enous</w>
s f
regi stry</w>
radio therapy</w>
psychiat ry</w>
popl it
plac ebo
phosph olip
obliter ation</w>
o thers</w>
no se</w>
ne sis</w>
morb id</w>
mo u
mitochondri al</w>
micro flora</w>
micro bial</w>
mal formation</w>
m t</w>
li es</w>
inter est
integr al</w>
indi genous</w>
in effective</w>
high- risk</w>
har m</w>
gr ams</w>
go als</w>
gen om
g r</w>
frac ture</w>
forc ed</w>
fistul as</w>
facilit ate</w>
ever y
chromato graphy</w>
cent ur
ap ril</w>
algorith ms</w>
al k
aggreg ation</w>
addic tion</w>
ac e
a ids</w>
9 8,
9 7,
2, 7</w>
1 45</w>
1 34</w>
1 23</w>
ю жной</w>
эози но
э к</w>
част ых</w>
фу р
факто ров.</w>
увеличи ть</w>
три глицери
т- ассисти
стомато логии</w>
стиг мати
сс ен
спи нальной</w>
созда ть</w>
со цио
семь и</w>
своевремен ной</w>
регу лиру
реабилита ция</w>
ре пре
рассчи тывали</w>
развива ются</w>
проте ин
прони ца
прогрессиру ющим</w>
препара та.</w>
перегород ки</w>
педа го
оцени ли</w>
от нес
оста нов
об лучения</w>
об лег
носи телей</w>
но -</w>
не равен
морфологи ческим</w>
ма лых</w>
ма з
ляр ный</w>
ли за</w>
леч ению.</w>
корре к
конкре тного</w>
кон це</w>
кон суль
кон ду
комп лаен
ко сти.</w>
кисло рода</w>
капсу ло
испы ту
измен ениям</w>
за кон
з мом</w>
жизне деятельности</w>
дол л.</w>
дер мы</w>
граж дан
гено типи
генети ческой</w>
ган глио
втори чных</w>
внеш него</w>
взаимо действие</w>
вес ьма</w>
ва ми</w>
б ле
анти гипертензи
акуше р
а фа
verte bro
vari ation</w>
ur c
tra it</w>
tonsil litis</w>
tim ing</w>
til ity</w>
th o</w>
t es.</w>
squ amous</w>
sm ile</w>
sev ent
righ ts</w>
res ected</w>
refrac tory</w>
r ub
pro state</w>
pl ant</w>
phosph or
phle bo
ol .</w>
metallo protein
medul lary</w>
ma -
m y</w>
lig ation</w>
it s.</w>
ir ation</w>
intram us
indicat ors.</w>
imp lic
immunohisto chem
id s.</w>
glau com
g all
ex cision</w>
end ro
en suring</w>
du plex</w>
di scrimin
devi ation</w>
deta il</w>
deli ri
defin iti
de l
cyto logical</w>
cont acts</w>
class es</w>
cd 8</w>
cat ast
catast roph
c as
bre ast
appar ently</w>
antipsycho tics</w>
amin ergic</w>
alter ed</w>
ac commod
0. 7</w>
эпизо дов</w>
эпидемиологи и</w>
ыва ется</w>
шизофрени и.</w>
ш и</w>
части чно</w>
хрони ческом</w>
фун да
фле бо
фа го
уров не.</w>
улуч ш
уг не
уби й
трудо способности</w>
тор ная</w>
то ром</w>
ти а
стен та</w>
стар шей</w>
сро ке</w>
социаль ные</w>
соб ственного</w>
ске лет
сетча тки.</w>
с ци
реа мбе
ре альной</w>
профилакти ческой</w>
продемонстри ровали</w>
присту пы</w>
применя емых</w>
превы шает</w>
пос редо
поль зу</w>
получа вшие</w>
положитель ного</w>
полиморфиз м</w>
поко ления</w>
подтвержда ет</w>
повре жда
пласти ческих</w>
пере смо
пара тирео
п ной</w>
отра вления</w>
отмеч ено.</w>
отде льно</w>
от тока</w>
от ста
остео артро
операцион ного</w>
носо вого</w>
ниж нечелюст
неде ль</w>
наль ное</w>
назнач ении</w>
младен цев</w>
медицинс кая</w>
медикаменто зного</w>
м л.</w>
люде й.</w>
лю ди</w>
логи я</w>
ло сти</w>
лин зы</w>
ли о
куль туры</w>
крово течение</w>
контро лю</w>
клинико- психопатологи
класси ческой</w>
ка ло
исследова телей</w>
зубо в.</w>
значитель ному</w>
жда н</w>
един ственным</w>
достовер ным</w>
дли на</w>
диапа зон</w>
диагности рованы</w>
де компенси
двух этап
гра ждан</w>
гной но-
глута ма
гипертензи я</w>
ги пере
ги и</w>
выполня ть</w>
влия ющие</w>
варико зной</w>
боль ного.</w>
б ры
антидепрессан тов</w>
а пре
w as
uve itis</w>
tri glycer
sustain able</w>
sup pl
sup 3
structu res.</w>
sph inc
sp p.</w>
sp ecti
sligh tly</w>
si veness</w>
resi d
research es</w>
represent atives</w>
reg res
rec ipi
procedu re.</w>
pro ve</w>
polyp s</w>
pi lot</w>
pathogene tically</w>
pas sive</w>
opportun ity</w>
nove m
n ig
modi fying</w>
mandi ble</w>
mandat ory</w>
low- intensity</w>
leuk ocyte</w>
k en
is ing</w>
investig ated.</w>
in tim
imp ed
ig a</w>
ic ular</w>
h f</w>
gre en</w>
grad ually</w>
go og
gene sis.</w>
frequ encies</w>
fluc tu
f etal</w>
f 20.
ex cell
ethy l
displac ement</w>
descri p
conjuncti val</w>
ch c</w>
cg i</w>
asc ending</w>
ap nea</w>
ap ha
al a</w>
ad o
achie vement</w>
abs ent.</w>
6 4
2. 8</w>
2 2-
15 3</w>
0, 8</w>
яз вы</w>
ы вали</w>
шко льного</w>
ш ка</w>
част ым</w>
целе вого</w>
хими ческих</w>
хг с</w>
фено мен</w>
фе вра
т н</w>
структур но-
структу ри
спи л
спил бер
сочет анием</w>
сохран ением</w>
сопостави мые</w>
со мно
сле зного</w>
ру ющая</w>
род ы</w>
робо т-ассисти
репре зента
регрессион ного</w>
раз дра
природ ы</w>
последу ющего</w>
подоб ные</w>
поддерж ания</w>
персона ла</w>
пазу хи</w>
па сты</w>
п яти
оча ги</w>
оцен ена</w>
отрица тельная</w>
оториноларин голо
оптималь ных</w>
опро с</w>
ологи ческих</w>
оболоч ке</w>
о характеризо
о посредо
неодно род
недостаточ ности.</w>
не у
назна чен</w>
мута ция</w>
мульти дисциплинар
мк л</w>
мини стра
ми ль
мест ные</w>
мела тони
медицинс ким</w>
м х</w>
ла г</w>
кровоизлияни я</w>
кровен ос
комплекс е</w>
ко ва</w>
ключе вым</w>
клет ками</w>
ки сти</w>
истори я</w>
исклю чительно</w>
ин га
здоро вых.</w>
зарегистри рованных</w>
заключа ется</w>
дес не
дей ству
де р</w>
да ть</w>
да крио
го м</w>
глаз ни
гипертони и</w>
геморраги ческих</w>
г на
г ени
включа л</w>
ви ть</w>
в б
бурден ко</w>
бу ль
бо в</w>
бло ка</w>
би фур
аутоимму нных</w>
алле лей</w>
ак комо
ад министра
z ik
y cin</w>
w i
vi tis</w>
ver bal</w>
valu es.</w>
u ment</w>
tum or.</w>
ts h</w>
tri ple</w>
tom ies</w>
testo sterone</w>
te am</w>
t t</w>
sub total</w>
stake hol
sp -
six ty-
seiz ure</w>
se as
schizophren ic</w>
sch ed
ro o
recor ding</w>
re am
ream ber
re activity</w>
radi al</w>
psycho sis</w>
proj ection</w>
princip le</w>
prevail ed</w>
pneumon i
plast y.</w>
pl ication</w>
parano id</w>
p sies</w>
p ent
olig od
oligod endro
novem ber</w>
non- specific</w>
no so
moti v
mening itis</w>
me an
m n
m er</w>
m ad
log ies.</w>
li f</w>
l enses</w>
l ated</w>
j .</w>
ir reversible</w>
ing u
im age</w>
ifn -</w>
homeo stasis</w>
herp es</w>
four th</w>
f ox
exud ative</w>
esophag o
er a</w>
eosin ophil
en ge</w>
el ig
ec table</w>
discus sion</w>
det ected.</w>
cran i
cr uc
contro ver
contra indications</w>
co effici
clu sters</w>
citiz ens</w>
chall enge</w>
cent res</w>
cad aver
bloc k</w>
bet a</w>
be d
bat ter
az ep
attri but
at r
anastomo ses</w>
a x</w>
9 6,
9 5.
8 0-
2 a</w>
12, 5</w>
1 200</w>
0, 7</w>
0, 5
0 7</w>
яви лась</w>
я дра</w>
эффектив ное</w>
штам мов</w>
церебра льного</w>
це ле</w>
хи но
х е</w>
фунда мен
участ ков</w>
устрой ства</w>
уда ленных</w>
убе ди
тер а</w>
теори и</w>
т ения</w>
сфин к
сут ки.</w>
стеро идов</w>
ста нов
средо ст
сред ствами</w>
спектро фото
слу жа
ско му</w>
се ми</w>
сарко п
ру ти
результа тов.</w>
рез ю
раство ри
прое кции</w>
про водя
привер женности</w>
преимуще ство</w>
предше ству
предикто ром</w>
постоя нного</w>
пол ным</w>
показ ывает</w>
подкож ной</w>
пепти дов</w>
п со
п -
от ен
описа ть</w>
опи о
огранич ений</w>
обструктив ной</w>
обработ ка</w>
не кти
направл ение</w>
на но
н д
мр -
мено в</w>
ме т
маль форма
ма лы
м т
м ное</w>
лор- органов</w>
ло в.</w>
личност ных</w>
лиза цию</w>
ли ровать</w>
коронар ной</w>
компьютер ную</w>
количе ственные</w>
количе ственной</w>
ко с
ко вые</w>
исче з
исхо дом</w>
искус ственной</w>
интерсти циаль
интегра ции</w>
инструмен та</w>
иммуно логических</w>
и и.</w>
закономер ности</w>
за пу
з но-
емо стью</w>
дру г</w>
депресси вного</w>
демографи ческие</w>
гастро эзофаге
восприяти я</w>
возникнов ение</w>
возду ш
включа ют</w>
верси я</w>
буль бар
буду т</w>
бре до
безопас ной</w>
бедрен но-
ап ноэ</w>
анализа тора</w>
y st
viol ence</w>
val idity</w>
som no
sil ar</w>
shoul der</w>
s or</w>
rivaro xaban</w>
refl ected</w>
re combin
professi on
plac ement</w>
pla qu
p ter
p ris
p m
nucle us</w>
no vo</w>
n ic
musculo skeletal</w>
muco sal</w>
ment ary</w>
mag nit
m ri
lu men</w>
lim iting</w>
lik eli
intub ation</w>
id ing</w>
id ine</w>
hyper trophy</w>
h ap
ga ve</w>
fin ding</w>
exc ess</w>
ev ent</w>
en ables</w>
electr onic</w>
el ement</w>
ear .</w>
di aph
cre ati
confir ms</w>
col onic</w>
br anc
branc h</w>
ble ed
benef it</w>
b rom
b md</w>
b 1</w>
autis m</w>
attribut able</w>
athle tes</w>
anam nesis</w>
aesthe tic</w>
ab ec
a qp
9 7.
8 7.
7 5
6 9.
3 5-
2, 8</w>
19 -
0. 6</w>
ю ж
эндокри н
ш вов</w>
челюст ей</w>
ци кли
цело ст
х н
фрак ции</w>
феде ра
фармако логических</w>
фа рин
уче та</w>
уст ья</w>
тяжело е</w>
точ ности</w>
тон ко
тим пано
тео рети
тенден цию</w>
та ковой</w>
субъектив ной</w>
стои мости</w>
стер но
сосудист ыми</w>
сон ли
со ли</w>
рован ности</w>
рефрак тер
рекоменда циям</w>
резе кцию</w>
ред кой</w>
регистри ровали</w>
ре кси
раз о
рабо то
психиатри и</w>
протоко л</w>
происходи ло</w>
применя ть</w>
при емом</w>
поряд ке</w>
получи вших</w>
повыш енный</w>
повыш енная</w>
пла стин
перифери ческого</w>
пепти да</w>
п н
п е</w>
ошибо к</w>
охран ы</w>
отсут ствовали</w>
отме тили</w>
откры тых</w>
осла б
окси гена
об ли
наруш ению</w>
нараст ание</w>
мужчин .</w>
мощ ности</w>
мит ти
мини мальной</w>
медицин ском</w>
медицин ское</w>
медици не</w>
лечеб ного</w>
концентра цией</w>
контро ле</w>
ки сты</w>
кан аль
к ты</w>
инъе к
инте гри
ин нова
иммуни те
име ющиеся</w>
измен ению</w>
и т
и к</w>
е тся.</w>
дрени рование</w>
досту па.</w>
дефек ты</w>
дека брь</w>
го -
гено тип</w>
гене з</w>
выра жены</w>
выпис ки</w>
включ енных</w>
вклю чен</w>
величи на</w>
вед ение</w>
вариан том</w>
артри том</w>
а р</w>
zik a</w>
whe at</w>
vit ro
vascul itis</w>
ultra structural</w>
tymp ano
th ail
t c
syphil is</w>
syn chron
sud den</w>
smal ler</w>
situ ations</w>
s av
rs 10
ri bo
progno sis.</w>
pre c
post traumatic</w>
posi tioning</w>
po st</w>
per me
parti ally</w>
osteopo rosis</w>
os ity</w>
op ic</w>
ol d.</w>
obta ining</w>
ob ese</w>
o pl
no de</w>
n 3</w>
mato sis</w>
magnit ude</w>
ly -
klo tho</w>
jap an</w>
invol ves</w>
insti ll
influ encing</w>
in ve
in formed</w>
ic s.</w>
hypox ic</w>
hydro cephal
herni as</w>
ful ness</w>
form er</w>
fle xi
fibr ino
femto second</w>
est ro
ec tors</w>
dystroph ic</w>
dsa ek</w>
develop ed.</w>
d ar
cost- effectiveness</w>
col d</w>
ca va</w>
bre eding</w>
br az
br ac
bif urc
ba silar</w>
b t</w>
b ss</w>
at er
arrhyth mi
ar rang
alph a-
ac to
6 8
3- 4</w>
3 3,3</w>
2. 9</w>
0, 4
эндоваскуляр ных</w>
эндоваскуляр ной</w>
электро мио
эла сто
эктоми ей</w>
экономи ческой</w>
э с</w>
э п</w>
ще м</w>
ше сти</w>
ш у</w>
чис лу</w>
частот ной</w>
цс ж</w>
цир куля
точ ных</w>
толщи ной</w>
тин ген
тар ных</w>
су кци
сти ческий</w>
стено к</w>
стандар том</w>
спилбер ге
согла си
сме ш
синдро мом.</w>
си муль
с хо
рова ться</w>
реконструктив ных</w>
ради кального</w>
пу те
прошед ших</w>
про воспалительных</w>
преимуще ств</w>
предикто рами</w>
постоя нной</w>
последстви ями</w>
подтвержд ено</w>
пла н</w>
пациен том</w>
п у</w>
п леч
офталь моло
отве ча
от ы</w>
орга нов.</w>
обши р
образо ванием</w>
об щую</w>
о в</w>
необходи мых</w>
не извест
наи большей</w>
на циональной</w>
н ка</w>
мог ли</w>
много м</w>
метаболи тов</w>
ма -
любо й</w>
легки х.</w>
лапароскопи ческих</w>
крово ток</w>
кор е</w>
кон тинген
комбина ция</w>
исследовани ю</w>
индивиду ального</w>
жало бами</w>
ж ность</w>
е -
достига ет</w>
дис кри
дила та
ден дро
государ ственного</w>
город ской</w>
голов ки</w>
глута ти
гено ма</w>
гено м</w>
высо ком</w>
воло к
во льно</w>
в спо
брахио цефальных</w>
би но
бен зо
б рази
ассоции рован</w>
анги отен
анатоми ческие</w>
авто моби
yram idal</w>
wors ening</w>
wor ds</w>
well- being</w>
vul ner
under sto
ud es</w>
tu ally</w>
transp ort</w>
ta .</w>
t 1</w>
susc epti
st an</w>
spectro photo
scop us</w>
samp ling</w>
ro ugh</w>
rest ored</w>
remax ol</w>
r ation
pregn anc
par alle
paralle l</w>
over weight</w>
on going</w>
ocy tosis</w>
nucle otide</w>
no o
naf ld</w>
n in
n ano
loco motor</w>
lo op</w>
lip ide
lin ks</w>
likeli hood</w>
las er-
laparo scopy</w>
lac t
ker s.</w>
it er</w>
inten si
ingu inal</w>
imple ment</w>
ifor m</w>
ic obacter</w>
goog le</w>
go iter</w>
financ ing</w>
f ab
exam ining</w>
ex pedi
ep tic</w>
en able</w>
employ ment</w>
em a</w>
elis a</w>
dise ase-
dam age.</w>
contribu ting</w>
contrast- enhanced</w>
contr al
contral ateral</w>
con clude</w>
comple tion</w>
cl aud
ber g</w>
b h</w>
auto logous</w>
ati ve-
ar vi</w>
aqu eous</w>
am ino
afric an</w>
accoun ted</w>
a ment</w>
a ine</w>
a 1</w>
1 28</w>
- 6</w>
эффектив ный</w>
эти ми</w>
э ради
э нерги
чис лом</w>
фа с
ф тор
уровн ями</w>
употреб ля
умерен но</w>
угро жа
у совершенство
тяжелы е</w>
тру б
трех мер
тревож ных</w>
тип е</w>
терапевти ческий</w>
темпера тур
стади и.</w>
спасти чности</w>
сосу дов.</w>
регрес са</w>
реанима ции</w>
расстрой ствами.</w>
рас положения</w>
ра с</w>
р 0.0
пу ть</w>
психи ческие</w>
процес сах</w>
прие ме</w>
предлага ется</w>
потре би
положитель ную</w>
пози ций</w>
поврежд ением</w>
плани ровании</w>
перви чном</w>
оче вид
от сле
осуществля лась</w>
опро са</w>
опласти ки</w>
объектив ных</w>
об луч
о се
ны е.</w>
нормаль ных</w>
нормаль ного</w>
но- транспорт
нару жной</w>
нара ста
нако пл
н .
му зы
микроциркуля торного</w>
ми нации</w>
метри ческой</w>
ма сс-
м р</w>
м ным</w>
м мольл</w>
личност ной</w>
лет них</w>
лейко цитов</w>
кровообра щения.</w>
кортекси н</w>
кол у</w>
ко вом</w>
клеточ ный</w>
квали фици
к ви
инструмен тов</w>
зарубе жной</w>
завер шения</w>
жен а</w>
жд ы</w>
ж ден</w>
е лини
доно ров</w>
длитель но</w>
динами ческой</w>
депресси и.</w>
деми елини
д я
д цп</w>
д ном</w>
д ни</w>
д н</w>
голен и</w>
ген ный</w>
г кс</w>
выявля лись</w>
выс каз
выбор у</w>
вы жи
вра чи</w>
вос производи
вл ения.</w>
вл ению</w>
в у</w>
быстро е</w>
ближай шем</w>
б та</w>
актив ности.</w>
адено мы</w>
авто р</w>
а та
vi sit
ul ative</w>
twent y</w>
tac tic</w>
sub3 sub</w>
sub cortical</w>
structu red</w>
stero id</w>
st ents</w>
side -effects</w>
sc ann
san itation</w>
s v
recombin ant</w>
questionnai re.</w>
psycho genic</w>
pre vent
po i
physici an</w>
person nel</w>
per id
pe tro
ou ter</w>
o se</w>
nucle i</w>
neuro genic</w>
nephro pathy</w>
me tal</w>
magne to
li ves</w>
li ber
le i
ker atitis</w>
ju ven
j e
intellig ence</w>
in patients</w>
in hal
in complete</w>
ii i-iv</w>
id ance</w>
hist ories</w>
her 2</w>
h sp
gu es</w>
glutam ate</w>
gl io
gang li
flu or
fe ver</w>
f f</w>
f ec
f 2</w>
exten sion</w>
excell ent</w>
enzy matic</w>
en s.</w>
elimin ate</w>
e ast
dynam ically</w>
discharg ed</w>
denti tion</w>
de myel
conn ected</w>
compu ter
comp ul
comorbidi ties</w>
ch e
ca d</w>
b ic
ati n
anti epileptic</w>
amoun ts</w>
ad hd</w>
a ur
a sis</w>
9 8.
6. 9</w>
10 9
1 14</w>
- t
яи чни
эти о
эндо генных</w>
чувстви тельностью</w>
част ью</w>
цир ку
цереброваскуляр ной</w>
хоро шей</w>
хирурги я</w>
фи ло
фено мена</w>
факоэмульси фикации</w>
фа зе</w>
универси тета</w>
тро м
то сти</w>
тель но-
схе ма</w>
суще ственных</w>
сторо не</w>
стекло видного</w>
статисти ческих</w>
стади ями</w>
спорт с
специфи ческой</w>
сп рава</w>
соблюд ения</w>
сенсо рной</w>
с р</w>
реш ении</w>
рефрак ции</w>
резю ме</w>
рассмотрен а</w>
рандомизирован ы</w>
раль ным</w>
различи е</w>
различа лись</w>
равно ве
противо полож
продолжитель ностью</w>
продемонстри ровал</w>
приходи тся</w>
представл ений</w>
предме т</w>
пред положение</w>
право сторон
пра вля
посту пления</w>
пора жа
п в</w>
отмеча лся</w>
отличи я</w>
оти та</w>
основ ное</w>
олиго дендро
окклю зией</w>
ок с</w>
объе ктов</w>
норма лизо
находя тся</w>
нако пления</w>
наиболь ший</w>
мо ро
миниму м</w>
микро ангио
мето дах</w>
металло протеина
ме стах</w>
ма лого</w>
ле вых</w>
кти ви
кры с.</w>
контек сте</w>
колле ктив
коди рующих</w>
ко му</w>
клини ку</w>
ки на
каче ством</w>
каса ющихся</w>
ин ту
импланта ция</w>
за пре
ж кб</w>
ени е.
дорож но-транспорт
дифференци ровки</w>
диспан сер
действи я.</w>
гла зу</w>
гидро цефа
ге м
га ран
врожд енного</w>
возник ли</w>
вне за
вмешатель ствах</w>
вич- инфекции</w>
васкуляр ной</w>
бе та-
афри ки</w>
ар ных</w>
анти- vegf-
анти тромбо
ангио графия</w>
аль фа
адге зии</w>
а кри
а а</w>
y le</w>
x an</w>
vari ables</w>
v acu
v able</w>
us -
th in</w>
syn the
st age.</w>
sp p</w>
smo kers</w>
secre tory</w>
s r</w>
rs 2
reason able</w>
reamber in</w>
r ar
pul p</w>
po d</w>
pal sy</w>
organ s.</w>
ophthalmo s</w>
op ening</w>
no ise</w>
neuro endocrine</w>
neuro -
mod alities</w>
mo us</w>
mo ro
macroph ages</w>
m enting</w>
lymph ocyte</w>
low ering</w>
lat est</w>
l and</w>
k ey
it ar
intrac erebral</w>
intrac ellular</w>
intell ec
in clu
if n</w>
ic .</w>
i -1</w>
hy al
hiv- infected</w>
he mi
h ab
gene tically</w>
g p
fos sa</w>
febr uary</w>
fea sible</w>
fast er</w>
f et
exce ed</w>
examp les</w>
ethn ic</w>
ent ally</w>
en du
e jection</w>
dys ph
dop aminergic</w>
diver tic
diaph rag
cy ste
continu e</w>
col um
col on
clo sely</w>
clim atic</w>
classi c</w>
circum st
chol in
cham ber</w>
caref ul</w>
cap it
ca using</w>
bu re
bu lo
bac ill
at ous</w>
assess ments</w>
ar ly</w>
anti body</w>
analge sic</w>
an ol</w>
amput ation</w>
americ an</w>
4 7
20 20.</w>
1, 73</w>
1 33</w>
юно ше
эмбо лии</w>
электро нейро
ы л
ч ному</w>
ч лено
ц в
хро но
хг п</w>
фрон тальной</w>
фика цию</w>
умень шении</w>
указан ные</w>
тра кто
та кая</w>
суще ствуют</w>
структу рах</w>
стационар ного</w>
способ ству
спин е</w>
специаль ных</w>
современ ным</w>
совмест но</w>
соблюд ение</w>
со но
ск к</w>
сим метри
сен тя
са ми
с кую</w>
рей тин
ред ким</w>
ревмато ид
раст у
р о</w>
прото колу</w>
проводи мых</w>
принци пи
прибли зи
препара тах</w>
предполага ет</w>
поло сть</w>
поле з
по те
перфо рации</w>
перед них</w>
пе тен
патологи ческий</w>
п др</w>
п ане
отме тить</w>
оптими зация</w>
опреде лен</w>
он лай
обосно вать</w>
обнару жен</w>
ня ет</w>
нер ва.</w>
мр нк</w>
меду л
медици ны.</w>
ме зо
матри кса</w>
ля ций</w>
л к</w>
кост но-
коронар ным</w>
контролиру емое</w>
кон ди
комплекс ных</w>
ком петен
клеточ ные</w>
инфек ционного</w>
инфар кт</w>
ино род
инде ксов</w>
ил лю
зирован ные</w>
жи ву
ж ей</w>
ежеднев но</w>
диаме тром</w>
диа зе
ди за
дезада п
де ву
глад ко
гиги ени
га миль
г к</w>
вши м</w>
врача ми</w>
вос ст
вз ве
вет вей</w>
вероят ностью</w>
вед ений</w>
бла сто
анали ти
адено м</w>
ад ди
а п</w>
x y
vi sed</w>
ul monary</w>
treat ments</w>
trans mit
trac tion</w>
tra in
to day</w>
tn f</w>
tic -
t es
syn ap
st aphyloco
st ab
sp ar
sever ity.</w>
s v</w>
r d
r am
qu ad
psycho emotional</w>
pneumoni ae</w>
penetr ating</w>
ox i
op ioid</w>
nsa id</w>
nas opharyn
nar ro
nar co
n 6</w>
myo graphy</w>
molec ular-
microscop e</w>
mes enteric</w>
me th
ma kers</w>
log ist
leu kin
jus t</w>
in c</w>
in ating</w>
il lar
ii .</w>
hyper glycemia</w>
hor iz
hel icobacter</w>
har d
gro ss</w>
g m</w>
g aps</w>
fill ed</w>
fif ty-
fe el
eth ical</w>
enro l
deci sion-
cyto toxic</w>
cour se.</w>
controver si
con cre
cn f</w>
c m.</w>
append ic
ap ar
alph a</w>
activ ated</w>
ab use</w>
4 5-
3 2
201 4-
201 2-
12. 5</w>
1 32</w>
- 2
явля лась</w>
юще му</w>
эпиле пто
члено в</w>
чере па.</w>
хря ще
хо лан
фо ве
ф ени
уточ нения</w>
усло вно</w>
удовлетворен ности</w>
то ща
те мен
тар ге
та за</w>
т- граф
ство .</w>
стати на</w>
стандарт ным</w>
сс д</w>
смер ть</w>
скопи я</w>
си но
сво и</w>
с ходя
с м.</w>
родствен ников</w>
ретино патии</w>
реаги рования</w>
ра ба
р 0.00
проходи мости</w>
профилакти ку</w>
произвед ено</w>
провед ением</w>
про оперированы</w>
про мыш
про да
принадле жности</w>
при ку
предста тельной</w>
предложен а</w>
преди кторы</w>
показани ям</w>
подтвер жден</w>
под ключи
под гото
пере кис
педиа три
пе дан
п т
оцен ок</w>
особенност ям</w>
осве дом
осведом лен
организа цией</w>
опреде лили</w>
объектив но</w>
обра тив
облитера ции</w>
о страя</w>
о но</w>
недав но</w>
надпочечни ков</w>
на против</w>
на бо
морфологи и</w>
миокар да.</w>
м ными</w>
ляр ным</w>
лю ми
ликви дации</w>
лиза цией</w>
ли цами</w>
ла ку
корреля ционная</w>
ко вая</w>
кафе др
й ной</w>
источни ком</w>
ин фра
им педан
избы точ
здоров ью</w>
зан я
жи вать</w>
желе за</w>
еди ного</w>
доступ ных</w>
ди верти
гломеру ло
г э
вы является</w>
вы рос
вы бра
восст анавли
воздействи и</w>
воз рос
вз я
вен три
ван ное</w>
больни ц</w>
артери альных</w>
аппенди ци
анома лии</w>
ана томо
ампу тации</w>
адге зи
vessel s.</w>
vern ous</w>
valid ated</w>
underst and</w>
ulo pathy</w>
tr abec
tend ing</w>
te lo
t ors.</w>
subj ects.</w>
sub divided</w>
su stained</w>
ster no
stakehol ders</w>
scal es.</w>
s light</w>
s ag
resour ce</w>
recurr ences</w>
rec ru
poplit eal</w>
ph rine</w>
pass eng
p m</w>
p ia</w>
outbre ak</w>
otorhinolaryngo logy</w>
oper ation.</w>
ol i
l ined</w>
l ification</w>
l an
jun e</w>
in emia</w>
hum ans</w>
h er</w>
gun shot</w>
glutathi one</w>
g ain</w>
experi ences</w>
exp anded</w>
establish ing</w>
erro r</w>
epide mic</w>
epi der
endu red</w>
emergen ce</w>
electro magnetic</w>
electro encephalo
docum ents</w>
do m</w>
dis location</w>
difficul ty</w>
det ecting</w>
deliri um</w>
de pos
de m
de hydro
d al
cy cl
creati nine</w>
correspon d
corp se</w>
continu es</w>
con tain</w>
cl early</w>
chol ine</w>
bur n</w>
brain .</w>
bor ne</w>
bod y.</w>
betwe en-
batter y</w>
auto venous</w>
ato sis</w>
as one</w>
as d</w>
6. 0</w>
23 ly
19 90</w>
1 36</w>
0. 2</w>
0, 3
- h
- -
язы ка</w>
яз ви
ци сте
це ро
ф т</w>
у язви
у стра
трахео сто
транс форма
тради ционных</w>
тра бе
твер дых</w>
стеро идных</w>
стати ческой</w>
стандарт ные</w>
сравн ения.</w>
созда ет</w>
со р</w>
слож ность</w>
ск лон
синте з</w>
симптомати ческой</w>
се бе</w>
с мы
с кан
ру ющими</w>
ру ющее</w>
рече вого</w>
ре ком
реком бин
рекомбин ан
разработан ная</w>
р мж</w>
профилакти ческого</w>
протеин у
прокси маль
провед енные</w>
примен ен</w>
предложен ной</w>
поло сти.</w>
повтор ное</w>
пневмони и</w>
пла но
пи щи</w>
пери н
панкреати та</w>
осложн енным</w>
ограни чение</w>
обо знач
о о
о не
науч ные</w>
настоя щий</w>
наль ными</w>
н вр</w>
мужчи на</w>
мо торного</w>
много уровне
метри ческим</w>
метаболи ческим</w>
мезен хи
максималь ная</w>
лей о
кс .</w>
крат кий</w>
кон ф
квали фикации</w>
кар т</w>
канди да
ка ска
й од
инту ба
интер вен
ида льного</w>
занима ют</w>
заболевани ям</w>
жел ту
е чной</w>
до м.</w>
дис ка</w>
диагности ческий</w>
д ным</w>
графи ческого</w>
ги не
выра жа
вши ми</w>
вра чеб
види мому</w>
вед ению</w>
васкуляри зации</w>
бе лого</w>
ассоции рованы</w>
ассоциа ций</w>
анти ретро
анатомо -
а ции</w>
weigh ted</w>
vi sco
ven .</w>
var ies</w>
to t
tn f-
tit an
t 1
sy ring
su turing</w>
strom a</w>
ste ad
ser ved</w>
sequ ential</w>
sequ ence</w>
sept ember</w>
reser ve</w>
rat e.</w>
r um
process es.</w>
procedu res.</w>
poly neuropathy</w>
per specti
p0.0 4</w>
out patients</w>
oc el
obst et
obstet ric</w>
no v
n se</w>
mod es</w>
middle- aged</w>
mas tic
manifest ations.</w>
log -
loc ally</w>
lo ading</w>
it tal</w>
inter leukin
intellec tual</w>
inhibit ory</w>
in equ
in ed.</w>
h i</w>
h ere</w>
gen der
g an
fr u
fr acti
fail ure.</w>
exce eded</w>
ex ec
ex clude</w>
estim ated.</w>
eng ine
en ough</w>
en de
em ission</w>
dystroph y</w>
dis co
diff usion</w>
dic ated</w>
dent ures</w>
defic its</w>
dec ade</w>
de dicated</w>
day time</w>
dam aged</w>
cyp2 c
con sti
coeffici ents</w>
co litis</w>
cl i
cic atric
character izing</w>
catastroph ic</w>
ca vity.</w>
c iliary</w>
c ase-
belong ing</w>
bcl -2</w>
au c</w>
accompan ying</w>
7- е</w>
7 5-
6, 5</w>
6, 1</w>
5- ht
4, 2</w>
3 3.3</w>
201 5-
200 6-
17 4</w>
15 2</w>
0, 4</w>
эпители о
эпилепси ей.</w>
эпидемиологи ческих</w>
экономи чески</w>
э со</w>
шун тов</w>
част ую</w>
ч кв</w>
цито плаз
цирку лиру
хо ли
функциональ ная</w>
фермен та</w>
фгб у</w>
фа кт</w>
участво вали</w>
увеличи лось</w>
то чек</w>
то ров.</w>
ти по
технологи я</w>
теле й.</w>
те тра
табле тки</w>
сформи рованы</w>
стен ке</w>
стви я</w>
статисти ки</w>
специфи ческие</w>
сопостави мых</w>
сокра щению</w>
соеди нений</w>
со ве
следу ющих</w>
се ан
сви ща
самостоя тельно</w>
ря дом</w>
ру емой</w>
ров ка</w>
рег ан
ре ва</w>
ре бер
расстрой ствах</w>
пу ск
психопатологи ческой</w>
психо пати
проходи мость</w>
протоко лов</w>
произ ве
прогресси ровании</w>
прогно зи
пред приня
пр с</w>
поте рей</w>
постепен но</w>
послед него</w>
посвящ енной</w>
подверг шихся</w>
по этап
по ри
по прав
плацебо -
пер вая</w>
пад ения</w>
оценива лось</w>
отраж ены</w>
относи тельной</w>
откры тым</w>
откры того</w>
от лич
остро е</w>
окси да
о ди
норма лизация</w>
нологи и</w>
низ кую</w>
ни х.</w>
нежела тельные</w>
не равномер
не дел
недел ю</w>
нако пление</w>
на тоща
н ктив
морфологи ческими</w>
монитори рование</w>
ми ш
меж дисциплинар
кры сы</w>
конъю нктив
компонен ты</w>
кла стер
кла па
исход ных</w>
интерпре тации</w>
име ло</w>
заключ ение.
ж ур
досту пов</w>
до лей</w>
днев ного</w>
динами кой</w>
диагности ческая</w>
д ность</w>
д м</w>
гры жи</w>
госпи тальной</w>
голов ном</w>
гли обла
гисто логические</w>
выбро са</w>
висо чно-
вариан тах</w>
в к
бю дже
алкого ли
аз ота</w>
z -
y .
world wide</w>
wor k.</w>
ve ment.</w>
u hc</w>
typ es.</w>
t gf
succ inate</w>
sub clavi
strength ening</w>
solu tions</w>
sec urity</w>
s np</w>
rh ino
repar ative</w>
reduc tions</w>
psycho- emotional</w>
prof ess
produc ing</w>
prescri bing</w>
pre -</w>
pr er
prer equ
prerequ is
p et
out side</w>
o metric</w>
neuro logists</w>
n al
n 25</w>
n .
mit ral</w>
mg l</w>
mes enchy
meas les</w>
manif est</w>
m d
m am
las ting</w>
inj ected</w>
initi ated</w>
in t</w>
i q
high light</w>
hemo static</w>
ha z
grad ual</w>
geo graphical</w>
fre e
form ation.</w>
forc ement</w>
first- line</w>
fer on</w>
f -1</w>
ev ent
epig enetic</w>
ensu red</w>
en- din
empha sized</w>
ed -
e q-
dys functions</w>
duc ts</w>
dol lars</w>
do w
der iv
depend ed</w>
cruc ial</w>
clim ate</w>
cereb ellar</w>
carri age</w>
cardiomyo pathy</w>
cardi omy
ca vernous</w>
bloc kers</w>
be am</w>
az ole</w>
arrhythmi as</w>
approach es.</w>
analge sia</w>
an a</w>
am ination</w>
al located</w>
ad ic
accid ent</w>
a ya</w>
6. 8</w>
5 1,
3 1-
3 -</w>
2. 0</w>
2 10</w>
19 0</w>
15 8</w>
0. 8</w>
язы чной</w>
эндотели о
экспресси ей</w>
части чной</w>
ча сов</w>
циони рования</w>
целе вых</w>
х уд
устойчиво стью</w>
устойчи вых</w>
ускорен ного</w>
у тро
у ступа
у м</w>
тру па</w>
тромбоэмболи ческих</w>
традицион ными</w>
традицион ным</w>
трав ме</w>
тор ный</w>
токси на</w>
ткан ей.</w>
та х.</w>
та з
суще ственного</w>
стал ки
состояни ю</w>
соб ран
следо в</w>
си ль
сд вг</w>
связ ыва
с не</w>
с верх
ря дов</w>
рэн кина</w>
руб .</w>
ру сс
рп э</w>
ро то
репродуктив ной</w>
репродуктив ного</w>
реду кции</w>
ред ких</w>
ре ше
раство ром</w>
раст ру
распростран я
рани б
раниб изу
раздел енных</w>
раз раба
процес сами</w>
проходи ли</w>
проходи вших</w>
просве та</w>
произо шло</w>
прогрес с</w>
проанали зировали</w>
причин но-
при год
представл енные</w>
предотвра тить</w>
предоста вления</w>
пра в</w>
потенциаль ных</w>
помо га
полу чение</w>
подтвер ждения</w>
поверх ность</w>
по- видимому</w>
пла т
пигмен тного</w>
пере сад
пере крест
пасса жи
пан кре
па лли
отве тов</w>
определя ть</w>
определен ной</w>
окислитель ного</w>
обо га
но о
низ кими</w>
не ба</w>
нача льных</w>
насту пи
наблюд ений.</w>
метод ы.
мас са
ло ги</w>
липопротеи дов</w>
кровенос ных</w>
креати нина</w>
коморби дной</w>
кли пи
исход я</w>
инф растру
интерв ью</w>
инвази вного</w>
инва зии</w>
ин жене
име л</w>
изуча емых</w>
извест ных</w>
зуб ча
зависи мой</w>
емо в</w>
еди ной</w>
други м</w>
дп к</w>
дофа ми
дифференци рованного</w>
ди ссо
дела ет</w>
де гидро
группо й.</w>
глио м</w>
ги т
высоко е</w>
выдел енных</w>
вы работ
воспалитель ными</w>
вл ена</w>
венти ляции</w>
ве дет</w>
бе та
ба х</w>
атрофи и</w>
аневриз мами</w>
ан ге
а кси
y ond</w>
ven a</w>
v es.</w>
un ified</w>
un dic
tumo ur</w>
tre x
thoraco scopic</w>
ther mo
syn tax</w>
spir al</w>
spar ing</w>
sol ving</w>
sem i-
sarcop enia</w>
sar co
ro us</w>
restric tion</w>
resp ective</w>
res ort
remo vable</w>
re tar
ran ib
r c
promin ent</w>
pro vo
prefer able</w>
ple x
pl ant
perfor ated</w>
per si
oxygen ation</w>
os om
op ia</w>
one ph
nor mo
ne gl
n ative</w>
n atal</w>
mapp ing</w>
man aged</w>
m c</w>
lymph atic</w>
loc i</w>
lif est
leak age</w>
la v
kaz ak
k cn
k a</w>
jo ur
ja undic
ischem ia.</w>
in ste
impos sible</w>
i hc</w>
hol e</w>
hi atal</w>
hel d</w>
h ome</w>
g et
fol lic
fluo ro
f ig
exist ence</w>
ex clu
endoth el
ec ho
dro ps</w>
d me
cre ating</w>
clavi en-din
circ ular</w>
c t-
bud get</w>
br us
benz o
be yond</w>
be comes</w>
ar ies</w>
anxiet y-
angio ten
ane l</w>
al in</w>
aer obic</w>
adolesc ent</w>
accep table</w>
acade mic</w>
ac up
8, 3</w>
4 8
3- 5</w>
2 7-
16 8</w>
1 48</w>
1 46</w>
1 42</w>
эффектив ные</w>
эта но
экстрак ции</w>
э о</w>
щи еся</w>
череп ной</w>
цереброваскуляр ных</w>
холестеато мы</w>
фо лли
уча ствующих</w>
услови ях.</w>
тромбо зов</w>
триглицери дов</w>
ткан ь</w>
тест у</w>
терапи я.</w>
темпера ту
т т</w>
т вор
сте й.</w>
ствен ному</w>
стандарт ная</w>
стаби льной</w>
специаль ностей</w>
спе кти
состоя ла</w>
соответ ствие</w>
современ ном</w>
совме сти
смеш анной</w>
скорост ью</w>
си лу</w>
свой ствами</w>
сам цов</w>
с d
роди телей</w>
ресур сы</w>
регуля торных</w>
регио нальных</w>
реактив ности</w>
ре митти
разработан ный</w>
разработан ного</w>
ра ми.</w>
р 53</w>
продемонстри рована</w>
прогрессиру ющей</w>
провед енный</w>
преду сматри
пре одо
практи ческого</w>
поче чных</w>
получ ена</w>
поло й</w>
позволя т</w>
подверг ну
пло да</w>
пи н</w>
перекис ного</w>
перед не
пер спекти
парт не
парано идной</w>
па ке
откло нения</w>
особен ностью</w>
основ ы</w>
определя лась</w>
ок тя
оздоро ви
объектив ной</w>
общи м</w>
образ ной</w>
о зо
о г</w>
нейтрофи лов</w>
натоща к</w>
наруш ении</w>
на т</w>
н ением</w>
мута циями</w>
мрт .</w>
мозже чка</w>
много профи
мине рги
минда лин</w>
миели та</w>
мембра н</w>
ме ст</w>
ля ми.</w>
лекар ственным</w>
ле м.</w>
ле водо
куляр ная</w>
консуль ти
количе ству</w>
кого р
клини к</w>
клеточ ная</w>
ка ки
исследовани ем</w>
интелле кту
значитель ную</w>
здоровь я.</w>
за хва
жест кости</w>
докумен тов</w>
диста льного</w>
ди ни
десятиле тия</w>
де зо
дав ности</w>
гры жа
грам м</w>
госпи тальном</w>
гомеоста за</w>
го до
глоб альной</w>
гли ки
гистологи ческом</w>
ги сти
га м
врожд енных</w>
возраста ет</w>
внутри утро
внутри мыше
вне с
ви ны</w>
ве с</w>
вариабе льность</w>
бю ро</w>
бе спо
бассей не</w>
базис ной</w>
анали зов</w>
ана то
акту альных</w>
актив ные</w>
а м</w>
а ле
y ri
y di
un controlled</w>
ug h
toothpast e</w>
techniqu es.</w>
t ong
t n</w>
t 4</w>
substitu tion</w>
substanti ate</w>
sp ring</w>
sol id</w>
silic one</w>
shun ting</w>
shor ten
rest enosis</w>
remis sion.</w>
r y
r is</w>
psycho therapeutic</w>
pro inflammatory</w>
pr o</w>
peri metry</w>
pari etal</w>
pande mic
pancre at
pal atine</w>
p0.0 3</w>
p 1</w>
out -
ob acter
new bor
neoplas m</w>
mou th</w>
modi fications</w>
migr ation</w>
micro angio
malign ancy</w>
m .
lympho id</w>
lum bo
lo id</w>
le d.</w>
inno vative</w>
immunosuppres sive</w>
id ity.</w>
her 2
ga ined</w>
g d</w>
fluoresc ent</w>
flu ids</w>
elig ible</w>
ec g</w>
drd 2</w>
dou ble
discontinu ation</w>
dem and</w>
d acry
cum ulative</w>
coun ts</w>
contr adic
compar t
classi fications</w>
b ta</w>
av es</w>
anti gens</w>
analy se</w>
amp lification</w>
acro megaly</w>
a ins</w>
4- я</w>
2, 9</w>
2, 6</w>
15 6</w>
14, 3</w>
1 38</w>
1 21</w>
я к</w>
я д
ю нга</w>
эффектив ными</w>
эндотели альных</w>
эндоскопи ческое</w>
э фи
шизо ф
ше сть</w>
ч но
ци ном</w>
ци ли
целе вой</w>
х рани
функциони рование</w>
фено типа</w>
участ ники</w>
уточ нить</w>
уси ления</w>
уни каль
удо б
у ще
тяжелы ми</w>
ть .</w>
тонзи л
тимп ан
таз обе
суб стра
стратеги я</w>
ст ью.</w>
сопоста влении</w>
сомати ческой</w>
со вые</w>
симпто мо
серо тони
сд 1</w>
связан ного</w>
с цен
с клад
с бора</w>
рус ско
ретроспектив но</w>
ре ста
ре н</w>
расши рить</w>
раст ений</w>
раль ный</w>
райо нов</w>
разнообрази я</w>
ра диа
психоэмоциональ ного</w>
проанализирован о</w>
причинно- след
причи нам</w>
принима вших</w>
призна ком</w>
привер женность</w>
пред пос
пре вос
потен ци
подтвержд енным</w>
повтор ные</w>
по то
по ка</w>
плаз мо
печено чной</w>
пере пон
панкре о
п ани
осуществля ется</w>
орг анной</w>
окклю зия</w>
од ному</w>
объ емом</w>
обезболи вания</w>
нега тивного</w>
наль ном</w>
мута цией</w>
молекуляр ные</w>
мо кро
много численных</w>
микроби оты</w>
меся чных</w>
мен ти
ме рен
мар та</w>
ма ляри
м с.</w>
лепти на</w>
лабора торного</w>
л ге
ку н
круп но
кровоснаб жения</w>
корре лиру
контак тов</w>
ко вым</w>
ке са
кафедр ы</w>
кар ни
ини ции
имму нных</w>
и п</w>
зри тельной</w>
закры тия</w>
за частую</w>
жур на
женщи на</w>
жел чных</w>
е т.</w>
дости жение</w>
депресси вной</w>
демен цией</w>
гу мо
ги пе
гемато кси
г лан
выявл енной</w>
вы являются</w>
вше гося</w>
восстанови тельного</w>
воздействи й</w>
вл енных</w>
верхнечелюст ной</w>
вегета тивных</w>
ве ка</w>
важ ные</w>
в енной</w>
боту лино
биологи ческие</w>
бе шен
ассоции рованного</w>
анкети рования</w>
анкети рование</w>
аналоги чные</w>
ана .</w>
адъюван тной</w>
v 1</w>
un stable</w>
tracheo stomy</w>
topo graphic</w>
titan ium</w>
tim es.</w>
ti bial</w>
thromb ectomy</w>
survi v
subsequ ently</w>
streng then</w>
spectro scopy</w>
sit y.</w>
ser rated</w>
scop e</w>
s 1</w>
ri f
refl ecting</w>
pro duce</w>
preser ving</w>
plac ental</w>
pa i-1</w>
os a</w>
or ial</w>
oph eno
om as.</w>
oc to
obj ect</w>
normal ized</w>
no tic
n on</w>
mun ic
munic ip
monit or</w>
mo od</w>
meta stasis</w>
low- frequency</w>
ling ual</w>
life- threatening</w>
li brary</w>
larg e-
lac un
kin ase</w>
ir rig
inter leuk
ig u
ide a</w>
i m</w>
hum oral</w>
hum an
hospital izations</w>
hemispher es</w>
ge ment</w>
g s.</w>
g ar
flow metry</w>
evid enced</w>
every day</w>
establish ment</w>
es are
epith el
endometri al</w>
e f
e ating</w>
dyst onia</w>
di etary</w>
denti sts</w>
de grad
dang erous</w>
d me</w>
con s
con g
con du
comple ment</w>
circumst ances</w>
calcul ated.</w>
cad her
ca vi
c o</w>
bi polar</w>
behavi our
bal neo
av m</w>
autom ated</w>
attemp ts</w>
adul ts.</w>
adi pon
ad mis
achie vements</w>
ach .</w>
a wa
6 3,
16 6</w>
15 5</w>
ю ся</w>
эффектив на</w>
эпилепти фор
эндокри нных</w>
эндо генной</w>
электро кардио
э у
цити коли
це лена
целена правл
цве то
х э</w>
физи ческая</w>
ф -1</w>
уменьша ется</w>
у дли
ту .</w>
торако скопи
ти та
тг ск</w>
тазобе дрен
стен т-граф
сте ри
сте ато
стар ение</w>
ста н</w>
ст ей</w>
сравни вали</w>
спондило де
специали зированных</w>
современ ное</w>
сле ва</w>
серье зных</w>
сем ь</w>
сель ской</w>
се да
свобо дных</w>
свидетель ствующие</w>
рециди ви
результат ы.
ран ний</w>
раль ные</w>
противовоспалитель ные</w>
производи ли</w>
проду ци
постоя нных</w>
пост менопау
поло вых</w>
подвздош ных</w>
паренхи мы</w>
отсут ствует</w>
осуществля ть</w>
опы том</w>
оказ ывать</w>
объедин енных</w>
обра тная</w>
област ей</w>
ну .</w>
носо вой</w>
низ кого</w>
не медикаменто
не инфек
наза льной</w>
му тан
молекуляр ной</w>
микро бных</w>
ми ческих</w>
ми ти
мета лли
меся ц</w>
мер т
мел ко
мг л</w>
марке р</w>
м коз</w>
ляр ные</w>
ляр ная</w>
лоску та</w>
линей ной</w>
латера льного</w>
лаби рин
л э</w>
куря щих</w>
контролиру емых</w>
консерва тивное</w>
коне чной</w>
конду и
кон струкции</w>
комбини рованная</w>
клима ктери
классо в</w>
ка меры</w>
к к</w>
интра -</w>
ино гда</w>
изображ ений</w>
и ных</w>
зирован ная</w>
ж ения.</w>
дополн я
диафраг мы</w>
гу б
гори зон
гла вным</w>
гетеро зигот
гер ни
высоко технологи
выражен ных</w>
выде ление</w>
выбор ка</w>
вы стре
вы ви
всеми р
[...]
