<unk>	0
<s>	0
</s>	0
.	-3.35102
,	-3.46007
▁of	-3.55047
▁the	-3.65023
▁	-4.00113
▁and	-4.30103
▁и	-4.31641
▁in	-4.4979
-	-4.63159
▁в	-4.64968
▁(	-4.74253
ой	-4.86882
▁с	-4.96632
▁with	-5.06579
▁to	-5.12844
е	-5.16779
ого	-5.17366
)	-5.20825
s	-5.21399
▁The	-5.24631
▁a	-5.35359
▁patients	-5.46128
а	-5.48426
ых	-5.55191
х	-5.58562
и	-5.6817
▁на	-5.69382
▁is	-5.70132
▁was	-5.70749
▁у	-5.76888
▁for	-5.77817
й	-5.79544
ы	-5.80599
ing	-5.85973
м	-5.89978
▁В	-5.99385
о	-6.05051
▁were	-6.05855
▁при	-6.0914
▁on	-6.09739
▁-	-6.09821
▁по	-6.10259
▁пациентов	-6.11152
ая	-6.13629
я	-6.1602
ом	-6.17649
).	-6.26726
▁as	-6.27086
▁treatment	-6.2838
▁by	-6.30203
▁are	-6.32169
ed	-6.39869
▁that	-6.44987
al	-6.50947
▁к	-6.53327
▁больных	-6.54155
▁study	-6.54709
▁не	-6.60036
'	-6.61598
▁что	-6.63925
),	-6.64396
у	-6.65038
▁лечения	-6.666
▁для	-6.66686
▁исследования	-6.67138
ю	-6.68503
ую	-6.69
d	-6.69604
▁clinical	-6.69744
ly	-6.70782
ые	-6.71374
го	-6.72001
i	-6.73484
:	-6.78501
▁from	-6.79692
▁а	-6.80151
▁от	-6.80239
;	-6.80323
▁an	-6.82627
ый	-6.84553
▁be	-6.87524
>	-6.91561
/	-6.91789
ми	-6.92131
▁group	-6.92537
▁disease	-6.93938
▁Цель	-6.94311
ое	-6.95082
▁A	-6.95513
▁из	-6.95645
▁2	-6.96601
▁In	-6.97313
▁this	-6.99347
n	-7.009
ть	-7.01412
p	-7.04013
▁results	-7.05633
▁years	-7.07228
▁age	-7.08592
▁which	-7.09739
▁также	-7.10182
▁как	-7.10302
e	-7.10624
▁at	-7.1087
ся	-7.11
ым	-7.11499
▁after	-7.11771
▁методы	-7.12961
▁3	-7.15111
▁до	-7.15592
▁1	-7.16012
▁лет	-7.19124
▁о	-7.19772
▁therapy	-7.20149
ов	-7.20391
▁после	-7.21717
т	-7.2183
▁—	-7.22762
▁Результаты	-7.2295
▁To	-7.23045
1	-7.26114
▁development	-7.27166
▁disorders	-7.29156
ic	-7.29641
▁терапии	-7.30376
▁С	-7.33476
р	-7.33549
▁Материал	-7.33597
▁'	-7.34054
ие	-7.3517
y	-7.3536
▁use	-7.35893
▁It	-7.36121
2	-7.36127
▁its	-7.38472
з	-7.4094
▁not	-7.41081
▁analysis	-7.41538
▁data	-7.42561
▁cases	-7.42604
▁surgical	-7.42807
▁used	-7.4386
▁является	-7.44217
▁using	-7.45605
▁diagnosis	-7.45968
▁развития	-7.46222
ыми	-7.46463
▁article	-7.47236
▁has	-7.48646
▁their	-7.49125
ных	-7.49668
▁present	-7.50251
▁заболевания	-7.50959
ей	-7.51255
r	-7.51657
▁diseases	-7.51873
▁or	-7.52174
ли	-7.52213
▁well	-7.52335
▁have	-7.54297
▁methods	-7.55949
▁более	-7.56092
▁changes	-7.56907
▁most	-7.57382
▁can	-7.57397
ет	-7.57705
c	-7.57809
▁«	-7.59299
▁This	-7.5962
▁patient	-7.60651
▁children	-7.61162
▁high	-7.61384
▁результаты	-7.62015
▁статье	-7.62087
▁их	-7.62436
их	-7.63181
▁детей	-7.63228
▁period	-7.63554
▁during	-7.63655
▁risk	-7.63723
▁more	-7.64011
▁анализ	-7.64722
▁main	-7.64767
A	-7.65177
▁У	-7.65313
с	-7.66158
▁группы	-7.6654
▁between	-7.67149
▁it	-7.67679
▁groups	-7.67685
»	-7.67819
▁surgery	-7.68054
▁medical	-7.68072
ной	-7.70166
▁blood	-7.7064
▁C	-7.70641
в	-7.70686
▁возраста	-7.70725
▁5	-7.71356
▁были	-7.71732
▁different	-7.724
▁6	-7.73707
▁При	-7.74009
▁за	-7.74383
o	-7.74538
▁его	-7.74682
▁мозга	-7.7483
▁данные	-7.75108
▁case	-7.7607
ного	-7.76831
▁был	-7.77012
▁been	-7.77118
▁syndrome	-7.77147
▁4	-7.7734
▁группе	-7.77951
▁p	-7.78459
▁method	-7.78587
out	-7.78656
ее	-7.79113
▁into	-7.79199
▁significant	-7.79216
▁associated	-7.79341
</	-7.79435
▁level	-7.79443
▁chronic	-7.80043
▁complications	-7.80978
▁или	-7.81096
▁г	-7.8117
a	-7.81314
▁представлен	-7.81899
▁system	-7.82224
▁review	-7.82311
ется	-7.82511
4	-7.83541
▁диагностики	-7.84068
▁who	-7.84333
▁Представлен	-7.84452
3	-7.84675
C	-7.8476
▁эффективности	-7.84971
▁10	-7.85848
▁factors	-7.85901
▁activity	-7.8624
▁effect	-7.86529
▁these	-7.86549
▁acute	-7.86608
▁one	-7.86689
▁included	-7.87305
▁including	-7.87932
▁данн	-7.88219
▁studies	-7.8824
in	-7.88473
▁number	-7.88563
▁than	-7.8974
▁т	-7.90077
▁authors	-7.90406
▁исследование	-7.91263
▁может	-7.91882
l	-7.92308
▁На	-7.93353
▁исследований	-7.93442
t	-7.9345
▁крови	-7.94662
▁all	-7.95034
▁brain	-7.96335
▁P	-7.96885
▁пациента	-7.97596
▁так	-7.9773
▁S	-7.98229
▁возрасте	-7.98862
▁применения	-7.98987
▁performed	-7.99622
▁время	-7.99848
▁control	-7.99946
▁cognitive	-8.00411
ость	-8.01173
D	-8.01258
ar	-8.01292
▁головн	-8.02262
▁features	-8.02291
▁клинических	-8.02462
▁We	-8.02571
▁данных	-8.02711
▁осложнений	-8.02881
▁нарушений	-8.02894
▁increase	-8.02964
▁течение	-8.02977
▁postoperative	-8.03132
▁заболеваний	-8.03262
▁various	-8.03504
▁first	-8.03524
▁literature	-8.04634
▁жизни	-8.04761
ий	-8.05267
▁D	-8.05375
m	-8.06212
▁stroke	-8.06257
▁20	-8.06402
st	-8.06526
▁efficacy	-8.06814
▁symptoms	-8.07111
▁7	-8.07762
п	-8.07812
▁also	-8.07844
▁случаев	-8.08123
▁out	-8.08289
ve	-8.08483
▁examination	-8.08624
6	-8.08696
▁life	-8.08849
▁года	-8.08885
▁оценки	-8.09589
▁non	-8.09794
▁I	-8.10531
ами	-8.10577
▁послеоперационн	-8.10637
▁операции	-8.10645
▁found	-8.10701
▁other	-8.10746
▁based	-8.10757
▁во	-8.10932
▁со	-8.11019
▁различных	-8.11164
▁women	-8.11186
▁было	-8.11224
▁both	-8.11333
▁между	-8.1143
▁type	-8.11713
▁time	-8.12052
▁There	-8.12599
▁had	-8.12792
▁2-	-8.12849
▁системы	-8.12925
▁may	-8.13066
▁presented	-8.13103
▁ее	-8.13623
▁12	-8.13683
▁30	-8.13982
T	-8.14598
▁методов	-8.1462
ости	-8.14681
▁possible	-8.1543
▁new	-8.15463
ь	-8.16044
nt	-8.16173
л	-8.16758
▁К	-8.16987
▁мес	-8.16994
▁риска	-8.17168
▁сравнени	-8.17175
▁лечении	-8.17708
▁role	-8.18141
▁проведен	-8.18164
er	-8.18499
ation	-8.19554
▁женщин	-8.19615
▁early	-8.19806
▁months	-8.19844
▁которых	-8.20314
▁литературы	-8.20334
or	-8.20438
es	-8.20675
▁помощью	-8.21084
▁decrease	-8.21151
S	-8.21635
▁которые	-8.21864
5	-8.2191
▁эффективность	-8.22155
P	-8.22346
▁Проведен	-8.22739
▁revealed	-8.22757
▁course	-8.22795
▁but	-8.23224
▁no	-8.23262
▁due	-8.23646
▁F	-8.23689
▁1-	-8.23692
▁quality	-8.23727
▁elderly	-8.23795
▁neuro	-8.23892
▁significantly	-8.23984
ются	-8.24105
▁хирургического	-8.24207
▁approach	-8.24238
▁<	-8.24399
▁only	-8.24685
▁functional	-8.24702
▁shown	-8.25044
▁8	-8.25273
▁characteristics	-8.25323
▁pathology	-8.25491
▁aged	-8.25579
▁objective	-8.25681
ому	-8.25736
▁severity	-8.25958
▁diagnostic	-8.26577
▁paper	-8.26586
олько	-8.27046
▁области	-8.27376
▁наибол	-8.2746
▁examined	-8.27552
▁том	-8.27869
▁such	-8.28335
▁E	-8.28418
▁two	-8.28453
▁заключение	-8.28495
▁без	-8.28536
▁Russian	-8.28581
▁drug	-8.28709
▁people	-8.29136
▁Дл	-8.29227
▁effectiveness	-8.2934
▁B	-8.29354
▁результатов	-8.29637
▁особенности	-8.29786
▁уровня	-8.30123
▁показателей	-8.30142
▁compared	-8.303
▁studied	-8.30628
▁presents	-8.30666
▁rehabilitation	-8.30864
▁но	-8.30984
▁степени	-8.31422
0	-8.31621
▁analyzed	-8.31664
8	-8.32228
M	-8.32719
G	-8.32724
▁tissue	-8.3274
им	-8.32854
▁А	-8.33038
▁всех	-8.33112
▁pain	-8.3314
▁работы	-8.33143
ные	-8.33181
▁M	-8.33328
▁лиц	-8.33409
▁15	-8.33502
▁изменения	-8.33851
▁observed	-8.34102
▁cells	-8.3414
▁болезни	-8.34284
▁severe	-8.3429
an	-8.34298
▁current	-8.34794
▁60	-8.35301
▁быть	-8.35308
▁лечение	-8.35359
▁considered	-8.35391
▁c	-8.35414
▁there	-8.3544
▁факторов	-8.35477
▁патологии	-8.35504
▁mechanisms	-8.36134
▁cerebral	-8.36621
▁T	-8.36642
▁18	-8.36768
▁lower	-8.36932
▁work	-8.3704
B	-8.3709
▁complex	-8.37182
▁типа	-8.37437
▁оценка	-8.37479
▁синдрома	-8.37529
7	-8.37551
▁process	-8.3761
I	-8.37806
▁increased	-8.37927
▁drugs	-8.37971
▁total	-8.37983
▁состояния	-8.38128
▁parameters	-8.38283
▁state	-8.38303
▁анализа	-8.38335
±	-8.38427
С	-8.386
▁effective	-8.38664
▁assessment	-8.38686
▁stage	-8.39013
▁использованием	-8.39258
▁post	-8.3954
▁являются	-8.3977
▁health	-8.39795
▁common	-8.39918
ем	-8.39959
▁могут	-8.40082
▁позволяет	-8.40224
▁период	-8.40281
▁days	-8.40578
▁чем	-8.40597
▁фоне	-8.40645
▁активности	-8.40796
▁методом	-8.40873
▁long	-8.41057
▁Заключение	-8.41129
▁периоде	-8.41895
on	-8.41896
th	-8.41971
▁чере	-8.42274
на	-8.42308
▁клинической	-8.42408
▁higher	-8.42472
▁Т	-8.42474
▁obtained	-8.42606
▁important	-8.42963
▁связи	-8.42963
▁влияние	-8.43591
sub	-8.43599
▁препаратов	-8.43782
▁препарата	-8.43986
▁распространенн	-8.44181
▁anti	-8.44712
▁cancer	-8.45053
▁обзор	-8.45196
▁levels	-8.45314
▁основе	-8.45344
▁расстройств	-8.45454
▁G	-8.465
▁L	-8.47015
▁assess	-8.47331
А	-8.47555
▁эти	-8.47583
▁low	-8.48305
▁care	-8.4857
г	-8.48708
sup	-8.48759
▁underwe	-8.48934
9	-8.48976
▁research	-8.4925
▁современн	-8.49405
▁frequency	-8.49633
▁tumor	-8.49804
g	-8.49881
L	-8.50027
▁обзоре	-8.50078
▁modern	-8.50267
▁conditions	-8.50351
▁evaluate	-8.50542
▁уровень	-8.50922
F	-8.51085
▁П	-8.51438
к	-8.51442
R	-8.51949
ный	-8.52123
▁combination	-8.52141
▁настояще	-8.52264
▁positive	-8.52321
лась	-8.52355
▁men	-8.52395
▁9	-8.52449
▁выполнен	-8.52604
ла	-8.52649
▁помощи	-8.52893
▁artery	-8.53509
▁нейро	-8.53648
ют	-8.53694
▁formation	-8.53741
▁зависимости	-8.53747
able	-8.53889
▁population	-8.54231
▁числе	-8.54242
▁primary	-8.54339
▁14	-8.54499
▁мужчин	-8.54526
▁нарушения	-8.54622
▁изменений	-8.55203
▁described	-8.55229
ion	-8.55533
▁О	-8.55565
N	-8.55582
▁showed	-8.5564
▁function	-8.56056
-1	-8.56066
▁основны	-8.56204
▁снижение	-8.56437
▁m	-8.56635
▁40	-8.56648
▁problem	-8.56738
▁effects	-8.56876
▁forensic	-8.57119
▁группа	-8.57121
▁should	-8.57151
▁По	-8.57159
▁II	-8.57333
b	-8.57424
▁возраст	-8.57543
но	-8.57766
▁Н	-8.57822
▁разн	-8.57895
▁tumors	-8.5809
▁injury	-8.58362
▁practice	-8.58414
▁combined	-8.58589
term	-8.58634
ная	-8.58638
▁rate	-8.58641
ия	-8.58653
▁М	-8.58665
▁качестве	-8.58692
▁carried	-8.59231
▁bone	-8.59342
▁наблюдения	-8.59502
▁об	-8.60068
▁developed	-8.60657
ст	-8.60673
▁duration	-8.60991
▁pathogenesis	-8.61019
▁использования	-8.61218
▁ab	-8.6122
▁это	-8.61466
▁we	-8.61523
▁19	-8.6183
▁condition	-8.62079
▁depression	-8.62482
▁structure	-8.62564
H	-8.62578
▁функции	-8.62783
д	-8.62863
▁form	-8.63293
▁specific	-8.63394
tic	-8.63564
▁over	-8.63588
▁sleep	-8.63765
▁50	-8.63903
▁25	-8.64054
<	-8.64095
▁изучение	-8.64328
▁under	-8.64337
▁respectively	-8.64381
▁dental	-8.64885
▁условиях	-8.64905
▁наличие	-8.65376
▁social	-8.6566
▁vascular	-8.65723
▁показатели	-8.65765
▁mental	-8.65769
му	-8.65994
▁presence	-8.65999
▁инсульта	-8.66166
▁determined	-8.66173
▁особенностей	-8.66232
▁experience	-8.66269
▁клеток	-8.66599
▁lead	-8.66626
▁application	-8.66633
E	-8.66643
▁All	-8.66749
▁impairment	-8.66861
▁result	-8.66932
▁IL	-8.6698
▁возможности	-8.67418
▁роль	-8.67647
▁человека	-8.67719
▁prevalence	-8.67883
▁метода	-8.68118
▁body	-8.68121
▁types	-8.68124
▁V	-8.68246
▁multiple	-8.68474
▁rare	-8.68956
▁forms	-8.6897
us	-8.69164
▁therapeutic	-8.69291
▁approaches	-8.69368
year	-8.69614
▁реабилитации	-8.69804
▁ткани	-8.70046
лось	-8.70207
ous	-8.70248
▁про	-8.70254
▁случай	-8.70415
▁test	-8.70507
▁received	-8.71042
▁signs	-8.71075
▁комплексн	-8.71083
▁heart	-8.7154
▁up	-8.71541
▁determine	-8.71615
▁этом	-8.71658
▁morphological	-8.71672
▁characterized	-8.71791
▁prevention	-8.72019
▁manifestations	-8.72182
▁mortality	-8.72258
▁когнитивных	-8.72345
▁11	-8.72607
▁17	-8.72662
▁influence	-8.72741
ка	-8.72787
▁technique	-8.72983
▁пожилого	-8.73035
▁(<	-8.73209
▁among	-8.73256
▁status	-8.73256
▁качества	-8.73266
▁железы	-8.73313
▁anxiety	-8.73333
ло	-8.73371
лись	-8.73394
▁dynamics	-8.73394
▁pathological	-8.73476
▁Приведен	-8.73485
▁safety	-8.7351
▁criteria	-8.73515
f	-8.74099
▁случаях	-8.74203
▁diabetes	-8.74265
▁опухоли	-8.74265
▁according	-8.74565
▁сна	-8.7498
▁функциональн	-8.75039
▁увеличение	-8.75187
н	-8.75346
up	-8.75585
ен	-8.75773
▁large	-8.75783
▁comparison	-8.75829
▁уровне	-8.75901
le	-8.75963
▁полости	-8.76064
▁processes	-8.76096
▁dysfunction	-8.76281
▁R	-8.76395
▁тела	-8.76633
▁24	-8.77432
▁16	-8.77979
▁neurological	-8.78054
ity	-8.78311
ary	-8.7852
▁мг	-8.78677
▁made	-8.78702
▁demonstrated	-8.78739
▁old	-8.78774
▁ischemic	-8.78796
М	-8.78948
▁identified	-8.78987
▁судебно	-8.7905
id	-8.79087
ить	-8.79096
u	-8.79174
▁N	-8.79468
ческих	-8.79508
▁psycho	-8.79549
▁incidence	-8.79809
▁treated	-8.80077
V	-8.80277
▁human	-8.80313
▁death	-8.80535
за	-8.80587
▁данным	-8.80674
▁позволил	-8.80812
▁современны	-8.81139
▁вмешательства	-8.81205
▁loss	-8.81356
—	-8.81358
▁mg	-8.81381
▁поражения	-8.81408
▁schizophrenia	-8.81627
▁cause	-8.81791
those	-8.81815
▁oral	-8.81823
▁However	-8.819
▁hearing	-8.819
▁под	-8.81937
▁100	-8.81986
ки	-8.82076
▁assessed	-8.82136
▁stages	-8.8219
▁outcomes	-8.82256
▁них	-8.82302
▁Установлено	-8.82306
В	-8.82704
▁клинико	-8.82728
ive	-8.8293
▁функций	-8.83001
▁area	-8.83018
▁day	-8.83053
▁хронической	-8.83116
▁genetic	-8.83127
▁healthy	-8.83426
▁составила	-8.8355
▁some	-8.83564
ии	-8.8387
▁tissues	-8.83904
▁артерии	-8.83914
▁when	-8.84114
▁potential	-8.8418
▁риск	-8.84279
Р	-8.84316
▁further	-8.84394
▁discussed	-8.84512
▁gene	-8.84772
▁factor	-8.84841
▁management	-8.84957
▁improvement	-8.85571
▁влияния	-8.85601
▁cell	-8.85703
▁значительно	-8.85748
▁before	-8.85812
▁depend	-8.85818
▁процесса	-8.85885
▁relationship	-8.86115
▁re	-8.86428
▁three	-8.8655
▁Patients	-8.86991
▁aim	-8.87005
▁purpose	-8.87304
▁standard	-8.87348
▁causes	-8.87533
▁п	-8.87851
▁disorder	-8.88194
▁biological	-8.88264
О	-8.88307
▁An	-8.88488
▁проводили	-8.88975
▁коррекции	-8.88986
▁течения	-8.88986
▁MS	-8.89196
ах	-8.89242
▁within	-8.89295
▁describes	-8.89297
▁достоверно	-8.8935
▁index	-8.89577
▁приводит	-8.89643
б	-8.89766
▁stress	-8.89922
▁определения	-8.89925
▁H	-8.89952
▁consider	-8.89981
▁improve	-8.901
▁основании	-8.90172
▁групп	-8.90316
▁Р	-8.90365
▁выявлено	-8.90582
▁indicators	-8.90597
▁Полученны	-8.90658
▁раза	-8.90676
▁analyze	-8.90944
▁проведения	-8.91103
▁less	-8.91197
▁возможность	-8.91204
▁functions	-8.91235
▁attention	-8.91363
▁reduce	-8.9154
▁diagnosed	-8.91746
▁клинического	-8.91966
▁зубов	-8.91972
▁операций	-8.91981
▁артерий	-8.92001
ре	-8.92437
или	-8.92639
▁CD	-8.92669
▁таких	-8.927
▁need	-8.9276
▁развитие	-8.92914
▁соответственно	-8.92932
Н	-8.92946
▁cardiovascular	-8.93188
▁older	-8.93217
▁report	-8.9349
▁проявлений	-8.93497
related	-8.93503
▁профилактики	-8.93544
▁lesions	-8.93576
▁pre	-8.93789
▁старше	-8.93852
▁сердечно	-8.93924
▁differences	-8.93971
▁СД	-8.93975
▁результате	-8.94025
▁damage	-8.94053
▁evaluation	-8.94107
▁РС	-8.94155
▁состояние	-8.94214
▁13	-8.94254
▁21	-8.9492
▁basis	-8.9504
▁больш	-8.95205
▁среди	-8.95284
▁статистически	-8.95355
▁physical	-8.95435
▁scale	-8.95564
▁special	-8.95627
▁proposed	-8.95689
▁диагностике	-8.95979
▁кишки	-8.95979
▁костн	-8.96004
▁Б	-8.96133
h	-8.96197
▁человек	-8.96512
▁лечению	-8.96611
▁основной	-8.96652
▁группу	-8.96749
▁aging	-8.96753
▁degree	-8.96771
▁often	-8.96788
▁infection	-8.96857
▁reduction	-8.9693
▁followed	-8.97091
▁чаще	-8.97301
▁region	-8.97512
▁печени	-8.97567
▁сердца	-8.97567
▁часто	-8.97863
▁населения	-8.97887
▁исследовании	-8.97892
▁growth	-8.9794
▁этого	-8.98207
▁других	-8.98219
re	-8.98312
▁resection	-8.98399
▁local	-8.98445
▁decreased	-8.988
▁обследования	-8.98857
▁structures	-8.98989
▁высокой	-8.9907
▁III	-8.99139
▁same	-8.9918
ться	-8.99221
▁correction	-8.99233
▁visual	-8.99244
▁follow	-8.99518
▁характер	-8.99637
▁повышение	-8.99812
while	-8.99832
▁expression	-8.99928
▁пациенты	-8.99936
▁problems	-9.00014
▁Изучени	-9.00108
▁inflammatory	-9.00274
▁times	-9.00493
П	-9.00705
▁nasal	-9.00762
▁normal	-9.00816
▁Был	-9.0085
▁наблюдение	-9.00871
▁immuno	-9.01103
▁клинические	-9.01104
▁35	-9.01196
ным	-9.01251
▁учет	-9.01393
old	-9.01445
▁divide	-9.01483
▁зрения	-9.01484
▁все	-9.01597
от	-9.01754
▁депрессии	-9.01816
▁allow	-9.0199
▁аорты	-9.02155
▁liver	-9.02256
ное	-9.02374
▁шкале	-9.02691
▁работе	-9.02701
▁year	-9.0279
▁тканей	-9.02822
▁применение	-9.02898
▁р	-9.0297
▁здоровых	-9.0316
▁действия	-9.03161
▁сосудов	-9.03162
ж	-9.0317
▁epilepsy	-9.03176
▁то	-9.0343
▁develop	-9.03524
▁процессов	-9.03551
▁группах	-9.03786
▁coronary	-9.0392
▁caused	-9.04019
▁метод	-9.04193
▁un	-9.04352
Т	-9.0439
▁hypertension	-9.04523
▁продолжительн	-9.04558
▁established	-9.04583
▁оста	-9.04757
▁безопасности	-9.04871
▁времени	-9.04881
▁внимание	-9.04939
▁laser	-9.05017
▁part	-9.05092
▁account	-9.05212
▁значение	-9.05212
▁left	-9.05253
▁медицинской	-9.05335
▁Показано	-9.05354
ам	-9.05441
▁применением	-9.05496
▁general	-9.05507
▁нижне	-9.0561
te	-9.0563
▁interventions	-9.05684
▁симптомов	-9.0591
▁целью	-9.05916
▁опыт	-9.05941
по	-9.06192
▁смерти	-9.06603
▁изучения	-9.0668
▁second	-9.06715
is	-9.06867
▁techniques	-9.07015
▁central	-9.07055
▁dose	-9.0727
▁cavity	-9.07306
▁клинический	-9.07423
▁заболеваниями	-9.07471
▁evidence	-9.07533
та	-9.07551
▁model	-9.07613
▁These	-9.07689
en	-9.07736
▁impact	-9.07815
▁определение	-9.07871
▁young	-9.07987
▁identify	-9.08014
▁практике	-9.08014
▁выраженности	-9.08033
▁3-	-9.08042
▁сопровожда	-9.08098
▁Описан	-9.08104
▁Г	-9.08263
▁detected	-9.08412
▁дней	-9.0843
▁23	-9.0847
▁suggest	-9.08539
▁right	-9.08617
▁хирургии	-9.08801
▁гена	-9.08857
ng	-9.0888
▁correlation	-9.08927
▁терапию	-9.08984
▁органов	-9.09089
▁available	-9.09096
▁them	-9.09158
▁confirmed	-9.09231
▁Обследован	-9.09249
▁response	-9.09365
▁information	-9.09445
▁middle	-9.09475
▁following	-9.09761
▁rats	-9.09983
▁22	-9.10033
▁At	-9.10067
▁arteries	-9.10168
▁боли	-9.10178
▁структур	-9.10195
▁проблемы	-9.10288
▁markers	-9.10362
▁open	-9.10488
▁новых	-9.10538
▁эт	-9.10561
▁possibility	-9.10576
▁diagnostics	-9.10699
▁Russia	-9.10864
▁рассмотрен	-9.10961
▁per	-9.11012
O	-9.11084
▁вмешательств	-9.11157
▁efficiency	-9.11264
▁тяжести	-9.11631
▁эффект	-9.11725
ory	-9.12152
▁individual	-9.12369
▁сутки	-9.12378
▁пациентам	-9.1253
▁осложнения	-9.1273
▁Clinical	-9.12803
▁given	-9.12823
ра	-9.12869
▁negative	-9.12989
▁active	-9.13047
ими	-9.13315
▁nerve	-9.13318
vascular	-9.13328
at	-9.13367
▁particular	-9.13367
▁27	-9.13399
▁multi	-9.13577
▁отмечено	-9.13622
▁животных	-9.13866
▁hospital	-9.1395
ле	-9.13974
▁laboratory	-9.14261
▁образом	-9.14271
▁форм	-9.14551
▁Однако	-9.14622
▁protein	-9.14625
▁progression	-9.14639
▁sclerosis	-9.14704
▁методики	-9.148
▁provides	-9.14952
um	-9.14953
▁пожилых	-9.15021
▁вопросы	-9.15131
▁reduced	-9.15159
ol	-9.15767
ид	-9.16064
▁history	-9.16154
▁injuries	-9.16171
▁отсутствие	-9.16177
▁нед	-9.16208
MS	-9.16692
▁noted	-9.16736
▁related	-9.16915
▁контрольной	-9.16936
▁eye	-9.1699
▁average	-9.17016
▁И	-9.17027
▁arterial	-9.17069
▁classification	-9.17155
воду	-9.17191
ма	-9.17235
▁endoscopic	-9.17315
▁количество	-9.17385
▁Обследова	-9.17449
▁оперативн	-9.1752
▁allows	-9.17559
▁45	-9.17675
▁each	-9.17707
▁pressure	-9.17738
▁motor	-9.17755
▁расстройства	-9.17782
▁respiratory	-9.17796
▁необходимость	-9.17978
▁ряд	-9.18059
▁людей	-9.18097
▁comprehensive	-9.18099
▁компьютерн	-9.18107
▁animals	-9.18221
▁синдромом	-9.18286
▁формы	-9.18408
▁organs	-9.18426
▁имеет	-9.18432
▁prognosis	-9.18491
▁России	-9.18491
▁частоты	-9.18535
▁выше	-9.18641
ар	-9.1881
▁conducted	-9.1895
▁виде	-9.18982
▁COVID	-9.18985
▁our	-9.19087
▁мм	-9.19142
the	-9.19228
▁Анализ	-9.19341
▁metabolic	-9.19405
▁intervention	-9.19592
▁will	-9.19681
▁peripheral	-9.19683
▁involved	-9.1976
▁aspects	-9.19818
▁противо	-9.19846
▁scientific	-9.20075
▁роли	-9.20081
▁Рассмотрен	-9.20122
▁глаз	-9.20125
▁некоторы	-9.20405
▁action	-9.20483
▁values	-9.20573
оз	-9.20598
il	-9.20624
▁которая	-9.20681
ию	-9.20775
▁крыс	-9.20815
▁развитии	-9.20888
▁положительн	-9.20888
▁систем	-9.20902
▁менее	-9.20979
то	-9.21067
▁Выявлен	-9.21155
▁experimental	-9.21211
▁65	-9.21245
▁сочетании	-9.21292
▁контроля	-9.2131
К	-9.21332
to	-9.2143
▁thyroid	-9.21505
▁Оценк	-9.21716
ry	-9.21725
▁late	-9.21815
сь	-9.21816
▁которым	-9.21831
Ф	-9.22042
▁carotid	-9.22106
▁снижения	-9.22109
▁28	-9.22118
▁легких	-9.22132
▁возрастных	-9.22139
▁день	-9.22163
Г	-9.22296
▁периода	-9.22409
▁активность	-9.22431
▁hyper	-9.22445
▁differential	-9.22541
▁aortic	-9.22548
▁inflammation	-9.22634
K	-9.22929
▁опухолей	-9.22954
▁необходимо	-9.22962
▁abdominal	-9.22994
ur	-9.23006
▁pulmonary	-9.23164
▁de	-9.23171
▁choice	-9.2334
▁носа	-9.23352
▁комбинированн	-9.23353
▁двух	-9.23361
▁травмы	-9.23419
▁vessels	-9.23473
▁weeks	-9.23507
▁O	-9.23608
▁патологией	-9.23755
▁successful	-9.23756
▁recovery	-9.23757
▁many	-9.23776
▁molecular	-9.23878
▁onset	-9.24
k	-9.24017
▁consist	-9.24031
Л	-9.24129
▁nervous	-9.24172
▁outcome	-9.24465
не	-9.24684
▁regard	-9.24843
inflammatory	-9.24864
▁basic	-9.25014
▁последние	-9.25025
ne	-9.25059
as	-9.2527
▁сравнения	-9.25307
▁терапия	-9.25368
▁serum	-9.25433
▁acid	-9.25449
▁increasing	-9.25452
▁did	-9.25498
▁give	-9.25561
▁mean	-9.25569
ин	-9.25765
▁through	-9.25865
▁составил	-9.25986
▁выявлены	-9.26069
▁lesion	-9.26164
▁mellitus	-9.26281
▁skin	-9.26284
можно	-9.26304
▁приведен	-9.26359
▁90	-9.26393
▁разделен	-9.26536
▁признаков	-9.26713
est	-9.26909
▁intra	-9.26964
▁indicate	-9.27014
▁больного	-9.27184
▁позволяю	-9.27363
▁One	-9.27643
▁который	-9.27672
▁evaluated	-9.27837
▁single	-9.28003
▁Это	-9.28014
И	-9.28054
▁secondary	-9.28074
▁No	-9.28077
▁синдром	-9.28139
▁speech	-9.28437
ок	-9.28459
▁экспериментальн	-9.28544
▁механизмы	-9.28558
Д	-9.28575
▁качество	-9.28598
▁использование	-9.28635
▁больше	-9.28649
▁failure	-9.28873
▁Д	-9.29223
▁accompanie	-9.29312
▁стадии	-9.29312
-2	-9.29384
хирургических	-9.29471
▁выявления	-9.29767
▁особенно	-9.29794
▁котор	-9.30071
▁similar	-9.30195
ould	-9.30208
▁связь	-9.30225
▁механизмов	-9.30226
▁absence	-9.30241
▁уменьшение	-9.30263
▁причин	-9.30269
▁internal	-9.30281
▁отдела	-9.30383
▁перв	-9.30463
▁t	-9.30553
it	-9.30616
▁pronounced	-9.3064
▁anterior	-9.30656
▁Все	-9.30698
▁повреждения	-9.30984
▁taking	-9.31086
▁ИИ	-9.3109
ization	-9.31158
▁value	-9.31169
▁выполнения	-9.31175
▁острого	-9.31214
▁upper	-9.3154
▁значим	-9.31571
▁small	-9.31947
▁формирования	-9.32028
▁гг	-9.32079
ном	-9.32082
▁рака	-9.32086
лся	-9.32087
▁systems	-9.3216
▁procedure	-9.32346
▁42	-9.3236
▁content	-9.32371
▁teeth	-9.32437
▁flow	-9.32543
▁патогенеза	-9.32564
▁disturbances	-9.32578
▁части	-9.32613
ine	-9.32679
▁статуса	-9.32727
ключены	-9.32752
▁sub	-9.32834
▁help	-9.32892
▁клиническое	-9.32892
▁importance	-9.32892
▁посвящен	-9.33043
▁того	-9.33234
▁According	-9.33348
▁optimal	-9.33353
▁29	-9.33566
▁Л	-9.33761
▁ischemia	-9.33807
▁histological	-9.33871
▁addition	-9.34112
▁старческ	-9.34439
▁заболевание	-9.34452
▁имеют	-9.34561
▁volume	-9.34766
▁necessary	-9.34772
▁сроки	-9.34942
▁расстройствами	-9.34948
▁мозгов	-9.35118
▁disability	-9.35199
▁measures	-9.35269
▁procedures	-9.3529
▁tests	-9.35305
▁частота	-9.35311
▁terms	-9.3543
ческого	-9.35583
▁оптимальн	-9.35726
до	-9.35776
▁increases	-9.3584
▁affect	-9.35895
▁существенно	-9.3603
▁возрастн	-9.36081
▁свидетельствуют	-9.36133
хирургической	-9.36151
ness	-9.36238
▁pro	-9.36291
▁лекарственн	-9.36531
▁concentration	-9.36533
▁роговицы	-9.36604
▁good	-9.36605
▁Исследование	-9.36621
▁нерва	-9.36697
▁PD	-9.36722
▁этапе	-9.36785
нов	-9.36848
▁одной	-9.3685
ными	-9.3686
он	-9.36884
▁70	-9.36934
▁systemic	-9.3699
▁leads	-9.37229
▁роста	-9.37311
▁всего	-9.37339
▁отдаленн	-9.37339
▁issues	-9.37361
▁MRI	-9.3744
▁material	-9.37537
▁tomography	-9.37555
▁practical	-9.37582
ющихся	-9.37768
Б	-9.37827
▁стоматологическ	-9.37907
▁случае	-9.37989
▁подхода	-9.38014
▁Federation	-9.38033
▁За	-9.3804
▁operations	-9.3805
▁сетчатки	-9.38516
▁alcohol	-9.38517
ди	-9.387
▁процесс	-9.3875
▁глаза	-9.38775
▁comparative	-9.38873
▁K	-9.3892
▁развитием	-9.38953
▁использовали	-9.38997
▁Medical	-9.38997
▁однако	-9.38999
▁частности	-9.39001
▁две	-9.3902
ва	-9.39159
▁frequent	-9.3936
▁составили	-9.39396
▁выбора	-9.39729
РС	-9.40125
▁тем	-9.40297
▁algorithm	-9.40402
▁minimal	-9.40461
няя	-9.40462
pite	-9.40478
▁36	-9.40495
ал	-9.40553
▁26	-9.4071
▁улучшение	-9.40773
▁mm	-9.40944
▁восстановления	-9.40975
▁concluded	-9.40982
▁inter	-9.4101
▁отношении	-9.41029
▁Установлен	-9.41033
▁оценить	-9.41448
▁обследование	-9.41467
па	-9.41492
▁findings	-9.41512
▁moderate	-9.41536
▁psychological	-9.41556
▁факторы	-9.41573
%	-9.41616
-10	-9.41779
▁identification	-9.41946
▁этиологии	-9.4195
▁muscle	-9.4196
▁способству	-9.41998
▁dementia	-9.42053
▁хронического	-9.4209
▁mass	-9.423
▁detail	-9.42395
▁devote	-9.42446
▁классификации	-9.42446
▁числа	-9.42551
▁means	-9.42595
▁лечебн	-9.42662
▁variants	-9.42727
▁relative	-9.42903
▁trans	-9.42906
▁daily	-9.42948
▁дисфункции	-9.42948
▁certain	-9.42951
▁Наибол	-9.42977
▁32	-9.43046
▁электро	-9.43122
▁80	-9.4326
▁properties	-9.43453
▁шизофрении	-9.43453
▁malignant	-9.43454
▁For	-9.43543
▁field	-9.43558
▁дефицита	-9.43567
▁случая	-9.43578
▁подход	-9.43676
▁МРТ	-9.43917
▁medicine	-9.43922
▁три	-9.43922
▁investigation	-9.43927
▁prevent	-9.43927
▁возникновения	-9.43961
▁общей	-9.44039
▁модели	-9.4406
▁resistance	-9.44089
▁subjects	-9.44113
▁больным	-9.44135
▁Применен	-9.44297
▁сам	-9.44456
▁оценивали	-9.4449
–	-9.44503
▁cerebro	-9.44522
▁число	-9.44851
▁После	-9.44923
▁важн	-9.44933
▁components	-9.44944
rs	-9.44985
▁первичной	-9.44994
▁program	-9.45136
se	-9.45143
▁eyes	-9.4519
▁же	-9.45294
▁describe	-9.45358
▁микро	-9.45488
▁etiology	-9.45499
▁повреждений	-9.45502
▁содержания	-9.45514
▁survival	-9.45524
▁training	-9.45525
▁direct	-9.45541
▁значимо	-9.45581
▁рта	-9.45672
▁areas	-9.45709
▁association	-9.45988
▁среднего	-9.46031
▁воздействия	-9.4607
▁вывод	-9.46306
▁нервной	-9.46328
ш	-9.46422
▁Таким	-9.46581
▁диагнозом	-9.46715
▁относительно	-9.46741
▁вен	-9.46794
▁peri	-9.46814
ent	-9.46818
▁описание	-9.46852
▁wall	-9.47039
▁aneurysm	-9.47042
▁кожи	-9.47062
▁параметров	-9.47062
▁perform	-9.47082
▁female	-9.47085
▁rs	-9.47294
▁нарушениями	-9.47375
▁complete	-9.47386
▁recent	-9.47465
▁формирование	-9.47514
Ж	-9.47541
▁здоровья	-9.47588
▁activities	-9.47595
▁administration	-9.47605
да	-9.47652
▁pancreatic	-9.47672
▁plasma	-9.47685
▁прям	-9.47686
▁range	-9.48031
▁surface	-9.48092
▁реакции	-9.48117
▁detection	-9.48125
▁deficit	-9.48144
ческие	-9.48149
▁болезнью	-9.48188
следствие	-9.48215
▁cardiac	-9.48232
▁immune	-9.48261
▁возможны	-9.48273
ны	-9.48307
▁включ	-9.48409
кт	-9.48435
ол	-9.48465
▁литературе	-9.48649
▁recurrent	-9.4865
▁especially	-9.4865
▁нижних	-9.48674
ance	-9.48718
▁invasive	-9.48728
▁localization	-9.48733
▁seizures	-9.48744
ies	-9.48768
▁monitoring	-9.48842
ит	-9.48877
el	-9.48937
▁эндоскопическ	-9.48957
▁being	-9.49067
▁lung	-9.49173
▁старения	-9.49184
▁Определен	-9.49185
▁пациентки	-9.49192
сти	-9.49434
▁(1	-9.49544
▁–	-9.49597
основных	-9.49624
▁место	-9.49666
▁congenital	-9.49724
▁complicated	-9.49794
▁materials	-9.49798
▁оценке	-9.49959
▁средств	-9.50026
▁ear	-9.50064
▁external	-9.50264
ч	-9.50353
ор	-9.50354
▁концентрации	-9.50363
-19	-9.50377
Э	-9.50549
▁различны	-9.50716
его	-9.50932
▁БП	-9.51021
▁short	-9.51255
',	-9.51264
▁здравоохранения	-9.51352
▁врачей	-9.51352
▁tract	-9.51353
▁образования	-9.51361
▁получали	-9.51363
6%	-9.51383
▁миокарда	-9.51392
ch	-9.51403
▁additional	-9.51405
▁deficiency	-9.51429
▁statistically	-9.5145
▁высок	-9.51615
▁gastro	-9.51653
▁46	-9.5175
▁возрастом	-9.51884
▁metabolism	-9.51901
▁кровообращения	-9.51901
▁конечностей	-9.51902
▁nature	-9.51902
▁различия	-9.51904
▁слизистой	-9.52014
▁41	-9.52048
▁наблюда	-9.52112
▁concept	-9.5244
▁перед	-9.52543
▁spectrum	-9.52552
▁persons	-9.52653
▁great	-9.52857
histochemical	-9.52884
▁On	-9.52905
▁31	-9.52923
▁%	-9.52995
▁world	-9.5301
▁adverse	-9.53027
▁author	-9.5306
▁key	-9.53128
1-	-9.53146
▁5-	-9.53179
▁шкалы	-9.53234
▁As	-9.533
▁мин	-9.53457
▁томографии	-9.53573
▁recommendations	-9.53591
▁подростков	-9.53605
▁amount	-9.5361
▁проявля	-9.53632
▁55	-9.53655
ir	-9.53967
▁деятельности	-9.5413
▁средней	-9.54167
15	-9.54188
Х	-9.54289
▁причиной	-9.54542
Проанализированы	-9.54542
v	-9.54571
остью	-9.54684
▁собой	-9.54698
▁CI	-9.5476
▁progressive	-9.54792
▁диагностика	-9.54796
ц	-9.54886
▁практически	-9.54907
▁Group	-9.54922
1,	-9.55093
▁micro	-9.55129
▁выраженн	-9.55148
▁хроническим	-9.5522
▁major	-9.55248
▁structural	-9.5527
▁Thus	-9.55271
▁determination	-9.55287
10	-9.55339
▁indications	-9.55349
▁которого	-9.55422
▁34	-9.55427
▁publications	-9.55436
▁Изучен	-9.55478
▁Показан	-9.55496
▁подходы	-9.55602
▁участие	-9.55633
▁проявления	-9.55638
▁observation	-9.55726
▁одного	-9.55779
▁concerning	-9.55859
▁общего	-9.55861
▁bleeding	-9.55904
▁own	-9.56031
▁renal	-9.56069
▁pathogenetic	-9.56074
▁emotional	-9.56182
day	-9.562
▁определяли	-9.56204
медицинской	-9.56213
▁do	-9.56277
▁дополнительн	-9.56296
▁средни	-9.56297
▁детск	-9.56353
▁гипер	-9.56407
▁After	-9.56409
▁наблюдений	-9.56409
▁Research	-9.56436
▁динамики	-9.56501
▁so	-9.56568
ную	-9.56633
▁объем	-9.56813
(	-9.56833
▁kidney	-9.57016
▁remain	-9.57026
▁профессиональн	-9.57027
▁взрослых	-9.57065
▁клеточн	-9.57273
2)	-9.57274
▁ребенка	-9.57569
▁repair	-9.57576
▁недостаточности	-9.57582
▁they	-9.57608
▁кажд	-9.57622
▁количества	-9.57631
▁технологий	-9.57672
physiological	-9.57735
,7%	-9.57995
▁behavior	-9.58031
▁insulin	-9.58068
▁Не	-9.58083
▁гортани	-9.58153
▁челюсти	-9.58153
▁сыворотке	-9.58167
▁генов	-9.58167
ля	-9.58175
▁экспрессии	-9.58185
▁женщины	-9.58187
▁characteristic	-9.58198
▁technologies	-9.58236
ния	-9.58261
▁frequently	-9.58438
▁Э	-9.58531
▁рассматривают	-9.58652
▁иммуногистохими	-9.58718
▁composition	-9.58742
▁order	-9.58742
▁applied	-9.58743
▁make	-9.58758
▁length	-9.58813
▁раз	-9.58844
very	-9.5886
ф	-9.58869
▁self	-9.58901
▁discusse	-9.58935
▁component	-9.59146
▁материала	-9.59252
▁picture	-9.59333
▁several	-9.59333
▁play	-9.59344
x	-9.5966
▁aimed	-9.59679
▁широко	-9.59725
▁48	-9.59824
▁тактики	-9.59931
▁почек	-9.59945
▁фактора	-9.59956
▁психических	-9.60023
▁achieved	-9.60037
▁95%	-9.60153
▁end	-9.6018
ности	-9.60397
▁adequate	-9.60418
▁IV	-9.6049
▁многи	-9.60527
▁оболочки	-9.60527
▁CT	-9.60567
▁счет	-9.60584
▁recommended	-9.60585
▁начала	-9.60651
▁маркеров	-9.60702
▁venous	-9.60836
▁результатам	-9.60868
▁intestinal	-9.60912
ходе	-9.61035
cause	-9.61114
▁stenosis	-9.6113
▁алгоритм	-9.61141
▁involvement	-9.61156
▁glaucoma	-9.61169
2-	-9.61231
▁среднем	-9.61239
▁де	-9.61257
▁белка	-9.61258
▁advantages	-9.61261
▁индекс	-9.61276
▁membrane	-9.61282
▁vestibular	-9.61317
▁75	-9.61322
те	-9.61428
▁ряда	-9.61543
▁maxill	-9.61557
▁wound	-9.61625
li	-9.61661
▁выявлен	-9.61674
▁remains	-9.61699
▁воспаления	-9.61746
▁повторн	-9.61757
▁ultrasound	-9.61776
ошли	-9.61863
▁рамка	-9.61932
im	-9.61962
▁массы	-9.61971
▁острой	-9.61993
▁intensity	-9.62094
ческой	-9.62135
▁БА	-9.62149
▁support	-9.62177
▁reactions	-9.62218
▁стенки	-9.62346
ко	-9.6235
▁тревоги	-9.62363
▁степень	-9.62386
▁mild	-9.6242
et	-9.62492
16	-9.62521
▁лапароскопическ	-9.62538
▁использовать	-9.62575
▁сочетанн	-9.62595
5%	-9.62669
U	-9.62694
▁инфекции	-9.6274
▁диагноз	-9.62923
▁initial	-9.62933
nd	-9.62948
▁possibilities	-9.62961
▁male	-9.6303
▁trauma	-9.63044
▁Пациенты	-9.63057
▁(5	-9.63129
▁anatomical	-9.63229
▁мышц	-9.63256
▁X	-9.63266
▁ишемического	-9.63357
,8%	-9.63478
▁contribute	-9.63532
же	-9.63568
▁again	-9.63606
▁understanding	-9.63628
▁fluid	-9.63647
ia	-9.63806
W	-9.64122
▁concomitant	-9.64199
ат	-9.64242
▁mechanism	-9.64278
▁патогенезе	-9.64441
▁depressive	-9.64576
▁высокая	-9.64583
▁demonstrate	-9.64636
▁any	-9.64657
▁Bas	-9.64761
▁зрительн	-9.64785
▁strategy	-9.64827
▁признаки	-9.64848
▁implantation	-9.6485
▁intraoperative	-9.6487
▁медико	-9.64913
ince	-9.64963
▁DM	-9.65104
▁weight	-9.65153
▁значения	-9.65349
▁острым	-9.65386
▁change	-9.65414
lo	-9.65434
▁определить	-9.65452
19	-9.65452
▁thrombosis	-9.65453
▁перенесши	-9.65465
ность	-9.6552
53	-9.6555
ина	-9.65652
,3%	-9.65729
▁mutations	-9.6574
▁samples	-9.65912
▁полн	-9.65928
▁=	-9.65932
designed	-9.65937
▁Всем	-9.6603
▁эпилепсии	-9.66084
▁does	-9.66115
▁gender	-9.66197
▁required	-9.66217
▁поражением	-9.66272
▁33	-9.66333
▁provide	-9.66409
▁37	-9.66465
▁regions	-9.66532
▁reported	-9.66555
13	-9.66599
▁структуры	-9.66613
▁медицинских	-9.66622
▁требует	-9.66637
▁include	-9.66691
11	-9.66705
▁relevant	-9.66721
▁regression	-9.66723
▁развитию	-9.66724
▁использовании	-9.66731
из	-9.66761
▁laparoscopic	-9.66766
▁церебральн	-9.66776
based	-9.66814
▁along	-9.66851
▁установлено	-9.66879
▁проведение	-9.67098
▁различной	-9.67121
▁traumatic	-9.67193
▁включен	-9.67236
2,	-9.67303
▁senile	-9.67362
▁foreign	-9.67362
▁significance	-9.67362
ra	-9.67485
▁Moscow	-9.67488
▁carcinoma	-9.67489
ще	-9.67505
uch	-9.67541
▁implant	-9.67644
▁препараты	-9.67654
▁43	-9.67656
▁Выявлено	-9.67738
▁диагноза	-9.67743
▁(3	-9.67805
▁методами	-9.67808
▁(2	-9.67814
▁Использован	-9.67828
▁риском	-9.67841
pathological	-9.68004
▁медицины	-9.68008
▁occurred	-9.68027
▁локализации	-9.68029
▁genes	-9.68036
▁head	-9.681
▁spinal	-9.68187
▁e	-9.68213
▁программы	-9.68257
▁типов	-9.68258
ков	-9.68412
▁para	-9.68436
17	-9.68459
▁2016	-9.68522
▁developing	-9.68554
▁представляет	-9.6858
▁endotheli	-9.68598
▁operation	-9.68618
▁prognostic	-9.68652
▁поверхности	-9.68657
▁reference	-9.68657
▁применении	-9.68663
▁impaired	-9.68667
▁биологическ	-9.68668
▁ч	-9.68672
▁выраженность	-9.68713
assisted	-9.68714
▁organ	-9.68742
▁side	-9.68755
z	-9.68762
▁expert	-9.68763
▁events	-9.68832
▁остром	-9.68904
ющиеся	-9.69006
▁выявлена	-9.69109
▁sinus	-9.6923
ment	-9.69285
▁наружн	-9.69311
▁путем	-9.69311
▁conventional	-9.69341
▁грудн	-9.69341
▁категории	-9.69355
▁measured	-9.69377
▁процессе	-9.69441
▁Ф	-9.6946
▁характеристик	-9.69494
▁agents	-9.69571
▁(8	-9.6961
ку	-9.69637
▁методика	-9.69734
▁научны	-9.69762
У	-9.69968
▁description	-9.69968
▁search	-9.69968
▁difficult	-9.70004
▁randomized	-9.70025
▁solution	-9.70078
ty	-9.70153
▁вторичн	-9.70263
▁U	-9.70338
▁known	-9.70391
ers	-9.70403
ци	-9.70429
2</	-9.70432
▁неблагоприятн	-9.70498
▁комплекса	-9.70544
водится	-9.70632
▁снижению	-9.70634
▁слуха	-9.70655
▁antibodies	-9.70658
▁повышения	-9.70675
▁proved	-9.70683
▁myocardi	-9.70782
▁различными	-9.70891
▁годы	-9.70918
▁каса	-9.71038
▁defects	-9.71055
▁индекса	-9.71131
ma	-9.71166
ul	-9.71175
▁препарат	-9.71224
▁пола	-9.71276
▁видов	-9.71332
▁third	-9.71367
▁проведении	-9.71376
▁Среди	-9.71399
▁interest	-9.71423
▁отмечен	-9.71428
▁ре	-9.71446
▁activation	-9.71485
▁exist	-9.71488
▁показателями	-9.7151
▁determin	-9.71662
▁0	-9.71742
▁last	-9.71755
▁сут	-9.71797
w	-9.71873
▁makes	-9.71917
1)	-9.71929
▁extreme	-9.71968
▁necessity	-9.71968
▁смертности	-9.71968
▁quantitative	-9.71969
▁removal	-9.71995
▁кости	-9.72002
▁другими	-9.72033
▁уха	-9.72052
▁preventive	-9.72057
▁questionnaire	-9.72093
surgical	-9.72159
▁Изучи	-9.72206
▁ведения	-9.72233
=	-9.72365
▁возможно	-9.72372
▁confirm	-9.72448
os	-9.7258
▁критериев	-9.72644
▁мероприятий	-9.72644
▁приступов	-9.72655
▁manifest	-9.72674
-4	-9.7268
▁организации	-9.72681
▁повышенн	-9.72682
▁programs	-9.72684
▁suffering	-9.72727
▁терапевтическ	-9.72785
».	-9.72827
▁individuals	-9.72961
▁his	-9.73028
▁диагностирован	-9.73091
12	-9.73122
▁statistical	-9.73259
▁predict	-9.73274
роме	-9.7333
▁необходимости	-9.73345
ally	-9.73347
▁Parkinson	-9.73357
▁следует	-9.73393
▁colon	-9.73421
▁страдающи	-9.73461
genic	-9.73472
30	-9.73484
▁light	-9.73563
▁sensitivity	-9.73575
la	-9.73658
▁working	-9.73762
▁зубн	-9.73788
▁нарушение	-9.73872
▁investigate	-9.73901
▁corne	-9.73904
▁W	-9.73943
▁estimate	-9.73949
▁улучши	-9.74009
▁брюшн	-9.7402
▁aneurysms	-9.74035
▁патогенетически	-9.74036
▁safe	-9.74049
▁size	-9.74148
▁reaction	-9.74156
▁trials	-9.74162
▁lipid	-9.74255
▁получен	-9.74279
▁52	-9.74341
▁improved	-9.74428
полученных	-9.74431
▁содержание	-9.74589
▁щитовидн	-9.74699
▁implementation	-9.74707
▁investigations	-9.74768
ot	-9.74859
▁объема	-9.74859
,4%	-9.74893
intestinal	-9.74949
▁им	-9.74958
▁undergo	-9.75006
▁free	-9.75073
▁ratio	-9.75096
▁Из	-9.75102
▁b	-9.75128
▁(10	-9.75143
▁n	-9.75154
OR	-9.75189
▁поджелудочн	-9.75393
▁динамика	-9.75393
▁популяции	-9.75393
де	-9.75413
▁сведения	-9.75498
▁provided	-9.75596
▁резекции	-9.7561
▁аневризмы	-9.75654
▁retinal	-9.75655
▁разработка	-9.7568
▁имели	-9.75698
▁структуре	-9.75811
▁развива	-9.75922
▁2015	-9.7606
▁deep	-9.76094
▁difficulties	-9.76101
▁personality	-9.76106
▁adolescents	-9.76183
▁организма	-9.76204
▁wide	-9.76219
▁основн	-9.76285
есмотр	-9.76307
▁снижением	-9.76311
▁давления	-9.76322
▁adults	-9.76518
▁количественн	-9.76595
DM	-9.76663
▁раннем	-9.76721
▁путей	-9.76797
▁periodont	-9.76799
▁2017	-9.76822
▁поведения	-9.76831
▁стороны	-9.76858
огласно	-9.76862
ями	-9.76898
▁част	-9.76903
▁endovascular	-9.76916
▁Авторы	-9.76961
▁год	-9.76976
▁Основн	-9.76982
▁изменение	-9.76994
▁артериальн	-9.77012
▁комплекс	-9.7702
ter	-9.77151
▁50%	-9.77254
▁scales	-9.7732
▁show	-9.77415
▁желудка	-9.77506
▁ишемии	-9.77515
-3	-9.77602
▁advanced	-9.77626
▁влия	-9.77634
▁professional	-9.77682
▁одним	-9.777
▁stimulation	-9.77713
▁сосудистой	-9.77748
▁сахарны	-9.77751
▁диагностическ	-9.77854
▁limb	-9.7797
▁ран	-9.7801
▁препаратами	-9.78019
▁местн	-9.78068
ль	-9.78105
▁background	-9.78221
age	-9.78236
▁child	-9.78281
▁ин	-9.78337
▁restoration	-9.78385
▁характера	-9.78421
▁Во	-9.78477
▁интраоперационн	-9.78542
▁highly	-9.78577
средни	-9.78624
▁39	-9.78635
▁спектра	-9.78667
▁мл	-9.78811
▁isolated	-9.78968
▁Российск	-9.78974
▁экспертн	-9.78989
▁преимущественно	-9.79045
▁estimated	-9.79089
▁complication	-9.79122
▁typical	-9.79123
ized	-9.79155
▁злокачественн	-9.79241
▁2014	-9.79295
ров	-9.79321
▁описан	-9.79323
вшихся	-9.79352
▁действие	-9.79389
▁electro	-9.79433
▁тяжелой	-9.79458
ос	-9.79503
▁compare	-9.79541
oid	-9.79548
▁свидетельствует	-9.79665
▁where	-9.79665
▁published	-9.79673
▁bypass	-9.79678
▁place	-9.79681
▁эпилепсией	-9.79699
▁низкой	-9.79728
▁muscles	-9.79732
▁традиционн	-9.79761
▁examinations	-9.79767
▁мире	-9.79774
▁введения	-9.79818
-6	-9.79934
▁scores	-9.80006
ющих	-9.80007
group	-9.80018
am	-9.80075
▁Х	-9.8012
▁высоким	-9.80142
▁neurodegenerati	-9.80175
ial	-9.80272
ру	-9.80326
▁методик	-9.80335
▁antioxidant	-9.80397
▁верхней	-9.80402
тер	-9.8042
патологических	-9.80559
▁момент	-9.80564
▁r	-9.80626
▁models	-9.80791
▁requires	-9.808
▁syndromes	-9.80888
Ц	-9.80997
▁Предложен	-9.81009
ан	-9.81033
▁timely	-9.81058
▁38	-9.81068
▁morbidity	-9.8113
▁migraine	-9.81132
▁majority	-9.8115
▁антител	-9.81252
▁Re	-9.81262
▁toward	-9.81282
▁Des	-9.8134
▁показали	-9.81468
▁легочн	-9.81555
▁56	-9.81646
▁reports	-9.81703
▁if	-9.81829
▁заболеваемости	-9.8187
▁рекомендации	-9.81874
▁раком	-9.81953
▁85	-9.81986
▁белков	-9.8199
▁выявление	-9.82064
▁разработки	-9.82078
▁дозе	-9.82086
▁regulation	-9.82106
▁original	-9.8215
нг	-9.82167
неврологического	-9.82223
less	-9.82303
▁mono	-9.82323
▁болевого	-9.82336
ации	-9.82405
▁большинств	-9.82497
▁меньше	-9.82578
▁картины	-9.82617
▁aorta	-9.82617
▁obesity	-9.82617
▁критерии	-9.82618
ни	-9.82622
▁центральн	-9.82634
▁преимущества	-9.82634
▁screening	-9.82646
▁traditional	-9.82652
▁principles	-9.82709
▁g	-9.82726
▁эффектов	-9.82769
▁молекулярно	-9.82787
ющего	-9.82911
ac	-9.82912
▁средства	-9.82918
▁Dur	-9.8292
▁preparation	-9.82942
▁sample	-9.83003
▁показал	-9.83119
▁срок	-9.83192
▁облада	-9.83256
▁hav	-9.83268
▁countries	-9.83369
▁Рассматрива	-9.83369
▁anesthesia	-9.83378
▁трех	-9.83382
▁достоверное	-9.83414
▁ранней	-9.8344
ческое	-9.83471
PD	-9.8348
▁51	-9.83522
▁которое	-9.83531
,9%	-9.83558
ta	-9.83563
▁expertise	-9.83575
▁reconstruction	-9.83587
▁обеи	-9.83625
.7%	-9.83648
ase	-9.83707
▁psychiatric	-9.83715
▁rates	-9.83767
▁они	-9.83801
▁доступа	-9.83849
▁cortex	-9.84124
▁pregnancy	-9.84126
▁promising	-9.84126
▁дистальн	-9.84127
▁жидкости	-9.84129
▁кровотока	-9.84207
▁связанных	-9.84334
▁обследованы	-9.84365
▁radical	-9.84375
00	-9.84414
▁w	-9.84429
▁patterns	-9.84475
▁проблеме	-9.8461
▁хронически	-9.84644
▁характеризу	-9.84683
▁reflect	-9.84694
▁ml	-9.84801
▁Scale	-9.8489
▁симптоматики	-9.8489
▁пути	-9.84891
▁consideration	-9.84961
▁этим	-9.84996
▁HIV	-9.85035
▁прогноз	-9.85049
▁63	-9.85107
▁±	-9.85128
▁антиоксидантн	-9.85187
ative	-9.8521
▁э	-9.8526
▁focal	-9.8529
▁cm	-9.85296
CD	-9.85336
op	-9.85394
▁subsequent	-9.85531
▁биологических	-9.85561
▁otitis	-9.85659
▁психического	-9.85662
▁беременности	-9.85664
▁auditory	-9.85709
▁ВИЧ	-9.85781
▁operated	-9.85844
альной	-9.85886
,1%	-9.85889
▁posterior	-9.85897
▁temporal	-9.86042
▁co	-9.86057
▁дальнейше	-9.86135
ряду	-9.86225
ческий	-9.86356
ние	-9.8636
▁индивидуальн	-9.86378
ectomy	-9.86382
▁снизи	-9.8639
▁living	-9.86434
▁Сделан	-9.86434
▁протяжении	-9.86434
▁состоянии	-9.86434
▁better	-9.86434
▁bilateral	-9.86439
▁направления	-9.86445
20	-9.86458
▁улучшения	-9.86472
▁вариантов	-9.8649
▁представления	-9.86589
▁discuss	-9.86609
би	-9.86611
▁AD	-9.86651
ил	-9.86663
▁manifestation	-9.86702
▁profile	-9.86737
▁44	-9.86737
▁нарушением	-9.86756
▁масс	-9.86832
▁име	-9.86865
▁консервативн	-9.86893
▁программ	-9.8692
.5%	-9.86937
▁причины	-9.86965
▁достаточно	-9.87041
▁полученны	-9.87097
бсуждаются	-9.87136
▁наличии	-9.87215
СД	-9.87224
50	-9.87251
▁Дан	-9.87378
лет	-9.87539
▁соответстви	-9.876
ical	-9.87606
▁(4	-9.87609
щ	-9.87612
▁functioning	-9.87634
▁international	-9.87638
▁patho	-9.87692
▁процессы	-9.87706
ген	-9.87792
▁диагностических	-9.87851
▁результат	-9.87939
▁поиск	-9.88002
▁состояний	-9.88003
▁benign	-9.88003
▁lack	-9.88004
▁крайне	-9.88008
ce	-9.88011
▁partial	-9.88018
▁position	-9.8806
▁occlusion	-9.88128
▁очагов	-9.88148
▁кислоты	-9.88231
▁view	-9.88248
▁анти	-9.88451
one	-9.88529
▁ones	-9.88567
mean	-9.88578
▁(12	-9.88644
ак	-9.88748
▁real	-9.88783
▁Паркинсона	-9.88796
▁реакций	-9.88796
▁hours	-9.88799
▁различий	-9.88802
▁dependence	-9.88817
▁ранее	-9.88846
▁функциональных	-9.88887
▁consequences	-9.88991
▁TNF	-9.89087
терапии	-9.89127
of	-9.89139
▁segment	-9.89181
▁(20	-9.89232
▁2018	-9.89244
▁когнитивного	-9.89249
▁веществ	-9.89251
нт	-9.89262
40	-9.89293
ph	-9.8941
ту	-9.89571
▁Treatment	-9.89596
▁hundred	-9.89596
▁публикаций	-9.89596
▁частоту	-9.89645
▁показано	-9.89671
▁решения	-9.89681
▁organization	-9.89714
▁facial	-9.89806
▁пре	-9.89822
▁remission	-9.89842
тор	-9.89865
▁оценива	-9.8989
▁приводят	-9.89903
▁венозн	-9.89925
▁описаны	-9.89928
▁proteins	-9.89949
вести	-9.90076
тся	-9.90091
▁month	-9.90187
▁ответ	-9.90196
▁рассматривать	-9.90353
▁Статья	-9.90403
▁somatic	-9.90404
▁(7	-9.90468
▁HER	-9.90482
▁слухов	-9.90496
▁безопасность	-9.905
▁ЦНС	-9.90502
.8%	-9.90525
▁использованы	-9.90626
▁64	-9.90645
▁хирургическое	-9.90646
ian	-9.90659
▁исхода	-9.90693
▁мы	-9.90701
▁психопатологи	-9.90806
▁характеристики	-9.90827
З	-9.90885
▁Вывод	-9.90913
like	-9.90967
▁оптическ	-9.91068
▁редко	-9.91079
2%	-9.91163
▁шизофренией	-9.91216
▁valve	-9.91216
▁imaging	-9.91218
▁occurrence	-9.91239
▁compute	-9.91257
лен	-9.91282
▁аспекты	-9.91283
▁обмена	-9.91319
▁диабетом	-9.91328
▁IgG	-9.91337
▁радикальн	-9.91449
овой	-9.91456
dependent	-9.91514
▁formed	-9.91532
▁стресса	-9.91553
▁neurons	-9.91593
▁needed	-9.91664
▁Метод	-9.91725
▁выбор	-9.91804
▁media	-9.91824
induced	-9.91852
▁летальность	-9.91931
▁социально	-9.92028
▁indices	-9.92035
▁доброкачественн	-9.92035
▁caries	-9.9204
сосудистой	-9.92058
▁нейронов	-9.92069
cy	-9.92092
▁family	-9.92136
▁cervical	-9.92166
▁нескольк	-9.92257
▁joint	-9.92308
▁hernia	-9.92309
▁gland	-9.92317
чи	-9.9233
▁periods	-9.92446
▁phase	-9.9258
▁вегетативн	-9.92617
▁предложен	-9.92634
psychological	-9.92689
▁poor	-9.92738
▁эффекта	-9.92823
▁происходит	-9.92862
▁alternative	-9.92864
▁обсуждение	-9.92948
▁physiological	-9.92978
,5%)	-9.92979
▁ДНК	-9.92982
▁высокий	-9.92999
▁зоны	-9.93015
▁set	-9.93064
▁62	-9.93084
▁РФ	-9.9309
▁(6	-9.93153
▁soft	-9.93213
▁системе	-9.93221
том	-9.93253
▁Он	-9.93421
▁controls	-9.93502
ированных	-9.93518
▁survey	-9.93523
▁эффективным	-9.93611
▁основ	-9.93684
▁transplantation	-9.93708
▁молодых	-9.9373
<0,05).	-9.93794
▁reducing	-9.93799
▁подходов	-9.93818
▁посвященн	-9.93839
▁h	-9.93898
▁hormone	-9.94042
tion	-9.94115
▁др	-9.94274
▁extra	-9.94322
associated	-9.94397
▁improves	-9.94423
75	-9.94534
▁рассматривается	-9.94552
▁черепа	-9.94573
▁autoimmune	-9.94607
▁root	-9.94654
led	-9.94679
ble	-9.94681
,6%)	-9.94736
▁факторами	-9.94791
▁reviews	-9.94864
▁ответа	-9.94901
▁всем	-9.94911
▁reveal	-9.94919
▁infectious	-9.9495
.3%	-9.94955
▁ИБС	-9.9497
sh	-9.94998
▁even	-9.9507
▁pharmacological	-9.9518
ция	-9.95187
▁drainage	-9.95383
▁vitro	-9.95383
▁клетки	-9.95383
▁tooth	-9.95384
▁greater	-9.95426
▁основан	-9.95434
▁taken	-9.95457
▁неврологических	-9.95483
▁свойств	-9.95531
▁целом	-9.95602
первые	-9.95613
ex	-9.95645
▁example	-9.95687
▁polymorphism	-9.95689
ев	-9.95791
▁рост	-9.95802
▁di	-9.95847
IS	-9.95916
▁defect	-9.95927
▁эффективны	-9.95993
▁correct	-9.96058
▁деменции	-9.96238
▁позволит	-9.96238
▁возможностей	-9.96239
▁пере	-9.96241
▁baseline	-9.96241
▁still	-9.96243
▁пациенток	-9.96246
▁соответствующи	-9.96256
▁цитокинов	-9.96294
▁State	-9.96331
motor	-9.96349
▁autonomic	-9.96383
▁заболеваниях	-9.96407
▁отдельных	-9.96429
▁рассеянн	-9.9648
▁варианты	-9.96488
▁рандомизированн	-9.96507
▁Mo	-9.96516
▁имеющих	-9.96588
ate	-9.96703
▁рецидива	-9.96705
▁прогноза	-9.96705
▁коронарн	-9.96776
▁53	-9.96825
▁IS	-9.96904
▁иммуно	-9.96957
III	-9.97036
ющейся	-9.97063
▁Department	-9.971
▁новые	-9.97109
▁сравнительн	-9.97211
▁performance	-9.9725
▁фактором	-9.9725
▁(19	-9.97264
▁underlyi	-9.9737
ист	-9.97401
левой	-9.97423
▁теста	-9.97427
70	-9.97452
▁EEG	-9.97497
▁points	-9.97564
ции	-9.97709
▁приема	-9.97733
me	-9.97764
▁последующе	-9.97769
▁ишемическ	-9.97795
▁возможн	-9.97801
▁summarize	-9.97844
▁ультразвуков	-9.9791
itis	-9.97965
▁проводилась	-9.97969
прогрессирования	-9.97974
▁ниже	-9.97976
▁57	-9.9802
▁достижения	-9.9802
▁introduction	-9.98033
▁получавших	-9.98086
ской	-9.98138
▁affective	-9.98172
▁курса	-9.9819
▁диабета	-9.9821
▁thoracic	-9.98222
▁infarction	-9.98243
▁определенн	-9.98251
▁мышечн	-9.9832
▁лазерн	-9.9834
▁вида	-9.98508
▁water	-9.98525
▁един	-9.98554
▁improv	-9.98569
ant	-9.98674
▁close	-9.98762
▁Institute	-9.98847
▁however	-9.98847
▁distal	-9.98849
▁последних	-9.98867
▁100%	-9.98905
▁профиля	-9.98921
.4%	-9.98961
▁впервые	-9.98965
▁testing	-9.99002
▁affected	-9.99161
▁72	-9.99169
артериальной	-9.99272
ov	-9.99326
▁access	-9.99338
▁против	-9.99356
ческим	-9.99387
▁1,	-9.99389
em	-9.99394
дифференциальной	-9.99416
▁ни	-9.99453
▁shows	-9.99524
онной	-9.99687
▁atherosclerosis	-9.99731
▁внимания	-9.99731
▁два	-9.99737
▁формой	-9.99745
▁вопрос	-9.99747
▁оказания	-9.99756
▁больные	-9.99762
▁obstruction	-9.99774
▁specialists	-9.99837
▁сочетание	-9.99839
he	-9.99845
▁регуляции	-9.99874
сосудистых	-9.9989
▁61	-9.99922
▁investigated	-9.99947
▁DNA	-10.0006
га	-10.002
▁behavioral	-10.0023
▁аппарата	-10.0041
▁implants	-10.0049
проанализированы	-10.005
▁врача	-10.0052
вер	-10.0057
▁thickness	-10.0062
▁болезней	-10.0062
▁etc	-10.0064
▁2019	-10.0067
▁симптомы	-10.0068
▁1)	-10.0076
▁instrumental	-10.0078
▁1,5	-10.0086
▁опыта	-10.0088
▁психологическ	-10.0095
▁adult	-10.0098
медицинского	-10.0108
4)	-10.0119
▁hypo	-10.012
▁анализе	-10.0141
▁comorbid	-10.0151
▁Special	-10.0153
▁проводилось	-10.0153
▁serious	-10.0153
▁новообразования	-10.0153
▁сопутствующи	-10.0153
▁Authors	-10.0156
▁привел	-10.0157
▁удаления	-10.0157
▁magnetic	-10.0158
▁точки	-10.0159
▁работ	-10.0161
▁circulation	-10.0165
▁mechanical	-10.0169
▁выявить	-10.0173
▁cornea	-10.0176
un	-10.0176
ихся	-10.0179
▁экспертизы	-10.018
▁внутренни	-10.0181
▁headache	-10.0188
▁vein	-10.0189
оп	-10.019
▁вещества	-10.0197
▁virus	-10.0213
▁болев	-10.0223
▁пациентами	-10.0227
▁includes	-10.023
э	-10.0238
▁insufficiency	-10.0243
▁Also	-10.0243
▁University	-10.0244
▁составляет	-10.0244
▁первичн	-10.0245
▁49	-10.0246
▁центральной	-10.0246
▁cellular	-10.0247
▁тип	-10.0247
пер	-10.0247
▁ассоциирован	-10.0249
▁линии	-10.0251
▁проблем	-10.0255
▁фармакологическ	-10.0257
▁54	-10.0263
ек	-10.0265
▁predictors	-10.0266
▁субъективн	-10.0266
▁graft	-10.0272
II	-10.0275
sis	-10.0278
▁issue	-10.0281
▁frontal	-10.029
▁4-	-10.0291
▁см	-10.0305
▁пол	-10.0308
▁differ	-10.0317
▁highlight	-10.0319
▁sex	-10.0322
4-	-10.0328
▁ability	-10.0328
▁maximum	-10.0335
▁lymph	-10.0336
▁overall	-10.0336
▁исходов	-10.0341
▁имплантации	-10.0351
▁Отмечено	-10.0356
▁связано	-10.0358
▁аневризм	-10.036
ИИ	-10.036
▁Bo	-10.0362
▁Данные	-10.0367
связанные	-10.0378
▁vitamin	-10.039
▁быстро	-10.0392
▁computer	-10.0403
X	-10.0406
▁данном	-10.0416
.9%	-10.0419
▁simultaneous	-10.042
ism	-10.0428
▁Two	-10.0428
▁memory	-10.0428
▁речи	-10.0428
▁узлов	-10.043
▁ранни	-10.0434
▁оценку	-10.0437
▁больной	-10.0441
ста	-10.0441
▁fatal	-10.0442
▁дыхательн	-10.0444
▁10-	-10.0446
▁лабораторных	-10.0447
▁bio	-10.0457
▁ДИ	-10.0463
▁часть	-10.0487
▁infections	-10.0495
▁previous	-10.0509
во	-10.051
▁natural	-10.0521
▁Moreover	-10.0521
▁позвоночника	-10.0521
▁endogenous	-10.0521
▁peculiarities	-10.0522
▁коры	-10.0522
▁встречаются	-10.0523
▁авторов	-10.0523
▁обусловленн	-10.0523
▁специалистов	-10.0524
CT	-10.0526
▁10%	-10.0529
▁обсуждаются	-10.0531
▁vision	-10.0534
▁клинически	-10.0544
.5%)	-10.0544
▁болезнь	-10.0545
▁Ki	-10.0546
удовлетворительн	-10.0546
▁гене	-10.0552
▁комбинаци	-10.0553
-20	-10.0559
▁активн	-10.0562
line	-10.0566
▁47	-10.0572
▁спектр	-10.0577
▁veins	-10.0578
▁поражение	-10.0591
▁установлен	-10.0603
▁шкал	-10.0611
▁conservative	-10.0616
▁cytoflavin	-10.0616
▁replacement	-10.0616
▁spine	-10.0616
,7%)	-10.0619
▁раннего	-10.0619
▁mucosa	-10.0621
▁исследованиях	-10.0621
▁fibroblasts	-10.0621
ig	-10.063
▁neoplasms	-10.0639
▁прогностическ	-10.0639
▁elements	-10.0644
▁origin	-10.0645
▁связан	-10.0645
▁воспалительных	-10.0649
▁примере	-10.0654
▁suggested	-10.066
▁con	-10.0663
▁дальнейши	-10.0667
▁лечебно	-10.067
▁пациент	-10.0675
▁изменениями	-10.0683
▁establish	-10.0694
▁специфически	-10.0698
▁indicated	-10.0699
▁dis	-10.07
▁Особо	-10.0706
ения	-10.0708
▁зависит	-10.0711
▁immediate	-10.0711
▁distribution	-10.0711
▁marked	-10.0712
▁prospective	-10.0719
most	-10.072
operative	-10.0725
▁concentrations	-10.0726
▁дефекта	-10.0727
▁technical	-10.0728
▁важно	-10.0729
▁died	-10.073
▁independent	-10.0733
▁течением	-10.0733
▁fractures	-10.0737
передней	-10.0743
▁ЭЭГ	-10.0758
имо	-10.0777
▁resulted	-10.0779
,3%)	-10.0783
de	-10.0784
60	-10.0794
▁cord	-10.0797
▁дыхания	-10.0807
▁obstructive	-10.0807
▁stem	-10.0807
▁transformation	-10.0808
▁длительности	-10.0808
▁выживаемость	-10.0811
14	-10.0811
▁biopsy	-10.0818
▁Alzheimer	-10.0819
▁характерны	-10.0821
▁treating	-10.0828
co	-10.0829
▁коморбидн	-10.0842
▁игра	-10.0843
▁ле	-10.0847
▁difference	-10.085
▁котором	-10.0866
▁al	-10.087
▁variant	-10.0872
делено	-10.0877
▁clinically	-10.088
28	-10.088
▁retrospective	-10.0892
▁preoperative	-10.0893
▁периферически	-10.09
▁наличия	-10.0904
▁кишечника	-10.0904
▁периферической	-10.0914
▁формировании	-10.0918
▁степенью	-10.0924
▁67	-10.0934
▁магнитно	-10.0935
▁ХОБЛ	-10.094
▁Выводы	-10.094
▁VEGF	-10.0941
▁base	-10.095
ofacial	-10.0952
▁амбулаторн	-10.0955
▁состав	-10.0955
▁такие	-10.0959
▁past	-10.0961
▁направленн	-10.0967
▁hand	-10.0968
успешного	-10.0971
▁58	-10.0971
ду	-10.0975
▁гистологическ	-10.0988
▁rapid	-10.099
▁achieve	-10.0993
▁120	-10.0995
▁мягки	-10.0999
▁значений	-10.1002
▁above	-10.1002
▁variability	-10.1002
▁remote	-10.1002
▁обратн	-10.1002
▁параметры	-10.1002
▁thus	-10.1002
▁subjective	-10.1003
▁тонк	-10.1003
▁recorded	-10.1004
▁пост	-10.1004
▁экспертиз	-10.1016
▁whole	-10.1017
▁mexidol	-10.1021
▁показания	-10.1029
ирования	-10.1029
oma	-10.1031
ray	-10.104
▁одно	-10.1042
▁fistula	-10.1043
▁лица	-10.1043
▁повыси	-10.1048
чувствительности	-10.1054
ab	-10.1056
<0,05)	-10.1061
▁механическ	-10.1067
▁contain	-10.1071
ение	-10.1084
▁кишечн	-10.1085
▁явля	-10.1085
▁81	-10.1091
▁observations	-10.1096
▁проводим	-10.1098
▁reliable	-10.1101
▁оригинальн	-10.1101
▁With	-10.1101
▁persistent	-10.1102
▁отделов	-10.1103
▁когнитивные	-10.1112
▁лучев	-10.1116
▁эмоциональн	-10.1118
▁резекция	-10.112
▁способ	-10.112
▁До	-10.1123
▁вклад	-10.113
▁become	-10.114
медицинских	-10.114
резонансн	-10.1142
▁мужчины	-10.1146
0,	-10.1152
▁dynamic	-10.1153
▁эффективно	-10.1156
▁регресс	-10.1186
▁character	-10.1188
▁спинно	-10.1189
▁76	-10.1191
▁fat	-10.12
▁Surgical	-10.1201
▁tolerability	-10.1201
▁практики	-10.1201
▁stable	-10.1202
▁компонентов	-10.1204
.7%)	-10.1207
▁увеличения	-10.121
сть	-10.1213
▁class	-10.1216
ск	-10.122
intracranial	-10.1221
min	-10.1226
▁внутренней	-10.1226
МС	-10.1227
▁вмешательство	-10.1237
atic	-10.1238
▁department	-10.1247
AD	-10.125
▁нами	-10.125
ology	-10.1252
▁группой	-10.126
▁побочны	-10.1266
▁пазух	-10.1266
pro	-10.1266
▁chemical	-10.1271
▁require	-10.1279
▁experts	-10.1286
▁КТ	-10.1292
мл	-10.13
▁восстановление	-10.13
▁neuroimaging	-10.1302
▁Одним	-10.1302
▁взаимодействия	-10.1302
▁технологии	-10.1302
▁diabetic	-10.1302
▁Postoperative	-10.1302
▁применению	-10.1303
▁интенсивности	-10.1305
нных	-10.1305
▁другие	-10.1307
▁2013	-10.1307
▁specificity	-10.1309
▁glucose	-10.1311
▁назначения	-10.1315
▁production	-10.1317
▁критериям	-10.1319
▁defined	-10.1324
▁pituitary	-10.133
▁optic	-10.133
▁ways	-10.1341
▁marker	-10.135
specific	-10.1359
ability	-10.1378
▁receptor	-10.1379
▁речев	-10.1387
▁психо	-10.139
▁длительность	-10.1393
▁Чере	-10.1394
▁later	-10.1399
ба	-10.1401
▁enamel	-10.1404
▁pancreatitis	-10.1404
▁клиническую	-10.1404
цереброваскулярн	-10.1404
▁contribution	-10.1405
▁adaptation	-10.1405
▁существующи	-10.1406
▁correlated	-10.1407
▁сустава	-10.1408
▁летальн	-10.1414
▁социальной	-10.1415
21	-10.1415
▁статус	-10.1415
▁contrast	-10.1415
▁оказывает	-10.1416
▁обнаружено	-10.1419
▁74	-10.142
зависим	-10.1425
▁частоте	-10.1427
▁adrenal	-10.1433
ok	-10.1443
▁последующим	-10.1447
▁б	-10.1449
▁point	-10.145
▁отмеча	-10.145
▁recurrence	-10.1452
▁zone	-10.1452
osis	-10.1462
▁основным	-10.1468
патологического	-10.1474
ирование	-10.1478
di	-10.1489
4,	-10.149
AS	-10.1496
личие	-10.1503
▁conduct	-10.1503
▁осуществля	-10.1503
▁Health	-10.1507
▁cataract	-10.1507
▁neck	-10.1507
▁динамику	-10.1507
▁guidelines	-10.1507
▁ремиссии	-10.1507
▁личности	-10.1507
▁скорости	-10.1507
▁mixed	-10.1507
▁эпителия	-10.1509
▁target	-10.151
▁материалов	-10.1511
▁вариант	-10.1518
жа	-10.1524
▁epileptic	-10.1531
▁АД	-10.1533
ви	-10.1543
▁этапах	-10.1543
ич	-10.1546
функционирования	-10.1554
▁200	-10.1554
нии	-10.1556
▁conclusion	-10.1557
▁проблема	-10.1557
▁морфологических	-10.156
▁физически	-10.1566
▁вызванн	-10.1574
▁изучени	-10.1578
уд	-10.1583
сахарного	-10.1585
▁кислот	-10.159
RS	-10.1591
▁take	-10.1603
▁желудочно	-10.1603
▁enrolled	-10.1611
▁extent	-10.1611
▁knowledge	-10.1611
▁взаимосвязи	-10.1611
▁госпитализации	-10.1612
▁Федерации	-10.1613
▁females	-10.1616
▁prospects	-10.1616
▁создания	-10.1618
▁Currently	-10.1618
▁реализации	-10.1619
▁наблюдали	-10.1621
▁подготовки	-10.1621
ating	-10.1622
stroke	-10.1639
▁MMSE	-10.1644
▁интерес	-10.1648
▁66	-10.165
▁viral	-10.1654
▁vs	-10.1655
▁occur	-10.1662
▁epithelial	-10.1662
▁protocol	-10.1662
▁внутри	-10.1674
▁reviewed	-10.168
ик	-10.1695
▁опухоль	-10.1704
ad	-10.1705
▁6-	-10.1705
▁2)	-10.1712
▁информации	-10.1717
▁полиморфн	-10.1717
▁проводить	-10.1717
▁oxidative	-10.1717
▁together	-10.1717
▁ENT	-10.1718
▁seen	-10.1718
▁лиш	-10.1722
▁comorbidity	-10.1729
▁grade	-10.1731
▁миров	-10.1732
▁формами	-10.1734
▁склероза	-10.1735
▁optical	-10.1738
ющая	-10.1747
▁MMP	-10.1747
тов	-10.1749
▁дифференциальн	-10.1753
▁тяжелых	-10.1755
▁острых	-10.176
▁COPD	-10.1761
▁either	-10.1769
▁personal	-10.1775
▁раздел	-10.1778
▁canal	-10.1783
▁59	-10.1787
▁когнитивн	-10.1789
са	-10.1789
▁сегмента	-10.1794
бр	-10.1799
▁Отмечен	-10.1801
▁тяжел	-10.1813
▁collagen	-10.1814
еще	-10.1815
,8%)	-10.182
▁толст	-10.1823
▁immunity	-10.1823
▁обучения	-10.1823
▁synthesis	-10.1823
▁носов	-10.1824
▁черепно	-10.1824
▁Center	-10.1824
три	-10.1829
▁старши	-10.1832
▁intoxication	-10.1832
▁Pro	-10.1833
▁Neuro	-10.1835
ml	-10.1844
▁antidepressants	-10.1846
▁ex	-10.1853
traumatic	-10.1855
▁показало	-10.1857
▁medications	-10.1862
ctal	-10.1863
active	-10.1868
▁отдаленны	-10.1872
▁инсульт	-10.1873
▁interaction	-10.1876
▁services	-10.1877
▁68	-10.1884
.3%)	-10.1904
▁высоко	-10.1909
▁receptors	-10.1913
▁males	-10.1918
сп	-10.1921
▁практику	-10.1922
mortem	-10.1931
▁domestic	-10.1931
▁phenomenon	-10.1931
▁cohort	-10.1931
▁fibrosis	-10.1931
▁biochemical	-10.1931
▁tactics	-10.1931
▁недостаточно	-10.1931
▁сво	-10.1931
▁immunological	-10.1931
▁bacterial	-10.1932
▁конечности	-10.1932
▁механизм	-10.1932
▁встречается	-10.1933
▁дефектов	-10.1934
▁отмечается	-10.1935
▁костей	-10.1935
▁молодого	-10.1937
▁определены	-10.1937
▁atypical	-10.1938
▁иммунитета	-10.1939
БП	-10.1954
▁radiation	-10.1954
▁situation	-10.1955
▁min	-10.1956
▁Про	-10.1961
лицев	-10.1963
ting	-10.1967
▁substances	-10.1967
▁положительно	-10.197
▁эндогенн	-10.197
▁злокачественных	-10.1988
▁тест	-10.1993
▁service	-10.1998
▁научно	-10.2007
24	-10.2009
кор	-10.2021
▁balance	-10.2021
▁реабилитационн	-10.2022
▁98	-10.2024
▁lateral	-10.2028
no	-10.2031
▁модель	-10.2037
▁vivo	-10.2039
▁тканях	-10.2039
▁рекомендаций	-10.204
▁предоперационн	-10.204
▁generalized	-10.2041
▁обзора	-10.2043
▁стресс	-10.2045
фи	-10.2047
▁inferior	-10.2051
▁изучены	-10.2051
▁исследован	-10.2053
▁back	-10.2055
▁matrix	-10.2057
▁(95%	-10.2057
▁способа	-10.2058
▁studying	-10.2058
▁частотой	-10.2068
логи	-10.2069
мер	-10.2073
▁gastric	-10.2075
▁плазме	-10.2076
18	-10.2078
▁клиническими	-10.2079
▁des	-10.208
▁мал	-10.2082
▁мере	-10.2089
▁отмечены	-10.209
▁большинства	-10.21
80	-10.2117
▁значительн	-10.2125
-9	-10.2125
▁maintain	-10.2132
5)	-10.2142
▁повышает	-10.2144
▁brief	-10.2149
▁comparable	-10.2149
▁emergency	-10.2149
▁global	-10.2149
▁proportion	-10.2149
▁Оценить	-10.2149
▁динамике	-10.2149
▁informative	-10.2149
▁planning	-10.2149
▁летальности	-10.2152
▁strategies	-10.2152
▁prolonged	-10.2153
▁патологически	-10.216
▁один	-10.2161
▁зуба	-10.2161
даже	-10.2165
-1,	-10.2167
▁синдромов	-10.2168
▁инсультом	-10.2171
IV	-10.2176
▁влияни	-10.2183
.6%)	-10.2188
▁дня	-10.2192
▁влияющи	-10.2194
▁состава	-10.2196
▁использован	-10.2202
▁four	-10.2212
▁группами	-10.2213
yl	-10.2232
▁достоверн	-10.2242
▁реальн	-10.2244
▁examine	-10.2245
▁poly	-10.2254
▁Among	-10.226
▁woman	-10.226
▁клиническая	-10.226
▁tuberculosis	-10.226
▁гипертензии	-10.2261
▁служит	-10.2263
▁тестов	-10.2273
▁тракта	-10.2274
▁ритма	-10.2289
▁cytokines	-10.229
▁локальн	-10.2296
▁genotype	-10.2305
▁эндотелиальн	-10.2307
ОН	-10.2311
▁активно	-10.2314
▁injections	-10.2317
ap	-10.232
▁вены	-10.2328
▁включал	-10.2345
ated	-10.2346
▁своевременно	-10.235
▁toxic	-10.2352
▁хирургическом	-10.236
▁layer	-10.2361
▁full	-10.2366
▁ensure	-10.237
69	-10.237
▁Republic	-10.2373
▁larynx	-10.2373
▁встречаемости	-10.2373
▁decline	-10.2373
▁residual	-10.2373
▁minutes	-10.2373
▁новообразований	-10.2373
▁country	-10.2373
▁secretion	-10.2373
ера	-10.2374
▁памяти	-10.2374
44	-10.2374
▁sinuses	-10.2377
▁значимость	-10.2379
▁education	-10.2384
▁перспективы	-10.2385
▁сравнительный	-10.2386
▁widely	-10.2392
▁препаратом	-10.2408
▁Частот	-10.241
сут	-10.241
▁reasons	-10.2411
▁deal	-10.2414
▁отечественной	-10.2417
▁судебной	-10.242
▁свойства	-10.2424
▁bones	-10.2429
▁geriatric	-10.243
▁question	-10.2431
▁occurs	-10.2431
▁ИЛ	-10.2433
овых	-10.2436
ост	-10.2437
▁рецепторов	-10.2444
ровень	-10.2455
▁преобладание	-10.2457
▁органа	-10.247
▁AF	-10.2473
ist	-10.2474
▁передне	-10.2474
ox	-10.2477
▁2010	-10.2478
▁latter	-10.2486
▁инвалидизации	-10.2486
▁очередь	-10.2487
▁профилактике	-10.2489
▁обследованных	-10.2491
▁указанн	-10.2491
8±	-10.2493
=1	-10.2496
-17	-10.2498
ация	-10.2498
▁доби	-10.2498
▁150	-10.2498
▁organism	-10.2499
▁hemorrhagic	-10.2502
чен	-10.2505
▁laryngeal	-10.2511
▁(9	-10.2516
про	-10.2517
▁этапа	-10.2523
OS	-10.2526
▁вероятность	-10.2529
▁clinic	-10.2531
,2%)	-10.2536
ide	-10.2537
▁выполнены	-10.2541
▁кон	-10.2542
▁fact	-10.2543
▁outpatient	-10.2547
▁doses	-10.255
ируются	-10.2554
▁дает	-10.2554
ющееся	-10.2561
▁economic	-10.2563
▁данными	-10.258
▁бы	-10.2585
22	-10.2586
учить	-10.2587
▁лазерной	-10.2588
▁зависимость	-10.2589
▁wounds	-10.259
31	-10.2595
▁slow	-10.2599
▁asthma	-10.2599
▁purulent	-10.2601
▁Альцгеймера	-10.2601
▁urgent	-10.2601
▁framework	-10.2601
▁шеи	-10.2601
▁microscopy	-10.2601
▁few	-10.2601
▁нервов	-10.2604
▁должны	-10.2604
▁глаукомы	-10.2605
▁endo	-10.2606
▁2012	-10.2607
▁гемостаза	-10.2608
▁генетических	-10.2609
▁доли	-10.261
▁новой	-10.2613
рон	-10.2615
▁учитывать	-10.2619
ung	-10.2619
ER	-10.2622
▁верхни	-10.2626
▁photo	-10.2628
27	-10.2632
▁compris	-10.2634
▁варианта	-10.2634
БА	-10.2636
▁design	-10.2637
▁технически	-10.2638
▁доступ	-10.264
lu	-10.2642
▁focus	-10.2648
▁операция	-10.2649
▁cross	-10.2654
and	-10.2659
cell	-10.2662
рез	-10.2662
▁минимально	-10.267
▁дис	-10.268
ге	-10.2684
6)	-10.2686
▁мембран	-10.2687
.1%	-10.2693
▁нескольки	-10.27
▁осложненн	-10.2707
q	-10.2713
▁78	-10.2715
▁Surgery	-10.2717
▁destruction	-10.2717
▁modified	-10.2717
▁resonance	-10.2717
▁сегодняшн	-10.2718
▁favorable	-10.2718
▁сочетания	-10.2718
▁carry	-10.2718
▁трудности	-10.2718
▁кровотечения	-10.2719
▁define	-10.2721
▁registered	-10.2723
▁взаимосвязь	-10.2723
нию	-10.2726
▁previously	-10.2733
iv	-10.2739
▁2020	-10.2747
▁score	-10.2747
▁сердечной	-10.2763
▁операционн	-10.2764
▁inhibitors	-10.2766
ax	-10.2775
▁определени	-10.2775
▁морфологические	-10.2776
2).	-10.2782
▁почечн	-10.2784
ального	-10.2785
▁научной	-10.2786
об	-10.2788
▁заболеванием	-10.2788
▁cost	-10.2793
▁длин	-10.2795
▁специальн	-10.2798
▁выполняли	-10.2806
▁методике	-10.2811
▁эффекты	-10.2814
мозгов	-10.2819
therapeutic	-10.2821
▁(17	-10.2827
99	-10.283
▁analyzes	-10.2832
▁освещен	-10.2833
▁vertigo	-10.2835
▁skull	-10.2835
▁childhood	-10.2835
▁Therefore	-10.2836
▁общ	-10.284
▁pathologies	-10.2843
▁essential	-10.2845
▁стадиях	-10.285
▁оперированных	-10.2851
▁активации	-10.2853
▁отношения	-10.2855
con	-10.286
ton	-10.2863
kg	-10.2866
▁stent	-10.287
▁конкретн	-10.287
▁био	-10.2872
cl	-10.2879
▁ocular	-10.288
ке	-10.288
челюстно	-10.2884
▁relation	-10.2884
▁опросника	-10.2885
free	-10.289
▁яви	-10.289
▁device	-10.2899
▁pattern	-10.29
▁73	-10.2901
▁parts	-10.2905
▁injection	-10.2907
▁mutation	-10.2914
акже	-10.292
▁progress	-10.2921
▁поли	-10.2931
▁уменьшени	-10.2933
ogenic	-10.2941
▁умеренн	-10.2942
▁гипофиза	-10.2942
▁neuron	-10.2948
▁Данн	-10.295
▁term	-10.2952
▁Results	-10.2954
▁herein	-10.2954
▁выживаемости	-10.2954
▁ходьбы	-10.2954
▁usual	-10.2954
▁national	-10.2954
▁selection	-10.2955
▁neuroprotective	-10.2955
▁полностью	-10.2956
▁обеспечения	-10.2956
▁образцов	-10.2956
▁administered	-10.2958
▁концепции	-10.2961
▁melatonin	-10.2962
▁Europe	-10.2964
▁pathogenic	-10.2966
▁insomnia	-10.2967
▁статьи	-10.2972
▁МКБ	-10.2981
▁84	-10.2983
▁около	-10.2984
gen	-10.2995
▁стационаре	-10.3002
▁making	-10.3005
tin	-10.301
<0,01)	-10.3012
focal	-10.3012
▁предложенн	-10.3016
▁схем	-10.3017
34	-10.3019
▁rupture	-10.3019
▁обои	-10.3028
▁курс	-10.3034
▁дефицит	-10.3045
7%	-10.305
▁79	-10.3051
▁проблемой	-10.3056
▁Эти	-10.3061
▁clear	-10.3061
▁эпидемиологи	-10.3064
▁83	-10.3068
▁retina	-10.3071
▁повседневн	-10.3075
▁future	-10.3075
▁how	-10.3075
▁complaints	-10.3075
▁Лечение	-10.3075
▁critical	-10.3075
▁Mean	-10.3075
▁фибробластов	-10.3075
огда	-10.3076
▁начальн	-10.3076
▁фактор	-10.3076
▁улучшению	-10.3078
▁нормализаци	-10.3078
▁нового	-10.3081
▁Больные	-10.3082
rd	-10.3082
▁способов	-10.3084
▁различн	-10.3084
▁сосудистых	-10.3087
▁мутации	-10.3094
▁technology	-10.3096
▁involv	-10.3097
-2,	-10.31
▁Th	-10.3107
,9%)	-10.3114
АГ	-10.3116
▁корреляционн	-10.3116
AP	-10.312
25	-10.3122
per	-10.3123
▁форма	-10.3133
▁Прив	-10.3138
▁либо	-10.3147
▁(13	-10.3156
%)	-10.3161
▁правой	-10.3161
▁preparations	-10.3163
▁редкое	-10.3166
rom	-10.3176
▁внедрени	-10.3178
▁лекарственны	-10.3182
by	-10.3183
▁балла	-10.3184
▁диагностически	-10.3188
=2	-10.3189
▁apoptosis	-10.3197
▁bowel	-10.3197
▁pandemic	-10.3197
▁dissection	-10.3197
▁continuous	-10.3197
▁pediatric	-10.3197
▁ЛОР	-10.3197
▁работников	-10.3198
▁показаний	-10.3198
▁vary	-10.3198
уже	-10.3203
▁differentiation	-10.3205
▁техники	-10.3208
form	-10.3221
▁госпитализ	-10.3222
▁inclusion	-10.3222
сосудистого	-10.323
▁разработк	-10.3236
▁ото	-10.3236
-67	-10.3245
▁раны	-10.3249
▁физической	-10.3252
from	-10.3262
ши	-10.3263
▁ulcer	-10.3271
▁низким	-10.3284
ического	-10.3287
▁SP	-10.3304
▁гипо	-10.3304
фор	-10.3305
▁depends	-10.331
▁полов	-10.3319
▁нежелательны	-10.332
▁трахеи	-10.332
▁satisfactory	-10.332
▁Эффективность	-10.3321
▁hospitalization	-10.3323
▁тенденция	-10.3324
fer	-10.3325
▁воздействие	-10.3325
▁клетках	-10.3326
▁lymphoma	-10.3328
клеточн	-10.3328
▁ventricul	-10.3332
▁macula	-10.3333
▁базе	-10.3333
▁актуальной	-10.3333
левого	-10.3339
.2%)	-10.334
▁режиме	-10.3341
▁pai	-10.3351
▁значимые	-10.3353
ник	-10.3362
▁appropriate	-10.3365
▁витамина	-10.3371
▁ключев	-10.3375
▁regional	-10.3384
ES	-10.3387
100	-10.3388
23	-10.34
▁school	-10.3411
одятся	-10.3414
od	-10.3426
▁(14	-10.3426
▁подробно	-10.344
▁З	-10.3443
▁epithelium	-10.3445
▁routine	-10.3445
▁головы	-10.3445
▁огнестрельн	-10.3445
▁turn	-10.3445
▁Analysis	-10.3445
▁choos	-10.3445
▁ишемией	-10.3445
▁compression	-10.3446
▁symptomatic	-10.3446
▁легкого	-10.345
▁произведен	-10.3451
▁пищевода	-10.3452
▁увеличению	-10.3452
ского	-10.3453
▁atrial	-10.346
сс	-10.3461
▁прогнозировани	-10.3463
▁тревожно	-10.3464
▁cochlear	-10.3464
▁суб	-10.3475
▁интенсивн	-10.3483
старых	-10.3499
CA	-10.3506
▁посвященны	-10.3509
▁исход	-10.3509
▁составе	-10.352
че	-10.3523
▁пред	-10.3527
▁последне	-10.3527
▁максимально	-10.3534
▁20%	-10.3538
▁меж	-10.3544
▁best	-10.355
▁environment	-10.3551
▁успешно	-10.3557
альная	-10.3567
▁отсутствии	-10.3572
▁diffuse	-10.3572
▁healing	-10.3572
▁provision	-10.3572
▁фиксации	-10.3572
▁variet	-10.3572
▁защиты	-10.3572
▁degeneration	-10.3572
▁selected	-10.3575
-5	-10.358
▁reflux	-10.3582
ilateral	-10.3583
▁infants	-10.359
▁500	-10.3593
ита	-10.3595
▁power	-10.3596
▁отечественных	-10.3597
▁urine	-10.3602
▁МС	-10.3604
▁связаны	-10.3612
▁Выполнен	-10.3615
▁Средни	-10.3616
▁induced	-10.3616
▁обобщен	-10.3616
▁зоне	-10.3617
бо	-10.362
▁правило	-10.3624
▁образование	-10.3626
▁25%	-10.3627
▁височной	-10.3628
▁nerves	-10.363
▁density	-10.3637
▁portion	-10.3644
▁movement	-10.3645
▁decreases	-10.3656
VI	-10.3665
nal	-10.3674
▁appear	-10.3682
▁морфо	-10.3683
3)	-10.3687
▁ф	-10.3691
▁('	-10.3693
▁video	-10.3699
двенадцатиперстн	-10.37
▁Present	-10.37
▁orthodontic	-10.37
▁policy	-10.37
▁pylori	-10.37
▁deterioration	-10.37
▁stability	-10.37
▁specialized	-10.3702
▁Выделен	-10.3704
▁включает	-10.3709
▁вопросов	-10.3711
▁bi	-10.3715
ус	-10.374
▁radio	-10.3745
▁показателя	-10.3752
▁bed	-10.3756
▁внутренне	-10.3759
▁auto	-10.3759
тра	-10.3763
▁сравнение	-10.3767
month	-10.3776
при	-10.3787
кг	-10.3787
▁organic	-10.3787
▁St	-10.379
▁недостаточность	-10.379
▁постановк	-10.3799
▁характеристика	-10.3799
▁Автор	-10.3799
мин	-10.3805
▁man	-10.3808
▁раствора	-10.3813
▁дан	-10.3817
▁удаление	-10.3819
59	-10.3822
▁metastases	-10.383
▁головокружения	-10.383
▁переносимости	-10.383
▁сопутствующе	-10.383
▁пребывания	-10.383
▁extensive	-10.383
▁series	-10.383
▁reconstructive	-10.383
▁appearance	-10.3831
▁странах	-10.3831
▁responsibl	-10.3833
▁наблюдалось	-10.3834
▁макулярн	-10.3838
▁repeated	-10.3839
▁cardio	-10.384
▁states	-10.3841
▁скорость	-10.3845
▁Использовали	-10.3847
▁рецидив	-10.385
▁врожденной	-10.3852
▁общи	-10.3853
▁обнаружены	-10.3854
скольк	-10.3861
▁prosthetic	-10.3863
CC	-10.3863
▁сонных	-10.3866
▁активностью	-10.3871
▁видео	-10.3876
▁Основным	-10.3879
▁выполнение	-10.3881
▁изучи	-10.3882
▁pharmacotherapy	-10.389
▁АГ	-10.3902
▁87	-10.3903
VEGF	-10.3908
▁оценк	-10.391
▁условия	-10.3912
ической	-10.3931
SD	-10.3944
▁create	-10.3949
▁обеспечивает	-10.3952
▁public	-10.3959
io	-10.396
▁сопряжен	-10.3961
▁emphasis	-10.3961
▁tendency	-10.3961
▁эмали	-10.3961
▁duodenal	-10.3961
▁введение	-10.3961
▁мкм	-10.3961
▁earlier	-10.3962
▁временн	-10.3963
▁пострадавших	-10.3963
▁основания	-10.3964
▁почки	-10.3965
▁признаками	-10.3966
▁анестезии	-10.3969
▁склерозом	-10.3971
plastic	-10.3974
▁tri	-10.3978
▁environmental	-10.3983
▁inhibitor	-10.3986
▁механизмах	-10.3987
▁acoustic	-10.3987
▁пери	-10.3992
▁necrosis	-10.3992
▁проявлениями	-10.3995
▁выявленны	-10.3996
▁80%	-10.4002
▁impairments	-10.4004
▁cysts	-10.4006
log	-10.4008
▁мер	-10.4014
▁Под	-10.4015
.9%)	-10.4015
▁потенциально	-10.4018
▁канала	-10.4025
▁77	-10.4028
кин	-10.403
43	-10.4036
▁разработа	-10.4039
▁connection	-10.4039
▁cycle	-10.4041
ors	-10.4042
ag	-10.4044
▁treat	-10.4048
▁кист	-10.4051
▁уменьши	-10.4058
ием	-10.4062
больших	-10.4063
▁ди	-10.4069
▁edema	-10.409
▁oxygen	-10.4092
▁meta	-10.4094
▁serotonin	-10.4095
▁патология	-10.4095
▁последствий	-10.4095
▁exposure	-10.4095
▁идентификации	-10.4095
▁intraocular	-10.4095
▁f	-10.4096
▁extraction	-10.4096
▁calculated	-10.4096
▁basal	-10.4097
▁participants	-10.4098
▁желез	-10.4099
▁86	-10.4101
▁topical	-10.4106
▁стратегии	-10.411
▁epidemiological	-10.4112
▁Клинически	-10.4114
▁1000	-10.4115
▁Выявление	-10.4116
▁options	-10.4123
▁среды	-10.4124
▁эффективной	-10.4137
35	-10.4143
▁PANSS	-10.4146
▁By	-10.4149
▁система	-10.4155
ель	-10.417
▁jaw	-10.4174
tracheal	-10.4176
.8%)	-10.4177
▁изложен	-10.4178
▁комплексно	-10.4187
▁space	-10.4188
1</	-10.419
ather	-10.4193
уч	-10.4195
▁разработанн	-10.4211
▁elucidate	-10.4217
▁socio	-10.4218
▁оперативных	-10.4226
▁week	-10.4227
▁стационара	-10.423
▁когерентн	-10.423
▁Cognitive	-10.423
▁species	-10.423
▁Подчеркивается	-10.423
▁клиническом	-10.423
▁нагрузки	-10.423
▁ситуации	-10.423
▁старении	-10.423
▁тугоухости	-10.423
▁клинике	-10.423
▁proliferation	-10.4232
▁оптимизации	-10.4232
▁every	-10.4233
▁accuracy	-10.4234
▁клиническим	-10.4235
кишечного	-10.4236
▁увеличивается	-10.4236
▁7-	-10.4237
AT	-10.4239
▁наступления	-10.4242
▁diameter	-10.4244
▁визуализации	-10.4244
▁Послеоперационн	-10.4246
▁российск	-10.4247
▁боль	-10.4247
▁TM	-10.4249
▁biomarkers	-10.425
▁способствова	-10.425
methyl	-10.4253
▁saliva	-10.4255
▁poisoning	-10.426
▁promote	-10.426
▁stenting	-10.4263
▁intensive	-10.4263
▁корреляци	-10.4265
▁serve	-10.4269
▁каждой	-10.4273
CS	-10.4273
▁lymphocytes	-10.4286
49	-10.4287
SS	-10.4302
▁69	-10.4304
<0.05).	-10.4308
▁ко	-10.4319
▁результатами	-10.4319
▁protective	-10.4323
▁пор	-10.4326
▁v	-10.4337
▁correspond	-10.4338
clonal	-10.4367
▁очень	-10.4367
▁abnormalities	-10.4367
▁accumulation	-10.4367
▁Исследовали	-10.4367
▁адаптации	-10.4368
▁tube	-10.4368
▁disadvantages	-10.4369
▁наше	-10.437
PS	-10.4373
▁широк	-10.4374
▁arch	-10.4374
▁цифров	-10.4374
▁проживающих	-10.4374
▁revasculariz	-10.4378
▁subjected	-10.438
▁мульти	-10.4381
▁депрессивн	-10.4382
▁agent	-10.4394
шей	-10.4398
▁он	-10.4402
▁высокого	-10.4404
▁hepatic	-10.4404
▁эндопротез	-10.4405
▁диффузн	-10.4406
▁acids	-10.4407
02	-10.4414
ut	-10.4415
▁(1-	-10.4439
,4%)	-10.4443
BA	-10.4447
посттравматическ	-10.4448
▁рекомендован	-10.4451
▁direction	-10.4456
▁18-	-10.4463
fold	-10.4475
▁свое	-10.4479
тической	-10.4481
▁задач	-10.4484
stage	-10.4492
▁эпилептически	-10.4494
▁люб	-10.4495
▁особ	-10.4499
▁context	-10.4501
▁дополнительно	-10.4506
▁acuity	-10.4506
▁chromatography	-10.4506
▁iodine	-10.4506
▁receiving	-10.4506
▁депрессией	-10.4506
▁мигрени	-10.4506
▁установить	-10.4506
▁fixed	-10.4506
▁случаи	-10.4506
▁микроскопии	-10.4506
▁monotherapy	-10.4506
▁тревожности	-10.4507
▁optimize	-10.4507
▁повышению	-10.4511
▁эндотелия	-10.4515
▁гормона	-10.4518
▁created	-10.4519
90	-10.4524
▁РА	-10.4526
▁медикаментозн	-10.4537
CI	-10.4538
▁мозге	-10.454
▁сред	-10.4565
▁psychotic	-10.4569
.4%)	-10.4569
ding	-10.457
▁вестибулярной	-10.4573
▁250	-10.4578
▁разработан	-10.4579
▁correlations	-10.4579
▁рт	-10.4581
-19.	-10.4586
бл	-10.4587
32	-10.459
▁exercise	-10.4592
▁detect	-10.4599
▁вызывает	-10.46
na	-10.4602
▁median	-10.4604
stay	-10.4604
SC	-10.4612
▁vi	-10.4616
8%	-10.4619
▁Ц	-10.4625
▁ведущи	-10.4632
▁way	-10.4634
time	-10.4634
▁предварительн	-10.4634
▁тяжесть	-10.4635
FA	-10.4637
▁strength	-10.4645
▁Wistar	-10.4647
▁least	-10.4647
▁located	-10.4647
▁strong	-10.4647
▁Диагноз	-10.4647
▁final	-10.4647
▁connective	-10.4647
▁фармакотерапии	-10.4647
▁participation	-10.4647
▁psychometric	-10.4647
▁перенесенн	-10.4649
ты	-10.4649
▁модифицированн	-10.4649
▁normalization	-10.4651
▁баллов	-10.4651
▁зарубежных	-10.4654
▁us	-10.4657
▁недостатки	-10.4658
▁значимости	-10.4658
▁болью	-10.466
▁реконструкции	-10.466
▁boys	-10.4662
low	-10.4666
▁аспекте	-10.4669
▁endocrine	-10.4669
▁tool	-10.467
▁affects	-10.467
▁улучшает	-10.4674
▁products	-10.4674
IL	-10.4679
▁sensory	-10.468
▁схемы	-10.4682
EM	-10.4688
▁electron	-10.4689
▁дифференцирован	-10.4698
oplasty	-10.4701
ach	-10.4704
▁стран	-10.4704
ведении	-10.4717
▁генеза	-10.4723
▁стимуляции	-10.4725
EP	-10.4726
▁car	-10.4729
▁средним	-10.4733
▁interval	-10.4734
▁relapse	-10.4735
ll	-10.4737
▁(18	-10.4743
▁пример	-10.4745
▁подобн	-10.475
spinal	-10.4755
▁proliferati	-10.4755
▁множественн	-10.4758
▁accord	-10.4761
ант	-10.4762
▁полиморфизма	-10.477
▁five	-10.4772
тест	-10.4773
▁regular	-10.4776
▁contact	-10.4778
end	-10.4779
▁Так	-10.4779
▁генерализованн	-10.4781
▁показателям	-10.4786
▁enhance	-10.4789
▁верхнечелюстн	-10.4789
▁Thirty	-10.4789
▁capacity	-10.4789
▁dizziness	-10.4789
▁widespread	-10.4789
▁избыточн	-10.4789
▁инвалидности	-10.4789
▁психиатрии	-10.4789
▁fixation	-10.4789
▁классификация	-10.4789
▁картина	-10.479
ence	-10.479
▁каротидн	-10.479
▁поиска	-10.479
▁обострений	-10.4793
ological	-10.4794
▁systematic	-10.4795
▁cortexin	-10.4797
▁Us	-10.4798
-36	-10.4798
0.0	-10.48
▁инсулина	-10.4802
▁стволовых	-10.4804
▁плазмы	-10.4805
disciplinary	-10.4805
▁физиологическ	-10.4807
▁диабетической	-10.4809
▁compliance	-10.481
▁анамнезе	-10.481
▁опубликованны	-10.4815
ОР	-10.4815
▁кариеса	-10.4816
жит	-10.4821
▁направлен	-10.4826
▁ФП	-10.4827
▁liquid	-10.4829
▁doctors	-10.4829
▁когда	-10.4833
▁acquire	-10.4834
▁regimens	-10.4834
▁нервн	-10.4841
01	-10.4842
ium	-10.4842
logy	-10.4843
▁работа	-10.4844
▁ЧМТ	-10.4853
om	-10.4855
ev	-10.4857
▁терапевтических	-10.4861
ком	-10.4864
▁моно	-10.4873
воспалительных	-10.4873
рин	-10.4873
▁основном	-10.4876
▁Оценивали	-10.4878
▁trend	-10.4879
▁enzyme	-10.4883
▁vertebral	-10.4883
▁представляют	-10.4886
▁стационар	-10.4893
▁наблюдениях	-10.4899
▁ортодонтическ	-10.4907
▁первых	-10.4915
▁CP	-10.4916
▁прав	-10.4916
▁пародонта	-10.4923
▁получени	-10.4926
▁слуховой	-10.4927
ak	-10.4933
▁12-	-10.4933
▁применяли	-10.4933
▁hybrid	-10.4933
▁Hospital	-10.4934
▁Подробно	-10.4934
▁себя	-10.4934
▁условий	-10.4934
▁absent	-10.4934
▁chemotherapy	-10.4934
▁percentage	-10.4935
▁placebo	-10.4935
▁элементов	-10.4937
▁мутаций	-10.4937
▁employed	-10.4938
ful	-10.4938
▁visualization	-10.4938
▁протезов	-10.494
▁extract	-10.4941
▁должн	-10.4942
▁introduced	-10.4942
▁хорошо	-10.4945
ад	-10.4945
▁limited	-10.4946
▁полу	-10.4948
▁длительностью	-10.4953
▁следующие	-10.4954
▁доля	-10.4954
▁adaptive	-10.4964
▁82	-10.4965
▁ретроспективны	-10.497
▁ages	-10.4974
▁(30	-10.4974
ата	-10.4979
▁differentiated	-10.498
▁следствие	-10.4988
▁международн	-10.5004
bo	-10.5009
▁(16	-10.5011
▁возникающи	-10.5011
▁очага	-10.5022
виду	-10.5024
▁нейропсихологи	-10.5028
▁ICD	-10.5029
▁duct	-10.5035
▁орган	-10.5037
▁ли	-10.5037
▁RA	-10.5037
большое	-10.5041
▁cortical	-10.5048
▁алгоритма	-10.5061
▁71	-10.5065
фе	-10.507
▁pneumonia	-10.5073
▁concepts	-10.5079
▁восстановительн	-10.508
▁intravenous	-10.5081
цит	-10.5081
▁birth	-10.5081
▁sensori	-10.5081
▁ожирения	-10.5081
▁явлений	-10.5081
▁тканев	-10.5081
▁elevated	-10.5081
▁трансплантации	-10.5081
▁supra	-10.5081
▁carbohydrate	-10.5081
▁оценен	-10.5082
▁периоперационн	-10.5082
▁алкоголя	-10.5082
▁Sever	-10.5083
▁гибридн	-10.5083
▁artificial	-10.5084
▁students	-10.5087
▁intact	-10.5091
▁отделения	-10.5092
OD	-10.5096
static	-10.5101
▁типу	-10.5103
▁социального	-10.5104
▁контролем	-10.5104
▁особенностями	-10.5104
▁oto	-10.511
▁патогенез	-10.5117
▁Сан	-10.5119
▁объективн	-10.5123
▁способы	-10.5127
▁generation	-10.513
▁представлено	-10.5134
▁95	-10.5138
67	-10.5144
ge	-10.5144
▁класса	-10.5149
▁date	-10.5152
▁risks	-10.5156
▁CA	-10.5157
▁другой	-10.5158
▁друг	-10.5159
▁возрасту	-10.5172
▁task	-10.5177
▁symptom	-10.5183
▁reach	-10.5185
▁colore	-10.5186
84	-10.5188
ED	-10.5193
▁гормональн	-10.5193
▁желчн	-10.5194
▁medication	-10.5205
▁имеющие	-10.5208
▁снижает	-10.5222
RT	-10.5222
▁Centr	-10.5223
emia	-10.5224
системного	-10.5226
оль	-10.5228
▁Significant	-10.5231
▁equal	-10.5231
▁half	-10.5231
▁historical	-10.5231
▁голосов	-10.5231
▁диагностику	-10.5231
▁плацебо	-10.5231
▁удалось	-10.5231
▁Контрольн	-10.5231
▁sodium	-10.5231
▁трупов	-10.5231
▁diet	-10.5232
▁второй	-10.5232
▁anastomosis	-10.5233
▁deaths	-10.5234
▁пожилом	-10.5235
▁Работ	-10.524
▁pregnant	-10.524
2/	-10.5242
▁cerebrolysin	-10.5243
▁angiography	-10.5249
SI	-10.5249
▁собственно	-10.5253
▁face	-10.5256
▁victims	-10.5257
apillary	-10.5261
▁суточн	-10.5263
7)	-10.5264
▁air	-10.5265
-6,	-10.5265
ул	-10.5269
▁adenomas	-10.5272
пол	-10.5272
▁этап	-10.5274
▁алкогольной	-10.5275
▁asthenic	-10.5276
▁клапана	-10.5293
▁version	-10.53
▁правого	-10.53
infected	-10.5301
пор	-10.5303
▁практическ	-10.5309
ед	-10.5315
▁патоморфологи	-10.532
▁person	-10.5324
cal	-10.5328
▁начина	-10.533
▁диабет	-10.5336
дегенеративных	-10.5337
▁threshold	-10.5344
▁тяжелым	-10.5359
NS	-10.5365
▁Ре	-10.5371
peritoneal	-10.5381
▁применен	-10.5381
▁extremities	-10.5382
▁всегда	-10.5382
▁особенностях	-10.5382
▁Three	-10.5382
▁fundamental	-10.5382
▁permanent	-10.5382
▁показатель	-10.5382
▁probability	-10.5382
▁антибактериальн	-10.5382
▁coherence	-10.5382
▁окклюзии	-10.5382
▁cholesterol	-10.5382
▁Обзор	-10.5382
▁томография	-10.5383
▁находились	-10.5383
▁сложности	-10.5384
▁000	-10.5384
▁platelet	-10.5385
▁естественн	-10.5386
▁documented	-10.5386
▁коморбидности	-10.5387
port	-10.5387
▁la	-10.5388
▁workers	-10.5388
▁useful	-10.5388
МП	-10.5388
▁размеров	-10.5389
▁avoid	-10.539
▁определяется	-10.5391
▁temperature	-10.5392
▁стандартной	-10.5394
▁specimens	-10.5394
▁educational	-10.5402
▁destructive	-10.5405
▁93	-10.5405
▁АТ	-10.5407
=30)	-10.541
▁компонента	-10.5412
▁зате	-10.5415
41	-10.5417
▁completely	-10.5418
▁длительного	-10.5421
ities	-10.5424
▁objects	-10.543
=4	-10.5436
▁surgeons	-10.5437
▁мониторинга	-10.544
logical	-10.544
▁regarded	-10.5443
97	-10.5448
▁фаз	-10.546
ических	-10.5468
▁сочета	-10.5471
eal	-10.5472
▁polymorphisms	-10.548
▁hormones	-10.5482
ight	-10.5489
79	-10.549
▁ассоциированных	-10.5496
▁жалоб	-10.5502
средством	-10.5503
▁интра	-10.5509
▁шкала	-10.5509
пре	-10.5512
positive	-10.5512
▁paranas	-10.5517
▁атеросклеро	-10.5519
▁resistant	-10.5525
▁геморрагическ	-10.553
39	-10.553
тических	-10.5532
86	-10.5534
▁always	-10.5536
▁астении	-10.5536
▁ротовой	-10.5536
▁проксимальн	-10.5536
▁evoke	-10.5536
▁perforation	-10.5538
▁подтвержден	-10.5539
▁addiction	-10.5541
▁проспективно	-10.5547
▁retro	-10.5549
▁прием	-10.555
▁метаболизма	-10.5551
▁настоящем	-10.5551
▁легкой	-10.5551
▁нормы	-10.5554
▁соответству	-10.5555
▁над	-10.5558
▁мелатонина	-10.5561
▁нет	-10.5565
therapy	-10.5569
▁основную	-10.5576
альный	-10.5587
▁(25	-10.5587
▁trends	-10.5595
▁острот	-10.5596
▁находящ	-10.5599
▁позиции	-10.5607
▁separate	-10.5609
▁нейропротективн	-10.5616
▁enhanced	-10.5629
▁фармако	-10.5631
▁processing	-10.5635
classical	-10.5638
▁glands	-10.5639
▁Разработан	-10.5646
▁дальнейшем	-10.5652
▁д	-10.5655
▁ауто	-10.5662
invasive	-10.5663
▁find	-10.5663
▁shape	-10.5663
▁тромбоза	-10.5667
▁размер	-10.567
ика	-10.5673
▁рас	-10.5675
PI	-10.5676
▁atherosclerotic	-10.5692
▁verified	-10.5692
▁breast	-10.5692
▁hypothyroidism	-10.5692
▁спонтанн	-10.5692
▁distance	-10.5692
пуст	-10.5693
▁preliminary	-10.5693
▁контрольную	-10.5693
▁amplitude	-10.5693
вен	-10.5695
▁относятся	-10.5695
▁лимфатически	-10.5699
ПС	-10.5702
▁отделении	-10.5703
▁actual	-10.5704
▁службы	-10.5706
▁атеросклероза	-10.5707
▁aggressive	-10.5713
▁стеноза	-10.5716
▁двигательных	-10.5718
▁Be	-10.572
▁трудоспособн	-10.572
▁потенциала	-10.5722
▁именно	-10.5729
09	-10.573
man	-10.5741
▁grafting	-10.5742
со	-10.5745
▁УЗИ	-10.5747
▁Получен	-10.5751
microcirculation	-10.5753
mucous	-10.5755
den	-10.5759
▁травм	-10.5765
вших	-10.5769
▁90%	-10.577
▁адекватн	-10.577
▁анастомоза	-10.5773
▁disc	-10.5788
▁правильн	-10.579
till	-10.5791
▁degenerative	-10.5792
дер	-10.5794
▁chain	-10.5795
▁форме	-10.5804
▁инфаркт	-10.5805
▁aspect	-10.581
RA	-10.5813
цию	-10.5815
▁прогностически	-10.5826
▁мало	-10.5826
abdominal	-10.5827
лучить	-10.5827
IgG	-10.5828
▁represent	-10.5831
▁relationships	-10.5838
▁определяет	-10.5844
▁доказательн	-10.5848
▁одна	-10.585
▁When	-10.5851
▁heterogeneity	-10.5851
▁matter	-10.5851
▁scanning	-10.5851
▁suicide	-10.5851
▁unfavorable	-10.5851
▁Групп	-10.5851
▁location	-10.5851
▁qualitative	-10.5851
▁умерших	-10.5851
▁beginning	-10.5851
▁decompression	-10.5851
▁stomach	-10.5851
▁предположить	-10.5851
▁Minist	-10.5852
▁обследовании	-10.5852
▁способности	-10.5852
DA	-10.5853
▁липидного	-10.5853
▁hygiene	-10.5853
▁опухолями	-10.5855
▁discussion	-10.5855
▁hormonal	-10.5856
▁задней	-10.5856
чувствительность	-10.5857
▁где	-10.5861
▁принципы	-10.5861
▁расстройство	-10.5862
▁потенциальн	-10.5865
▁представляется	-10.5873
▁regulatory	-10.5875
▁курсов	-10.5875
▁allergic	-10.5876
▁вестибулярн	-10.5877
▁этапы	-10.5883
▁energy	-10.5883
екс	-10.5885
кол	-10.5888
▁corpses	-10.589
▁encephalopathy	-10.5892
▁Of	-10.5902
▁experiments	-10.5902
▁force	-10.5902
▁первично	-10.5904
▁момента	-10.5907
▁структуру	-10.5908
side	-10.5909
morphological	-10.5915
▁интервал	-10.592
▁позволяющи	-10.5922
▁действием	-10.5923
▁назначен	-10.5924
▁тщательн	-10.5927
29	-10.5936
PA	-10.5936
бра	-10.5936
▁diagnose	-10.5944
▁reason	-10.5955
▁substance	-10.5958
▁cyst	-10.5962
▁views	-10.5962
ron	-10.5971
▁mineral	-10.5977
▁88	-10.5985
grade	-10.5991
including	-10.5992
▁сократи	-10.5995
▁lens	-10.6009
▁нужда	-10.601
▁Further	-10.6012
▁тверд	-10.6012
▁closure	-10.6012
▁fibrillation	-10.6012
▁overview	-10.6012
▁primarily	-10.6012
▁smoking	-10.6012
▁voice	-10.6012
▁volunteers	-10.6012
▁катаракты	-10.6012
▁обструктивн	-10.6012
▁отсутствия	-10.6012
▁тактика	-10.6012
▁elimination	-10.6012
▁глюкозы	-10.6012
▁integrated	-10.6012
▁gait	-10.6013
▁снижении	-10.6013
▁itself	-10.6013
▁распределения	-10.6014
hereditary	-10.6014
▁rise	-10.6014
must	-10.6015
▁отмечалось	-10.6015
▁гормонов	-10.6015
▁симптомами	-10.6017
▁psychiatry	-10.602
▁составляют	-10.602
▁Such	-10.6021
▁функционально	-10.6022
CP	-10.6022
▁проведены	-10.6027
AR	-10.6027
ST	-10.6034
▁истории	-10.6038
▁показана	-10.6039
▁уменьшения	-10.6041
▁инструментальн	-10.6044
▁ХСН	-10.6048
▁fragments	-10.6053
▁WHO	-10.6053
▁вне	-10.6056
▁транс	-10.6058
▁систему	-10.6065
▁иммунной	-10.6065
ember	-10.6076
▁обнаружен	-10.6078
▁независимо	-10.608
▁94	-10.6081
▁tone	-10.6084
▁hospitals	-10.6086
-18	-10.6092
▁редки	-10.6092
▁лимфоцитов	-10.61
▁разные	-10.611
СТ	-10.611
▁load	-10.6114
▁она	-10.6114
▁simple	-10.6117
▁opinion	-10.612
▁hernias	-10.6121
▁exacerbation	-10.6121
ular	-10.6135
▁наблюдением	-10.615
type	-10.6152
▁receive	-10.6164
▁2000	-10.617
▁патогенетическ	-10.617
▁dopamine	-10.6174
orensic	-10.6174
▁epidemiology	-10.6176
▁prosthesis	-10.6176
▁Препарат	-10.6176
▁липидов	-10.6176
▁околоносовы	-10.6176
▁серотонина	-10.6176
▁Region	-10.6176
▁interleukin	-10.6176
▁proximal	-10.6176
▁polymorphic	-10.6176
▁mathematical	-10.6176
▁regeneration	-10.6177
▁periodontitis	-10.6177
▁transition	-10.6177
▁обсуждается	-10.6178
▁авторами	-10.6182
▁ассоциации	-10.6183
56	-10.6183
▁analytical	-10.6184
▁зарегистрирован	-10.6186
▁авторы	-10.6188
▁delayed	-10.6189
▁esophageal	-10.6189
▁explore	-10.6191
▁контроль	-10.6192
▁drawn	-10.6196
▁PubMed	-10.6199
dominance	-10.6202
▁legal	-10.6204
ПП	-10.6209
▁nodes	-10.6209
▁enable	-10.6211
▁peptide	-10.6214
▁первую	-10.6223
бласт	-10.6226
▁коллагена	-10.6226
▁stay	-10.6226
▁зон	-10.6228
▁exacerbations	-10.6231
▁стабильн	-10.6234
▁возрастные	-10.6238
ted	-10.6238
▁pseudo	-10.6239
▁enzymes	-10.624
▁directions	-10.6241
▁расчет	-10.6244
ально	-10.6247
▁своевременн	-10.6254
ено	-10.6256
▁ассоциированн	-10.6262
▁замен	-10.6263
sided	-10.6263
▁ингибитор	-10.6264
47	-10.6266
▁сопоставимы	-10.627
▁controlled	-10.6276
▁decision	-10.6287
▁hemodynamic	-10.6288
▁indicator	-10.6288
▁язв	-10.6298
▁проанализирован	-10.63
▁89	-10.6303
▁1.5	-10.6309
▁артериального	-10.631
▁91	-10.6313
функциональн	-10.6318
кой	-10.6324
social	-10.6328
▁разрыв	-10.6332
istic	-10.6332
▁приводящи	-10.6333
▁me	-10.6335
▁plan	-10.6339
▁много	-10.6339
▁fast	-10.634
▁shift	-10.6343
▁surgeries	-10.6343
▁инфекций	-10.6343
▁микроциркуляции	-10.6343
▁публикации	-10.6343
▁функцию	-10.6343
▁imbalance	-10.6343
▁связей	-10.6343
▁тромбоцитов	-10.6343
▁плотности	-10.6343
▁hemostasis	-10.6343
антидепрессантов	-10.6344
▁оказались	-10.6344
▁(22	-10.6344
ний	-10.6345
▁экспертов	-10.6345
▁accurate	-10.6347
▁expressed	-10.6349
▁predominantly	-10.635
▁протеза	-10.6351
▁prescribed	-10.6351
▁he	-10.6352
▁положения	-10.6354
▁внедрение	-10.6356
▁моделей	-10.6357
AI	-10.6359
▁Micro	-10.6359
▁эффективного	-10.6364
3%	-10.6365
▁когнитивными	-10.6366
▁скрининга	-10.6368
▁расширени	-10.637
▁focused	-10.6372
▁первом	-10.6372
▁суицидальн	-10.6376
▁changed	-10.6376
▁способом	-10.6378
▁государственн	-10.6378
▁норме	-10.6382
▁sources	-10.6384
▁tolerance	-10.6385
▁корреляции	-10.6385
▁selective	-10.6395
целесообразность	-10.6396
▁(11	-10.6401
▁110	-10.6402
▁131	-10.6403
▁постоянн	-10.6412
▁вопроса	-10.6416
LA	-10.6419
альных	-10.6425
▁само	-10.6426
недостаточностью	-10.6426
▁глубоки	-10.6428
▁30%	-10.6437
▁Du	-10.6437
▁measurement	-10.6458
▁резистентности	-10.646
BS	-10.6466
▁целесообразно	-10.6473
neural	-10.6474
иков	-10.6482
фа	-10.6486
▁способствовал	-10.6487
▁unit	-10.6493
ric	-10.6497
esophageal	-10.65
dynamic	-10.65
▁electrical	-10.6505
▁vessel	-10.6511
▁Depression	-10.6512
▁category	-10.6512
▁community	-10.6512
▁сделан	-10.6512
▁expectancy	-10.6512
▁cholesteatoma	-10.6513
▁consciousness	-10.6513
▁hard	-10.6513
▁репродуктивн	-10.6514
vocal	-10.6516
▁admitt	-10.6517
▁atrophy	-10.6518
▁asthenia	-10.6521
▁Введение	-10.6521
▁обусловлено	-10.6521
▁extended	-10.6524
чь	-10.6524
▁Наблюдали	-10.6526
▁estimation	-10.6527
▁молочной	-10.6529
▁radiological	-10.653
▁girls	-10.6533
▁уровн	-10.6538
45	-10.6541
▁существенны	-10.6542
▁Проанализирован	-10.6542
▁images	-10.6543
▁синтеза	-10.6547
▁Ear	-10.6549
▁alveol	-10.6549
цин	-10.6553
▁white	-10.6556
▁determines	-10.6556
tra	-10.6557
▁прове	-10.6561
▁inner	-10.6563
▁одновременно	-10.6565
▁сложных	-10.6567
▁рациональн	-10.6572
▁кратки	-10.6577
▁alcoholic	-10.6577
▁NIHSS	-10.6578
нга	-10.6581
63	-10.6582
-12	-10.6587
▁шкалам	-10.6599
▁0,1	-10.6601
▁NO	-10.6602
▁(0,	-10.6602
▁SF	-10.6604
▁услуг	-10.6612
▁цито	-10.6613
▁experiment	-10.6614
mer	-10.6615
▁line	-10.6615
▁смешанн	-10.6615
▁патофизиологи	-10.6616
all	-10.6619
▁perspective	-10.6629
▁animal	-10.663
▁flap	-10.6633
▁вопросам	-10.6638
▁cranial	-10.6644
▁пролиферативн	-10.6646
▁ухудшение	-10.6646
▁needs	-10.6649
▁spread	-10.6655
▁характеризует	-10.6663
▁recommend	-10.6665
ному	-10.6665
▁базальн	-10.6665
▁гнойн	-10.6667
▁центра	-10.6675
▁увеличивает	-10.6676
▁интенсивность	-10.6676
▁insufficient	-10.6679
▁prior	-10.6683
▁efficient	-10.6685
▁excess	-10.6685
▁fatigue	-10.6685
▁Обсуждается	-10.6685
▁требуют	-10.6685
▁novel	-10.6685
▁otorhi	-10.6685
▁admission	-10.6685
▁sepsis	-10.6685
▁образований	-10.6685
▁height	-10.6685
▁избежать	-10.6685
▁therefore	-10.6686
▁уделяется	-10.6687
▁Forty	-10.6687
психоэмоциональн	-10.6687
▁поражений	-10.6688
▁чтобы	-10.6691
▁пандемии	-10.6691
▁ствола	-10.6694
ажность	-10.6694
▁экс	-10.6694
▁онкологических	-10.6697
▁трупа	-10.6698
▁встреча	-10.6703
▁sexual	-10.6707
▁nosological	-10.6707
▁этапом	-10.6709
▁статистическ	-10.6709
4%	-10.6711
vi	-10.672
▁adhesive	-10.6722
▁decades	-10.6724
▁gas	-10.6725
▁поле	-10.6728
▁attacks	-10.673
▁CNS	-10.6735
FS	-10.6736
▁bronchi	-10.6739
▁социальных	-10.6739
TE	-10.674
▁particularly	-10.6742
▁provid	-10.6743
for	-10.6748
▁физическ	-10.675
▁Мы	-10.6757
фл	-10.6757
kin	-10.6758
ируется	-10.6771
▁общие	-10.6773
▁медикаментозной	-10.6781
▁ST	-10.6791
54	-10.6796
кон	-10.6799
▁object	-10.6799
ован	-10.6799
▁протез	-10.68
▁Ch	-10.6803
▁commonly	-10.6805
▁disturbance	-10.6806
▁искусственн	-10.6807
ила	-10.6807
300	-10.6814
ДГ	-10.6817
▁основанны	-10.6822
▁остры	-10.6825
▁отношение	-10.6837
▁operat	-10.6842
▁regimen	-10.6844
ается	-10.6846
▁право	-10.6847
▁spontaneous	-10.6848
▁линейн	-10.6848
цией	-10.6849
▁важным	-10.6852
▁оказа	-10.6855
9%	-10.6856
▁transplant	-10.6858
36	-10.686
rhinolaryngology	-10.686
▁Assessment	-10.686
▁anatomy	-10.686
▁giant	-10.686
▁resort	-10.686
▁тактику	-10.686
▁Изучали	-10.686
▁внутриглазн	-10.686
▁волокон	-10.686
▁принял	-10.686
▁numerous	-10.686
▁morphometric	-10.6861
▁bodies	-10.6861
▁optimization	-10.6861
▁объеме	-10.6861
▁protection	-10.6862
not	-10.6862
▁Some	-10.6865
▁рекомендовать	-10.6865
▁потенциалов	-10.6866
▁пораженн	-10.6867
▁2009	-10.6867
▁proven	-10.6869
▁базы	-10.687
▁минимальн	-10.6873
46	-10.6879
ати	-10.6881
▁97	-10.6881
▁трансформации	-10.6886
▁негативно	-10.6888
ПР	-10.6891
▁Длительн	-10.6892
▁perfusion	-10.6892
▁characterize	-10.6895
▁структура	-10.6896
▁терапией	-10.6898
▁выраженные	-10.6899
▁physicians	-10.69
▁centers	-10.6901
▁подтверждают	-10.691
▁цикла	-10.6911
▁color	-10.6935
AF	-10.694
cellular	-10.695
▁able	-10.6952
▁собственны	-10.6956
▁Its	-10.6964
▁абдоминальн	-10.6966
▁comp	-10.6976
лок	-10.6981
▁hemorrhage	-10.6983
▁call	-10.6984
▁attitude	-10.6984
▁site	-10.6984
▁element	-10.6984
▁publication	-10.6988
▁неспецифическ	-10.699
▁конечн	-10.699
▁antibiotic	-10.6992
▁значительной	-10.6997
▁век	-10.6997
▁дост	-10.6999
mous	-10.7009
▁профилактическ	-10.7023
▁полно	-10.7033
▁High	-10.7036
▁success	-10.7038
▁unique	-10.7039
▁постинсультн	-10.7039
▁предсердий	-10.7039
▁существует	-10.7039
▁gestation	-10.7039
▁medium	-10.7039
▁idiopathic	-10.7039
▁натрия	-10.7039
▁Установили	-10.7039
▁пределах	-10.7039
▁сознания	-10.7039
▁дентальн	-10.7039
▁sinusitis	-10.704
▁digital	-10.704
▁реже	-10.7041
▁использованию	-10.7041
▁эритроцитов	-10.7041
▁продуктов	-10.7041
▁соединительной	-10.7041
▁площади	-10.7043
▁neuropathy	-10.7043
▁абсолютн	-10.7044
▁непосредственны	-10.7044
▁researchers	-10.7044
▁появления	-10.7046
▁идиопатическ	-10.7047
came	-10.7048
▁известн	-10.705
▁маркеры	-10.7053
▁условно	-10.7054
▁поэтому	-10.7054
овершенствование	-10.7055
▁описания	-10.7055
▁выявили	-10.7062
▁беременных	-10.7063
▁отличие	-10.7063
▁errors	-10.7065
▁выделены	-10.7068
▁down	-10.7068
lytic	-10.7069
76	-10.7069
▁лицевого	-10.7071
▁соматически	-10.7072
▁40%	-10.7073
▁BP	-10.7074
▁growing	-10.7077
воспалительной	-10.7077
▁самостоятельн	-10.7081
▁материале	-10.7089
▁peptides	-10.7099
▁резекци	-10.7104
▁falls	-10.7112
MP	-10.7115
▁коронарных	-10.712
▁критическ	-10.7121
3,	-10.7123
ющие	-10.7129
▁практической	-10.7135
▁92	-10.7139
▁PC	-10.7142
▁subject	-10.7148
▁orbital	-10.7151
НС	-10.7154
каза	-10.7157
aged	-10.7159
RD	-10.7163
▁fall	-10.7166
▁воспалительного	-10.7169
▁метаболически	-10.717
кан	-10.7173
▁fraction	-10.7176
▁block	-10.7178
▁экстренн	-10.7181
▁0,5	-10.7183
▁организме	-10.7186
▁24-	-10.7189
▁обширн	-10.719
изации	-10.719
▁размера	-10.7201
▁разви	-10.7205
ани	-10.7209
▁potentials	-10.7213
▁взгляд	-10.7213
▁моче	-10.7216
▁генетически	-10.7217
▁положительны	-10.7218
▁Twenty	-10.7221
▁adhesion	-10.7221
▁dysplasia	-10.7221
▁phenomena	-10.7221
▁reproductive	-10.7221
▁sudden	-10.7221
▁гликемии	-10.7221
▁жителей	-10.7221
▁лучше	-10.7221
▁микроорганизмов	-10.7221
▁наблюдении	-10.7221
▁питания	-10.7221
▁стадий	-10.7221
▁Data	-10.7221
благодар	-10.7221
▁движений	-10.7221
▁холестерина	-10.7221
▁клиники	-10.7221
▁действий	-10.7221
▁имплантатов	-10.7222
▁поздних	-10.7222
▁moment	-10.7223
▁encountered	-10.7223
▁слоя	-10.7223
▁эксперименте	-10.7226
▁likely	-10.7226
▁restore	-10.7228
▁emphasized	-10.7232
▁lumbar	-10.7233
▁нейрофизиологи	-10.7238
▁institutions	-10.7238
▁надпочечников	-10.7241
▁общества	-10.7243
▁Тем	-10.7245
▁corresponding	-10.7246
▁проблему	-10.7247
▁ideas	-10.7248
▁96	-10.725
▁ВОЗ	-10.7252
▁placed	-10.7254
▁PA	-10.7254
>-	-10.7256
▁(15	-10.7257
▁имплантата	-10.7257
▁концентрация	-10.7261
▁malformations	-10.7266
▁физического	-10.728
▁15%	-10.7283
▁системно	-10.7284
▁depth	-10.7284
▁математическ	-10.729
▁ПЖ	-10.7291
▁лабораторн	-10.7297
▁концентраци	-10.7298
art	-10.7302
▁изолированн	-10.7302
ичь	-10.7305
▁прост	-10.7308
▁исследуем	-10.7308
ten	-10.7309
▁questions	-10.7309
▁CHD	-10.731
▁травмой	-10.731
КС	-10.7312
▁составлял	-10.7313
▁гемо	-10.7314
▁interactions	-10.7315
▁необходимы	-10.7316
нной	-10.7318
▁расширение	-10.7321
ize	-10.7324
▁linear	-10.7331
▁works	-10.7331
▁последовательн	-10.7333
ept	-10.7338
▁широки	-10.7341
▁indirect	-10.7345
▁my	-10.7347
▁редкой	-10.7348
▁больными	-10.7348
▁scheme	-10.735
▁ПП	-10.7352
control	-10.7353
▁(2-	-10.7358
▁жив	-10.7362
▁ишемическим	-10.7364
▁представи	-10.737
нные	-10.7371
ons	-10.7376
тельной	-10.7378
▁прогрессирующе	-10.7383
▁discharge	-10.7393
▁apparent	-10.7393
▁goiter	-10.7406
▁mandible	-10.7406
▁prescription	-10.7406
▁superior	-10.7406
▁suppurati	-10.7406
▁анатомии	-10.7406
▁медицине	-10.7406
▁посмертн	-10.7406
▁русла	-10.7406
▁человеческ	-10.7406
▁нередко	-10.7406
▁движения	-10.7406
▁consumption	-10.7406
▁advisable	-10.7406
▁прежде	-10.7406
▁mice	-10.7406
▁новый	-10.7407
▁демонстрирует	-10.7407
▁строения	-10.7407
▁актуальность	-10.7408
point	-10.7409
▁absolute	-10.7411
dermal	-10.7411
ясь	-10.7412
▁психическим	-10.7413
▁желудочка	-10.7414
▁cartilage	-10.7416
▁300	-10.7416
психопатологи	-10.7416
▁nose	-10.7416
▁рецидивов	-10.7416
▁medicines	-10.742
▁ожирением	-10.742
▁общественн	-10.7421
▁печеночн	-10.7422
▁тяжестью	-10.7422
▁включения	-10.7423
▁анамнеза	-10.7425
▁аффективн	-10.7426
▁госпитальн	-10.7429
отря	-10.7431
▁апоптоза	-10.7433
▁структурных	-10.7435
▁кг	-10.7436
▁выраженное	-10.7438
▁него	-10.744
▁He	-10.7446
лу	-10.7449
▁recently	-10.745
▁calcium	-10.745
▁маркера	-10.745
тон	-10.7459
ческом	-10.7459
▁анатомических	-10.7462
▁Распространенн	-10.7464
ог	-10.7468
66	-10.747
▁органах	-10.7471
▁стр	-10.7471
▁формах	-10.7472
▁generally	-10.7473
▁макро	-10.7473
▁TBI	-10.7474
▁beta	-10.7475
▁exercises	-10.7479
▁tools	-10.748
▁Nation	-10.748
▁эндо	-10.7481
ированной	-10.7481
▁movements	-10.7486
нного	-10.7492
OL	-10.7497
▁rarely	-10.7502
8)	-10.7504
▁стойк	-10.7509
▁способны	-10.751
▁CGI	-10.751
test	-10.7517
▁превыша	-10.7523
▁гериатрическ	-10.7528
▁выделен	-10.7529
▁характерно	-10.7533
▁rect	-10.7534
▁региона	-10.7535
▁tested	-10.7536
▁отражен	-10.7542
▁start	-10.7549
▁рак	-10.755
жировой	-10.7552
▁объективны	-10.7554
▁депрессия	-10.7567
емых	-10.7571
▁Пациент	-10.7574
▁standards	-10.7575
▁достигнут	-10.7581
▁направленны	-10.7581
▁исследовали	-10.7589
▁аналогичн	-10.7589
▁respect	-10.7593
▁spleen	-10.7594
▁gunshot	-10.7594
▁отмены	-10.7594
▁concurrent	-10.7594
▁дисфункция	-10.7594
▁peroxidation	-10.7595
▁vitreous	-10.7595
▁окклюзионн	-10.7595
▁дермы	-10.7595
▁relief	-10.7595
▁exert	-10.7595
▁sound	-10.7595
▁polymer	-10.7595
▁mesh	-10.7595
▁calculation	-10.7595
▁углеводного	-10.7595
▁isolation	-10.7595
▁spasticity	-10.7595
part	-10.7597
▁объектов	-10.7597
▁назначение	-10.7597
▁autopsy	-10.7599
▁весь	-10.7599
▁мочев	-10.7599
▁methodological	-10.76
▁двум	-10.7602
▁наблюдались	-10.7602
▁skills	-10.7602
▁Как	-10.7602
▁recognized	-10.7604
ome	-10.7605
органов	-10.7605
▁resources	-10.7605
▁others	-10.7608
▁удаленн	-10.7609
реваскуляризации	-10.761
▁история	-10.7613
▁represented	-10.7614
▁Candida	-10.7618
▁appeared	-10.7619
▁шкалу	-10.7621
▁сравнительно	-10.7623
ну	-10.7626
▁30-	-10.7627
tom	-10.7631
5,	-10.7636
▁ПК	-10.7637
▁pathways	-10.7642
▁комплексном	-10.7643
▁понимание	-10.7646
▁sensitive	-10.765
42	-10.7652
▁инфаркта	-10.7652
▁раке	-10.7654
ана	-10.7666
▁demographic	-10.7672
dicated	-10.7674
▁установлена	-10.7678
ily	-10.7681
▁requir	-10.7684
6%)	-10.7687
▁граждан	-10.7689
▁трансплантата	-10.769
▁neurotrophi	-10.7697
▁contains	-10.7701
ческая	-10.7706
▁develops	-10.7712
▁ventr	-10.7714
5;	-10.7715
▁hip	-10.7719
VA	-10.7722
▁депрессивных	-10.7725
▁выборе	-10.7731
▁доступн	-10.7737
▁нормальным	-10.7738
res	-10.7742
▁неинвазивн	-10.7745
▁75%	-10.7752
▁процедур	-10.7752
▁allele	-10.7757
33	-10.7759
▁Le	-10.7765
▁семейн	-10.7774
▁реакция	-10.7776
▁актив	-10.7777
КН	-10.7778
▁urin	-10.7779
dimensional	-10.7783
▁Исследован	-10.7784
▁attribut	-10.7784
▁situ	-10.7784
▁Co	-10.7785
▁осмотр	-10.7786
ольшинство	-10.7786
▁Doppler	-10.7787
▁First	-10.7787
▁creation	-10.7787
▁diagnosing	-10.7787
▁задержк	-10.7787
▁коррекция	-10.7787
▁теории	-10.7787
▁universal	-10.7787
▁ортопедическ	-10.7787
▁dermis	-10.7787
▁магистральн	-10.7787
▁Нарушени	-10.7787
▁endarterectomy	-10.7787
▁шунтирования	-10.7787
▁месяцев	-10.7787
▁нейрохирургии	-10.7787
▁propose	-10.7788
▁ограничения	-10.7788
▁asymptomatic	-10.7792
▁методам	-10.7792
▁предикторов	-10.7792
▁adenocarcinoma	-10.7792
stimulating	-10.7793
▁spp	-10.7795
▁опросник	-10.7796
▁целев	-10.7796
▁используемы	-10.7797
call	-10.7797
▁fully	-10.7798
analysis	-10.7798
▁prove	-10.7799
▁Ma	-10.7801
▁SD	-10.7801
▁reserve	-10.7802
▁neural	-10.7803
▁Хирургическ	-10.7803
▁what	-10.7807
men	-10.7808
▁обработки	-10.7809
▁epi	-10.7809
▁крупных	-10.7811
▁отека	-10.7818
com	-10.7839
▁Боле	-10.7839
4%)	-10.7842
AG	-10.7843
▁20-	-10.7844
▁некроза	-10.785
▁искусственного	-10.785
▁actions	-10.7858
▁отечественн	-10.7867
▁термин	-10.7873
▁0.2	-10.7885
▁0.5	-10.7889
ДС	-10.7889
▁находи	-10.7889
▁17-	-10.7904
▁большинство	-10.7905
ющей	-10.7908
ировать	-10.791
▁(40	-10.7913
▁изученны	-10.7914
▁аденом	-10.792
▁combinations	-10.7922
▁circulat	-10.7924
▁doctor	-10.7928
▁her	-10.7935
78	-10.7937
▁феномен	-10.7939
lar	-10.794
82	-10.794
▁fracture	-10.7941
▁открыт	-10.7943
▁lympho	-10.7946
1.0	-10.7954
if	-10.7958
▁стент	-10.7959
▁Al	-10.796
ition	-10.7967
▁специфичность	-10.797
▁Current	-10.7971
▁рентгенологи	-10.7973
▁pharmaco	-10.7974
▁эксперимента	-10.7975
▁CC	-10.7977
▁Over	-10.7983
▁apparatus	-10.7983
▁inflicted	-10.7983
▁perception	-10.7983
▁premature	-10.7983
▁Развитие	-10.7983
▁артериовенозн	-10.7983
▁глотки	-10.7983
▁дисфункцией	-10.7983
▁показывают	-10.7983
▁intestine	-10.7983
▁окисления	-10.7983
▁Index	-10.7983
▁limitations	-10.7983
▁глобальн	-10.7983
▁зубочелюстн	-10.7983
▁матки	-10.7983
▁относится	-10.7983
▁myopia	-10.7983
▁yet	-10.7983
▁interpretation	-10.7984
versus	-10.7984
▁биомаркеров	-10.7984
▁определенны	-10.7985
▁вентральн	-10.7985
▁myocardium	-10.7986
▁профиль	-10.7986
иеся	-10.7987
▁монотерапии	-10.7988
▁источников	-10.7989
▁секреции	-10.7989
▁следов	-10.7989
▁задачей	-10.7991
▁микрофлоры	-10.7992
▁инфекционных	-10.7992
▁walking	-10.7993
▁порогов	-10.7996
resistant	-10.7997
▁концепция	-10.7998
▁2005	-10.7998
▁проявлением	-10.7998
go	-10.7999
▁5%	-10.8
▁стенозом	-10.8002
▁метаболического	-10.8003
▁fungal	-10.8003
▁расширенн	-10.8009
▁гемодинамически	-10.8009
effects	-10.8011
ПН	-10.8012
▁cultural	-10.8014
▁perforat	-10.8018
ju	-10.8027
▁плане	-10.8028
▁episodes	-10.8029
thrombotic	-10.8031
▁sections	-10.8031
▁задачи	-10.8032
▁step	-10.8036
▁тех	-10.8037
▁расстройством	-10.8038
▁неврологической	-10.804
▁собственных	-10.8041
▁coagulation	-10.8041
<0.05)	-10.8041
threaten	-10.805
▁создание	-10.8054
▁tasks	-10.8056
ью	-10.8056
▁считать	-10.8056
▁фон	-10.8059
▁имплантаци	-10.806
ler	-10.8064
воспалительные	-10.8066
▁контролируем	-10.8074
▁лимфо	-10.8076
▁мышцы	-10.8081
▁сохраня	-10.8081
SP	-10.8083
<0,001)	-10.8084
▁squa	-10.809
▁остео	-10.8093
▁MD	-10.8094
ций	-10.8096
арк	-10.81
▁прижизненн	-10.8101
.1%)	-10.8103
▁непосредственно	-10.8105
▁лечением	-10.8107
▁пластики	-10.8109
04	-10.8117
▁rhythm	-10.8123
▁facilitate	-10.8126
▁102	-10.8127
▁donor	-10.8127
▁surgeon	-10.8128
▁пато	-10.8133
▁прогресс	-10.8139
▁ме	-10.814
otomy	-10.8141
▁коре	-10.8151
▁перспективным	-10.8153
▁2011	-10.8153
▁осложнение	-10.8155
▁повреждение	-10.8157
▁GD	-10.8158
▁emphasize	-10.817
▁способность	-10.8171
▁adenoma	-10.8176
▁выраженным	-10.8178
IR	-10.8181
▁abnormal	-10.8181
▁barrier	-10.8183
▁cosmetic	-10.8183
▁paroxysmal	-10.8183
▁trunk	-10.8183
▁vertical	-10.8183
▁Москвы	-10.8183
▁выдели	-10.8183
▁интоксикации	-10.8183
▁autism	-10.8183
▁comparing	-10.8183
▁smooth	-10.8183
▁отражает	-10.8183
▁приобретенн	-10.8183
▁sulfate	-10.8183
▁изучаем	-10.8183
▁потери	-10.8183
▁руб	-10.8183
▁morphology	-10.8183
▁registration	-10.8183
▁силы	-10.8183
▁измерения	-10.8184
▁Vari	-10.8184
▁proper	-10.8184
▁justified	-10.8185
▁suspected	-10.8185
▁устойчивости	-10.8185
▁изучали	-10.8185
▁применяемы	-10.8186
OP	-10.8186
▁availability	-10.8186
▁переломов	-10.8187
▁accepted	-10.8187
▁значительны	-10.8187
▁направлений	-10.8187
стало	-10.8187
▁выявлении	-10.8188
▁тенденции	-10.819
▁now	-10.8191
▁функция	-10.8193
▁хирургов	-10.8194
▁another	-10.8195
▁психогенн	-10.8198
>=	-10.8198
▁психиатрической	-10.8198
▁removed	-10.8199
▁fields	-10.82
▁обусловлена	-10.8202
▁большим	-10.8202
МРТ	-10.8203
▁CM	-10.8204
functional	-10.8207
лип	-10.8208
▁ферментов	-10.8208
▁tension	-10.8212
▁дозы	-10.8213
▁протока	-10.8214
▁longer	-10.8214
▁suicidal	-10.8215
▁(26	-10.8217
▁theoretical	-10.8218
▁характеризова	-10.8218
ris	-10.8218
▁методику	-10.8219
▁фазы	-10.8223
▁2-3	-10.8246
▁measurements	-10.8248
▁осложнениями	-10.8252
▁CS	-10.8253
нятия	-10.8254
▁expos	-10.8255
72	-10.8256
▁несм	-10.826
▁cover	-10.8262
▁шунта	-10.8269
26	-10.8273
▁(31	-10.8277
OM	-10.8279
▁сопоставим	-10.828
стер	-10.8282
7,	-10.8288
▁conclusions	-10.829
HT	-10.8291
▁(36	-10.8291
▁анализу	-10.8292
▁60%	-10.8295
▁поля	-10.8301
▁angle	-10.8303
cular	-10.8304
ори	-10.8306
▁2006	-10.831
▁проб	-10.831
-13	-10.8316
ца	-10.8318
▁характерные	-10.8319
EC	-10.833
▁accident	-10.8331
▁доз	-10.8332
▁cytokine	-10.8332
▁синтез	-10.8333
▁event	-10.8336
▁articles	-10.834
▁Ex	-10.8346
АР	-10.8349
▁последствия	-10.8351
▁возможным	-10.8353
▁metal	-10.8353
max	-10.8356
▁карт	-10.8359
ированного	-10.8362
▁rational	-10.8364
▁коррелиру	-10.8364
MD	-10.8369
▁explain	-10.837
ПК	-10.8371
bi	-10.8374
▁Больн	-10.8375
ID	-10.8375
▁грыж	-10.8376
▁2008	-10.8377
ИМ	-10.8378
▁Anxiety	-10.8387
▁Children	-10.8387
▁Federal	-10.8387
▁asymmetry	-10.8387
▁aureus	-10.8387
▁dystonia	-10.8387
▁foci	-10.8387
▁hypothesis	-10.8387
▁rhinitis	-10.8387
▁rhinosinusitis	-10.8387
▁systolic	-10.8387
▁themselves	-10.8387
▁варикозн	-10.8387
▁рубцов	-10.8387
▁сделать	-10.8387
▁distinct	-10.8387
▁картине	-10.8387
микроциркуляторн	-10.8387
▁microbiota	-10.8387
▁assistance	-10.8387
▁society	-10.8387
▁opportunities	-10.8388
▁ligation	-10.8388
▁unknown	-10.8388
▁выборке	-10.8388
▁initiation	-10.8388
▁spectral	-10.8388
▁(«	-10.8388
▁inhibition	-10.8388
▁новорожденных	-10.8389
▁каналов	-10.8393
▁понимания	-10.8394
▁хроническ	-10.8394
▁methodology	-10.8395
▁таким	-10.8396
▁остр	-10.8396
▁varicos	-10.8397
кар	-10.8398
▁microorganisms	-10.8399
▁dimensions	-10.8402
▁раствор	-10.8403
▁younger	-10.8403
ками	-10.8407
▁throughout	-10.8407
0)	-10.8408
▁мужского	-10.8409
фактор	-10.841
лин	-10.8417
▁antipsychotics	-10.8417
▁tympanic	-10.8419
,1%)	-10.842
▁указанны	-10.8422
▁limit	-10.8424
▁исследуемых	-10.843
▁release	-10.8433
▁104	-10.8434
МК	-10.8435
▁сердечн	-10.8444
▁частично	-10.8447
▁hemodynamics	-10.8455
▁Ca	-10.8459
▁синдроме	-10.846
▁closed	-10.8468
mainly	-10.8469
▁muscular	-10.8471
▁опор	-10.8471
▁эндоваскулярны	-10.8471
▁8-	-10.8472
▁атипичн	-10.8472
▁первичных	-10.8472
▁ulcers	-10.8478
▁генотип	-10.848
ue	-10.8481
ternational	-10.8483
▁sp	-10.8488
▁protocols	-10.8495
▁двойн	-10.8496
▁кохлеарн	-10.8499
ческими	-10.8499
▁2,5	-10.8503
синдром	-10.8507
-90	-10.8508
▁99	-10.8509
▁глубок	-10.8511
CL	-10.8511
▁ce	-10.8512
▁материал	-10.8514
▁involve	-10.8515
▁возникл	-10.8516
▁six	-10.8529
ru	-10.8537
94	-10.8539
▁attack	-10.854
▁редким	-10.8543
▁мониторинг	-10.8553
ator	-10.8557
skeletal	-10.8561
▁personalize	-10.8567
▁исходно	-10.8569
нос	-10.8569
овершенствования	-10.8578
▁gain	-10.8581
▁би	-10.8585
▁главн	-10.8585
▁considering	-10.8589
▁morpho	-10.8591
медиана	-10.8592
▁project	-10.8593
▁(52	-10.8595
▁prostate	-10.8595
▁clarify	-10.8595
▁delivery	-10.8595
▁invasion	-10.8595
▁principal	-10.8595
▁statistics	-10.8595
▁областях	-10.8595
▁опухолевого	-10.8595
▁intake	-10.8595
▁область	-10.8595
▁специальностей	-10.8595
▁гипертензией	-10.8596
▁variable	-10.8596
▁peritonitis	-10.8596
▁суставов	-10.8596
▁Одно	-10.8597
▁arteriovenous	-10.8597
▁Причин	-10.8597
▁происхождения	-10.8597
азы	-10.8598
▁аспектов	-10.86
▁периодах	-10.8601
▁моноклональн	-10.8601
СС	-10.8602
▁coli	-10.8604
▁Показатели	-10.8604
▁жевательн	-10.8605
▁вероятности	-10.8605
щи	-10.8606
▁регистрации	-10.8613
▁гемодинамики	-10.8615
▁theory	-10.8616
▁Saint	-10.8617
▁травма	-10.8618
▁correlates	-10.8618
▁дозах	-10.8618
▁fibers	-10.8619
▁толщины	-10.8619
изм	-10.862
with	-10.8621
▁стоматологии	-10.8621
▁преимуществ	-10.8628
▁прогрессировани	-10.8634
▁офтальмологи	-10.8634
▁году	-10.8635
five	-10.8635
▁bili	-10.8647
▁установление	-10.8648
▁alpha	-10.8649
▁эпидемиологии	-10.8655
▁met	-10.8659
чат	-10.8659
▁l	-10.8665
▁PCR	-10.8667
▁бо	-10.8668
▁ВМД	-10.8673
<0,001).	-10.8673
ТС	-10.8675
▁relapses	-10.8676
▁хирургическ	-10.8679
▁AMD	-10.8683
ПГ	-10.8685
▁анатомическ	-10.8686
▁подтверждает	-10.8688
▁аутоиммунн	-10.8689
▁пространственн	-10.869
ber	-10.8692
▁позици	-10.8694
▁выполнени	-10.8695
▁3)	-10.8701
лев	-10.8702
▁указывает	-10.8702
▁(23	-10.8704
qui	-10.8705
▁сер	-10.8707
cognitive	-10.8707
азработка	-10.8711
ND	-10.8714
▁wave	-10.8717
▁факт	-10.8721
ализ	-10.8722
natal	-10.873
▁ранние	-10.873
05	-10.873
1%)	-10.8732
85	-10.8735
▁оказал	-10.8736
▁via	-10.8738
▁segments	-10.8741
0.1	-10.8742
PE	-10.8746
▁tumour	-10.8753
▁Age	-10.8757
1/	-10.8773
она	-10.8778
▁обрати	-10.878
▁нарушен	-10.878
▁отделах	-10.8781
▁Прове	-10.8786
▁экстра	-10.8787
▁2007	-10.8787
▁operative	-10.8794
▁обострения	-10.8801
▁костно	-10.8802
dominant	-10.8807
her	-10.8807
▁акад	-10.8808
▁барабанн	-10.8808
▁внезапн	-10.8808
▁колоректальн	-10.8808
▁ободочн	-10.8808
▁analgesic	-10.8808
▁microflora	-10.8808
▁osteoarthritis	-10.8808
▁remodeling	-10.8808
▁shock	-10.8808
▁supply	-10.8808
▁Проблем	-10.8808
▁двусторонне	-10.8808
▁падений	-10.8808
▁поколения	-10.8808
▁учебн	-10.8808
▁constant	-10.8808
▁entire	-10.8808
▁genome	-10.8808
▁inadequate	-10.8808
▁thermal	-10.8808
▁tonsillitis	-10.8808
▁subcutaneous	-10.8808
▁occurring	-10.8808
▁груди	-10.8808
▁выражен	-10.8809
▁зарубежной	-10.8809
▁боков	-10.8809
▁обеспечи	-10.881
▁прошл	-10.881
▁psychotherapy	-10.881
▁чего	-10.8811
▁endothelium	-10.8812
▁etiological	-10.8812
▁psychogenic	-10.8813
▁разрыва	-10.8813
генетических	-10.8813
▁механизма	-10.8814
▁criterion	-10.8814
▁preserved	-10.8815
▁электронн	-10.8815
▁положение	-10.8816
▁используются	-10.8817
▁capsule	-10.8818
▁развивается	-10.882
▁breathing	-10.8821
▁гигиены	-10.8822
▁pelvi	-10.8826
otherapy	-10.8826
▁complexity	-10.8827
ско	-10.8828
изация	-10.8829
BP	-10.883
терапия	-10.8831
▁края	-10.8831
▁активной	-10.8833
▁соотношения	-10.8838
▁researches	-10.8839
▁(21	-10.8839
▁complexes	-10.8842
▁генотипа	-10.8843
▁laparotomy	-10.8847
▁отита	-10.8851
▁Обследование	-10.8851
раз	-10.8853
▁страны	-10.8854
38	-10.8856
▁сложн	-10.8858
▁IOL	-10.8858
▁занимает	-10.8859
▁респираторн	-10.886
▁фа	-10.8863
▁уровней	-10.8863
▁вид	-10.8864
AC	-10.8868
чно	-10.8873
летне	-10.8874
ющим	-10.8885
тин	-10.8891
▁селективн	-10.8894
▁br	-10.8895
▁сложной	-10.8901
val	-10.8907
▁costs	-10.8909
▁открытой	-10.8912
▁безопасным	-10.8913
▁негативн	-10.8914
реактивн	-10.8923
ists	-10.8924
индром	-10.8928
▁мини	-10.8929
ОП	-10.8931
▁адекватной	-10.8933
ассистированн	-10.8934
▁CCI	-10.8939
red	-10.894
▁Обнаружен	-10.894
▁пара	-10.8942
▁вовлечение	-10.8947
ts	-10.8952
▁потенциал	-10.8952
OH	-10.8954
74	-10.8954
АТ	-10.8961
▁attempt	-10.897
▁fragment	-10.8971
▁подвздошн	-10.8971
▁стеноз	-10.8973
▁включение	-10.8976
ack	-10.8978
83	-10.8982
▁применяем	-10.8982
ируют	-10.8984
▁pathway	-10.8985
az	-10.8986
▁тромбоэмболи	-10.8991
▁transport	-10.9001
риноларингологии	-10.9001
▁морфометрически	-10.9007
▁exceed	-10.9008
▁должно	-10.901
вис	-10.9011
▁решение	-10.9013
▁помощь	-10.9013
МА	-10.9015
зии	-10.9015
▁АК	-10.9015
LS	-10.9016
вали	-10.9022
▁истори	-10.9023
▁synthe	-10.9025
▁Inventory	-10.9025
▁facilities	-10.9025
▁hepatitis	-10.9025
▁pancreas	-10.9025
▁relevance	-10.9025
▁undertaken	-10.9025
▁Учитывая	-10.9025
▁бронхиальн	-10.9025
▁вертикальн	-10.9025
▁моделирования	-10.9025
▁субтотальн	-10.9025
▁dosage	-10.9025
▁mobility	-10.9025
▁balloon	-10.9025
▁preced	-10.9025
▁hypoxia	-10.9026
▁learning	-10.9026
▁волны	-10.9026
▁requirements	-10.9026
▁резко	-10.9026
▁strains	-10.9026
▁lacrima	-10.9026
▁буде	-10.9026
▁психической	-10.9027
ирующего	-10.9027
▁delay	-10.9027
▁особо	-10.9028
▁отсроченн	-10.9028
▁hospitalized	-10.9029
▁отличается	-10.9029
▁mature	-10.9031
▁использовались	-10.9031
▁prediction	-10.9032
▁иммуноферментн	-10.9032
▁substantiated	-10.9032
▁территории	-10.9033
▁deficits	-10.9033
▁sessions	-10.9034
▁этапов	-10.9036
▁называем	-10.9038
▁records	-10.9039
▁double	-10.904
гиб	-10.9042
endonasal	-10.9044
52	-10.9044
▁alterations	-10.9047
▁образовательн	-10.9049
ирующих	-10.9049
▁аортальн	-10.9052
▁integr	-10.9052
▁(27	-10.9053
▁существенн	-10.9054
▁вероятно	-10.9055
▁минеральн	-10.9058
▁пробы	-10.9059
▁кардио	-10.9061
▁дефицитом	-10.9064
▁ранев	-10.9064
▁скринингов	-10.9071
▁изменени	-10.9073
КТ	-10.9074
▁меры	-10.9077
AM	-10.9078
-8	-10.9078
nasal	-10.9078
▁нозологическ	-10.9081
-7	-10.9081
▁позволяющих	-10.9081
▁длины	-10.9083
▁мембраны	-10.9083
▁многочисленны	-10.9083
томатологических	-10.9088
ometry	-10.9089
▁представлений	-10.9097
нюю	-10.9099
SARS	-10.9101
▁века	-10.9102
▁свидетельствова	-10.9102
ологии	-10.9105
▁%)	-10.9107
▁травме	-10.9107
▁suit	-10.911
▁former	-10.9115
▁морфологическ	-10.9118
=0,01	-10.9118
metric	-10.912
▁различным	-10.9121
toxic	-10.913
▁установлени	-10.9132
land	-10.9133
▁преобладал	-10.9136
▁400	-10.9137
окси	-10.9137
▁situations	-10.9137
solving	-10.915
▁кариес	-10.915
▁эффектом	-10.9151
летнего	-10.9154
ub	-10.9159
±11	-10.9162
▁дефект	-10.9163
1;	-10.917
▁глубин	-10.9173
▁представителе	-10.9177
▁оказывают	-10.9177
▁периоды	-10.9177
BI	-10.9179
▁важных	-10.9186
▁degrees	-10.9187
▁Psycho	-10.9187
чных	-10.9189
▁definition	-10.9192
▁goal	-10.9192
▁OCT	-10.9192
▁malformation	-10.9193
▁source	-10.9193
▁corpse	-10.9193
▁consequence	-10.9193
син	-10.9193
▁купировани	-10.9195
▁predictor	-10.9202
-16	-10.9202
▁Man	-10.9206
▁СА	-10.9206
▁осуществляли	-10.9208
▁От	-10.9212
DS	-10.9213
▁особенностям	-10.9213
mm	-10.9214
MT	-10.9216
LI	-10.9218
▁отношени	-10.9221
ba	-10.9222
neu	-10.9223
▁De	-10.923
ГП	-10.9231
следственн	-10.9234
hronic	-10.9241
▁появление	-10.9244
▁glomerul	-10.9245
morbid	-10.9247
▁предста	-10.9247
▁arthritis	-10.9248
▁equipment	-10.9248
▁feasibility	-10.9248
▁heterogeneous	-10.9248
▁knee	-10.9248
▁twice	-10.9248
▁verification	-10.9248
▁корня	-10.9248
▁полимеразн	-10.9248
▁событий	-10.9248
▁слюнн	-10.9248
▁adherence	-10.9248
▁эндоназальн	-10.9248
▁homeostasis	-10.9248
▁опухолевых	-10.9248
▁Moder	-10.9248
▁мальчиков	-10.9249
▁нестероидны	-10.9249
▁abuse	-10.9251
▁robot	-10.9251
▁Определяли	-10.9251
▁кр	-10.9251
▁preferred	-10.9252
▁lungs	-10.9253
нижнечелюстн	-10.9253
▁природы	-10.9254
▁far	-10.9254
▁экспрессия	-10.9256
▁протокол	-10.9258
▁внутривенно	-10.9259
▁отитом	-10.9265
▁рассматриваем	-10.9266
▁explained	-10.9266
▁являлись	-10.9267
мод	-10.9268
▁Anti	-10.927
opathy	-10.927
▁accelerated	-10.9273
▁малоинвазивн	-10.9276
▁mis	-10.9277
▁изучена	-10.928
▁вируса	-10.9281
▁цепн	-10.9282
ell	-10.9285
рыв	-10.929
frequency	-10.929
shape	-10.9291
▁результата	-10.9291
лед	-10.9291
▁достоверные	-10.9298
▁Statistical	-10.93
▁Con	-10.93
▁воды	-10.9307
▁ИОЛ	-10.9309
<0.01)	-10.931
▁связанн	-10.9312
▁авторск	-10.9314
▁обусловливает	-10.932
▁HADS	-10.9322
▁изучении	-10.9324
▁red	-10.9329
▁0,2	-10.9331
▁профилактически	-10.9334
57	-10.9335
▁свободн	-10.9339
▁стране	-10.934
▁section	-10.935
rin	-10.9351
directly	-10.9354
amine	-10.9355
▁стать	-10.9361
СП	-10.9361
▁Сред	-10.9366
вирусом	-10.9367
окса	-10.9368
вшие	-10.937
=3	-10.9381
▁тотальн	-10.9386
▁Перв	-10.9387
летни	-10.939
АД	-10.9395
ением	-10.9395
▁ba	-10.9395
▁1,3	-10.9396
▁ограниченн	-10.94
▁вод	-10.9408
▁планов	-10.9416
▁наследственн	-10.9416
▁edge	-10.942
▁limbs	-10.9422
▁ночн	-10.9423
tous	-10.9426
камен	-10.9426
▁obtain	-10.9429
▁основание	-10.9429
ейся	-10.9433
▁эпи	-10.9438
▁бактериальн	-10.9439
▁кафедр	-10.9444
▁свои	-10.9452
▁мексидол	-10.9452
>=1	-10.9453
▁состоянием	-10.9453
▁снижен	-10.9459
▁solve	-10.9462
▁коротки	-10.9464
Ч	-10.9469
тического	-10.947
уль	-10.9474
ification	-10.9474
▁Trans	-10.9475
дисциплинарн	-10.9475
derived	-10.9475
▁antibacterial	-10.9475
▁believe	-10.9475
▁capabilities	-10.9475
▁decreasing	-10.9475
▁foot	-10.9475
▁stiffness	-10.9475
▁velocity	-10.9475
▁кровопотери	-10.9475
▁операцией	-10.9475
▁поверхностн	-10.9475
▁плоскоклеточн	-10.9475
▁рода	-10.9475
▁fail	-10.9475
▁stabilization	-10.9475
▁равн	-10.9475
▁Diagnosis	-10.9475
▁trigeminal	-10.9475
▁Sixty	-10.9475
▁хроматографии	-10.9475
▁prophylaxis	-10.9475
▁communication	-10.9475
▁гипертензия	-10.9476
▁postural	-10.9476
▁families	-10.9477
▁перегородки	-10.9477
▁тиреоидн	-10.9477
▁возникает	-10.9477
▁staining	-10.9479
96	-10.948
клон	-10.9482
▁massive	-10.9482
▁21-	-10.9484
▁walls	-10.9485
▁окружающе	-10.9486
▁viscer	-10.9486
▁альвеолярн	-10.9486
▁(38	-10.9487
▁модификации	-10.9487
▁деформации	-10.9488
▁реконструктивны	-10.949
▁баланса	-10.9492
▁орбиты	-10.9493
oral	-10.9494
▁complement	-10.9494
omas	-10.9496
▁полиморфизм	-10.9497
▁первым	-10.9498
▁используем	-10.95
выраженный	-10.95
▁тыс	-10.95
▁начало	-10.9502
▁quit	-10.9503
▁transmission	-10.9504
▁du	-10.9504
▁кафедры	-10.9505
▁недостаточн	-10.9505
▁simultaneously	-10.9506
▁иммунн	-10.9508
▁современном	-10.951
▁цитофлавина	-10.951
▁исходом	-10.9513
ФС	-10.9516
izing	-10.9516
▁культурн	-10.9517
lymphatic	-10.9518
▁частыми	-10.9522
3-	-10.9523
level	-10.9523
▁dent	-10.9523
▁аутоиммунны	-10.9526
▁одном	-10.9527
▁назальн	-10.9533
▁osteo	-10.9536
▁105	-10.9536
▁GC	-10.9537
ish	-10.9537
3),	-10.9541
NT	-10.9544
▁sites	-10.9546
▁установлены	-10.9548
▁описано	-10.955
▁BDNF	-10.9551
▁пазухи	-10.9554
ring	-10.9556
ДА	-10.9561
▁обладающи	-10.9561
▁эпителиальн	-10.9562
▁эмоциональных	-10.9563
▁верифицирован	-10.9564
62	-10.9564
▁plastic	-10.9566
son	-10.9568
▁ход	-10.9569
▁ХИМ	-10.9569
3</	-10.957
▁височн	-10.9575
▁активаци	-10.9578
▁0.3	-10.9589
▁выполн	-10.959
▁thoraco	-10.9594
pect	-10.9622
▁местно	-10.9633
пластика	-10.9633
▁resections	-10.9638
cha	-10.9641
▁(50	-10.9642
ировали	-10.9643
▁eight	-10.9643
ants	-10.9644
▁caus	-10.9647
▁70%	-10.9648
▁eyelid	-10.9652
▁feature	-10.9653
СК	-10.9658
ключение	-10.9658
▁science	-10.9662
▁coefficient	-10.9663
▁episode	-10.9664
▁научн	-10.9667
,0%	-10.967
ses	-10.9671
tal	-10.9672
onic	-10.9674
▁молекул	-10.9675
▁suffer	-10.9679
HI	-10.9679
mol	-10.9681
▁o	-10.9683
КП	-10.9686
▁включил	-10.9691
▁list	-10.9696
▁явления	-10.9697
▁современным	-10.9703
▁создан	-10.9703
▁латентн	-10.9705
должен	-10.9706
▁repeat	-10.9706
▁produce	-10.9707
▁random	-10.9707
▁Control	-10.9707
▁brachiocephalic	-10.9707
▁esophagus	-10.9707
▁transient	-10.9707
▁вводили	-10.9707
▁девочек	-10.9707
▁стекловидно	-10.9707
▁lumen	-10.9707
▁pulp	-10.9707
▁cardiomyopathy	-10.9707
▁General	-10.9707
▁суммарн	-10.9708
▁chest	-10.9708
▁Повышен	-10.9708
▁instability	-10.9708
▁awareness	-10.9708
▁satisfaction	-10.9708
▁speed	-10.9708
▁augmentation	-10.9708
▁вариабельности	-10.9708
dy	-10.9709
CoV	-10.971
▁gel	-10.971
long	-10.971
▁распределен	-10.9711
▁mitochondrial	-10.9712
▁Changes	-10.9712
▁предположение	-10.9712
▁экспрессию	-10.9712
психологическ	-10.9713
▁born	-10.9713
▁восстановлению	-10.9714
▁устранения	-10.9714
▁сети	-10.9715
▁apnea	-10.9715
▁инъекций	-10.9715
be	-10.9716
▁analysed	-10.9716
▁гипертоническ	-10.9717
▁дегенерации	-10.9719
▁dentistry	-10.9719
▁0,7	-10.9719
▁гистологических	-10.9719
▁устойчив	-10.972
▁alone	-10.972
▁сферы	-10.9721
▁производства	-10.9722
▁contribut	-10.9722
▁noise	-10.9723
▁стентирование	-10.9723
▁обоснование	-10.9723
▁обусловлены	-10.9723
48	-10.9724
ним	-10.9725
▁traits	-10.9726
▁вирусн	-10.9728
▁исходного	-10.9729
▁unti	-10.9731
▁низкий	-10.9732
▁пасты	-10.9733
▁сфере	-10.9733
▁вариантами	-10.9735
▁фиброза	-10.9735
▁требуется	-10.9739
▁contained	-10.9748
▁увеличени	-10.9749
▁глазно	-10.975
▁TC	-10.9751
▁начале	-10.9754
proliferati	-10.9754
▁множество	-10.9758
cortical	-10.976
пролиферативн	-10.976
лов	-10.9761
▁AL	-10.9762
▁аффективных	-10.9762
ography	-10.9763
▁литературны	-10.9772
▁негативных	-10.9774
▁rat	-10.9776
▁adapt	-10.9779
4).	-10.9781
▁двигательной	-10.9785
98	-10.9786
▁изменен	-10.979
The	-10.9792
▁максимальн	-10.9795
▁нейрональн	-10.9802
▁процент	-10.9803
▁So	-10.9813
▁мозг	-10.9815
▁самым	-10.9816
▁назначени	-10.9817
▁обычно	-10.982
ms	-10.9824
targeted	-10.9828
▁Статистически	-10.9828
▁ОКТ	-10.9832
▁targets	-10.9833
▁гнойно	-10.9842
▁trophic	-10.9842
стоит	-10.9842
▁описана	-10.9844
nonspecific	-10.9844
пр	-10.9859
▁структурно	-10.9862
▁spa	-10.9868
чем	-10.9877
PP	-10.9877
▁histo	-10.9877
овые	-10.9878
ство	-10.9878
▁ЛП	-10.9879
▁вызыва	-10.988
▁(56	-10.9882
▁относительн	-10.9883
ME	-10.9885
▁lobe	-10.9889
▁database	-10.989
▁выполня	-10.9894
▁modeling	-10.9901
▁дыхательной	-10.9902
▁эффективностью	-10.9908
HA	-10.9912
жив	-10.9913
▁двигательн	-10.9916
▁головокружение	-10.9917
reactive	-10.9922
▁(62	-10.9924
▁questionnaires	-10.9926
▁implement	-10.9926
▁ш	-10.9926
▁belong	-10.9927
МГ	-10.9933
▁ICA	-10.9937
▁ишемически	-10.994
▁vital	-10.9945
▁достигает	-10.9945
-8,	-10.9945
uestionnaire	-10.9946
жизнедеятельност	-10.9946
▁резидуальн	-10.9946
▁ROC	-10.9946
▁pathophysiology	-10.9946
▁temporar	-10.9946
▁ventilation	-10.9946
▁борьб	-10.9946
▁мочи	-10.9946
▁ошибок	-10.9946
kinetic	-10.9946
▁слезн	-10.9946
▁станови	-10.9946
▁артериях	-10.9946
▁cholecystitis	-10.9946
▁compensatory	-10.9946
▁путь	-10.9946
▁давности	-10.9946
▁manual	-10.9946
▁Fifty	-10.9946
▁center	-10.9946
▁enhancement	-10.9947
▁dry	-10.9947
▁корнев	-10.9947
▁ложн	-10.9948
▁восприятия	-10.9949
▁psychosis	-10.995
▁локализация	-10.995
почти	-10.9952
▁популяционн	-10.9953
▁использу	-10.9953
cranial	-10.9953
▁molars	-10.9958
▁0.7	-10.996
▁(100	-10.9962
▁шунтирование	-10.9962
▁aesthetic	-10.9963
▁отростка	-10.9963
▁тромбоз	-10.9963
▁уровню	-10.9963
▁pulse	-10.9964
▁Мексидол	-10.9966
▁постуральн	-10.9966
▁выявило	-10.9967
▁dentures	-10.9968
▁Пациентам	-10.9971
▁residents	-10.9974
ПО	-10.9976
▁позднем	-10.9977
0,9	-10.9977
▁polyps	-10.9978
▁шума	-10.9979
ern	-10.998
▁материалы	-10.9981
▁туберкулеза	-10.9981
▁рук	-10.9982
▁процедуры	-10.9984
▁0,8	-10.9985
typ	-10.9987
▁конца	-10.9988
▁конц	-10.9989
▁HCV	-10.999
▁highlighted	-10.999
emic	-10.9995
▁выраженностью	-10.9996
▁stimulate	-10.9996
two	-11.0002
▁3%	-11.0003
mandibula	-11.0004
енной	-11.0004
pharmacological	-11.0008
▁мира	-11.0008
▁supported	-11.0012
▁0.1	-11.0027
▁считают	-11.0036
▁аналогов	-11.0039
55	-11.0039
▁длительной	-11.004
▁(35	-11.0041
▁КЖ	-11.0043
целесообразности	-11.0045
эктомии	-11.0046
▁Тр	-11.005
MRI	-11.0054
▁позволя	-11.0056
plant	-11.0056
▁традиционным	-11.0062
▁хирургическим	-11.0064
▁получающи	-11.0069
tral	-11.0079
▁fistulas	-11.0081
ические	-11.0081
продемонстрирова	-11.0082
▁психически	-11.0089
▁каждом	-11.01
▁компонент	-11.0101
▁examples	-11.0102
avi	-11.0103
чер	-11.0103
500	-11.0104
▁genesis	-11.0105
▁Petersburg	-11.0108
альные	-11.0122
▁expertises	-11.0122
▁грибков	-11.0127
▁альтернативн	-11.0127
▁известны	-11.0131
▁места	-11.0132
▁culture	-11.0134
▁network	-11.0134
▁physician	-11.0135
▁decade	-11.0135
▁setting	-11.0135
aid	-11.0138
89	-11.0157
▁trial	-11.0163
▁геном	-11.0163
▁2.5	-11.0167
▁distinguish	-11.0172
▁extend	-11.0173
▁деятельность	-11.0176
har	-11.0179
▁conclude	-11.0181
▁уменьшает	-11.0181
▁актуальным	-11.0182
тора	-11.0182
▁ним	-11.0184
▁миело	-11.0184
▁count	-11.0186
91	-11.0187
▁illness	-11.0187
металлопротеиназ	-11.0189
▁Attention	-11.0189
▁Medicine	-11.0189
▁changing	-11.0189
▁exhibit	-11.0189
▁maintenance	-11.0189
▁palsy	-11.0189
▁polyneuropathy	-11.0189
▁whether	-11.0189
▁заболевании	-11.0189
▁знаний	-11.0189
▁коррелировал	-11.0189
▁мнению	-11.0189
▁отсутствуют	-11.0189
▁сексуальн	-11.0189
▁селезенки	-11.0189
▁транзиторн	-11.0189
▁учреждений	-11.0189
▁бедра	-11.0189
▁cholecystectomy	-11.019
▁irreversible	-11.019
▁coronavirus	-11.019
▁пузыря	-11.019
▁NMDA	-11.019
▁prominen	-11.019
▁пространства	-11.019
▁comorbidities	-11.019
▁численности	-11.019
▁immunosuppressi	-11.019
▁мкг	-11.019
▁локализацией	-11.0191
▁Particular	-11.0191
▁хрусталика	-11.0191
▁oncological	-11.0192
▁occupational	-11.0193
▁втором	-11.0193
▁тестирования	-11.0194
referred	-11.0194
>0,05)	-11.0196
▁Society	-11.0197
▁наибольше	-11.0198
▁защитн	-11.0199
▁continued	-11.0201
▁medial	-11.0203
▁associations	-11.0204
▁региональн	-11.0206
▁discharged	-11.0206
acting	-11.0206
▁Tak	-11.0207
,9±	-11.0207
▁дуги	-11.0207
amp	-11.0208
▁minor	-11.0209
▁microscopic	-11.0211
▁placenta	-11.0211
▁регенерации	-11.0211
▁molecules	-11.0212
▁пароксизмальн	-11.0216
▁панкреатита	-11.0217
▁psychiatrists	-11.0219
▁размером	-11.0223
▁pathogens	-11.0224
▁работу	-11.0225
NA	-11.0226
▁presentation	-11.0228
▁0,6	-11.0229
▁дебюта	-11.0233
эндоваскулярного	-11.0233
▁мексидола	-11.0235
▁собственного	-11.0236
▁эндоскопических	-11.0241
▁nuclear	-11.0242
▁соответствовал	-11.0244
лабораторн	-11.0246
):	-11.0248
ющийся	-11.0249
воспалительными	-11.0251
основная	-11.0253
drug	-11.0254
OCT	-11.0256
▁фото	-11.0259
▁Ин	-11.0262
▁постоянно	-11.0264
SO	-11.0267
▁analyses	-11.0268
fa	-11.027
тическим	-11.0278
▁(32	-11.028
▁рецептора	-11.0284
9%)	-11.0284
▁методу	-11.0284
07	-11.0285
▁использована	-11.0285
МТ	-11.0288
73	-11.0289
▁балл	-11.0293
tive	-11.0309
▁femoral	-11.0323
▁капель	-11.0324
chi	-11.0328
ult	-11.0328
▁длительн	-11.033
▁феномена	-11.0333
-74	-11.0334
▁базисн	-11.0335
0,8	-11.0342
tri	-11.0347
▁normalize	-11.0354
вропейск	-11.036
▁базов	-11.0365
ca	-11.0372
ЛТ	-11.0373
tech	-11.0374
▁программе	-11.0376
▁дел	-11.0378
88	-11.0381
▁deformation	-11.0383
phy	-11.0385
▁advantage	-11.0385
▁neoplasm	-11.0386
3).	-11.0388
▁PS	-11.0388
▁соответствующе	-11.0389
7,5	-11.039
▁salivar	-11.0392
▁решени	-11.0393
PC	-11.0397
▁инсулино	-11.0405
▁address	-11.0412
▁Об	-11.0413
▁eliminate	-11.0427
▁установленным	-11.0428
▁экономическ	-11.0429
▁4%	-11.043
▁semi	-11.0433
▁смертность	-11.0434
▁x	-11.0435
▁cranio	-11.0439
▁stratifi	-11.0439
▁Rankin	-11.0439
▁anomalies	-11.0439
▁apply	-11.0439
▁delirium	-11.0439
▁histories	-11.0439
▁minimum	-11.0439
▁Болезнь	-11.0439
▁Обобщен	-11.0439
▁голоса	-11.0439
▁деменцией	-11.0439
▁инвалидов	-11.0439
▁опухолях	-11.0439
▁состоял	-11.0439
▁статей	-11.0439
▁виртуальн	-11.0439
▁topographic	-11.0439
▁полноценн	-11.0439
▁software	-11.044
▁закономерности	-11.044
▁iliac	-11.044
▁systematize	-11.044
▁уточнения	-11.044
▁iron	-11.044
▁отравления	-11.044
▁construction	-11.044
▁antiepileptic	-11.044
▁pigment	-11.044
▁показан	-11.044
▁Центральн	-11.044
▁метастазов	-11.0441
▁healthcare	-11.0441
▁распространения	-11.0441
▁fetus	-11.0441
▁тройн	-11.0441
▁анализатора	-11.0442
▁выделения	-11.0442
▁направлении	-11.0442
▁заключается	-11.0443
▁consistent	-11.0444
▁протека	-11.0444
hour	-11.0444
▁done	-11.0444
▁Пом	-11.0445
энцефалографи	-11.0445
hydroxy	-11.0446
▁редк	-11.0446
▁личностн	-11.0446
botulinum	-11.0446
▁расположенн	-11.0449
▁крысах	-11.0449
▁верификации	-11.045
▁значимым	-11.045
▁нормальной	-11.045
▁поперечн	-11.0451
▁keratoplasty	-11.0452
терапию	-11.0452
▁манифестации	-11.0453
▁рассеянны	-11.0454
ируем	-11.0455
▁расстройствах	-11.0457
▁точн	-11.0457
7%)	-11.0461
▁seems	-11.0461
▁relatives	-11.0462
▁neurologists	-11.0463
активных	-11.0469
▁опухолью	-11.047
▁метаболическим	-11.047
▁резистентн	-11.0473
▁виды	-11.0478
▁формировани	-11.0479
▁слаб	-11.0482
cobacter	-11.0483
▁IgA	-11.0485
▁язвы	-11.0486
▁лобной	-11.0486
▁topic	-11.0486
▁альтернативой	-11.0488
рат	-11.049
▁неблагоприятным	-11.049
▁железа	-11.0493
▁contents	-11.0493
▁месте	-11.0497
▁воздействием	-11.0499
социальной	-11.0502
пециализированн	-11.0503
ero	-11.0503
▁NS	-11.0504
▁молекулярны	-11.0504
нести	-11.0505
▁отделе	-11.0505
▁sign	-11.0506
hospital	-11.051
ventricul	-11.051
▁antibiotics	-11.0517
▁DR	-11.0523
▁латеральн	-11.0523
ПИ	-11.0525
▁полученн	-11.0527
▁ядра	-11.0532
▁содержащих	-11.0539
мат	-11.0541
▁SI	-11.0543
▁необходим	-11.0543
▁пигментн	-11.0547
нный	-11.0552
▁источник	-11.0557
▁первичным	-11.0566
ред	-11.0566
являться	-11.0569
erg	-11.0573
lysis	-11.0577
▁занимают	-11.0577
ющими	-11.0579
▁чувствительн	-11.0581
OA	-11.0584
▁kg	-11.0584
ран	-11.0584
-100	-11.0586
▁разработанной	-11.0589
do	-11.059
±6	-11.0594
▁обнаружива	-11.0598
-3-	-11.0602
▁причина	-11.0602
▁сне	-11.0615
hy	-11.0619
офтальм	-11.0621
тепень	-11.0626
▁показаниям	-11.0627
▁своевременной	-11.0629
▁серьезн	-11.0634
▁se	-11.0641
▁option	-11.0642
▁массивн	-11.0645
мед	-11.0648
cho	-11.0649
▁antidepressant	-11.0653
plex	-11.0655
метил	-11.0655
▁развит	-11.0657
рак	-11.0658
ko	-11.066
▁протокола	-11.0661
▁предмет	-11.0664
прогрессирование	-11.0664
life	-11.0664
▁миндалин	-11.0665
▁повышенным	-11.0669
eight	-11.0674
chia	-11.0682
▁virtual	-11.0685
▁норм	-11.069
▁аппарат	-11.0691
▁воспаление	-11.0695
▁умственн	-11.0696
▁autosomal	-11.0696
▁column	-11.0696
▁consensus	-11.0696
▁evaluating	-11.0696
▁ischaemia	-11.0696
▁marrow	-11.0696
▁reliability	-11.0696
▁trigger	-11.0696
▁Актуальность	-11.0696
▁Изложен	-11.0696
▁апноэ	-11.0696
▁здоровье	-11.0696
▁лучши	-11.0696
▁моляров	-11.0696
▁моторных	-11.0696
▁симптоматика	-11.0696
▁тревожных	-11.0696
▁внутричерепн	-11.0696
▁напряжения	-11.0696
▁accompany	-11.0696
▁ovarian	-11.0696
▁стенок	-11.0696
▁around	-11.0696
▁приводил	-11.0696
▁кислорода	-11.0696
▁expansion	-11.0696
▁respondents	-11.0696
▁смертельн	-11.0696
▁salt	-11.0696
▁шизофреническ	-11.0696
▁оружия	-11.0696
▁соединений	-11.0696
▁worldwide	-11.0696
▁sphere	-11.0696
▁отравлений	-11.0697
▁мышей	-11.0697
▁night	-11.0697
sacral	-11.0697
▁Исследования	-11.0698
▁пользу	-11.0699
▁varied	-11.0699
▁биохимических	-11.0699
▁лежащи	-11.07
▁обезболивания	-11.0701
▁демонстрируют	-11.0701
ie	-11.0701
▁НИИ	-11.0702
▁ассоциация	-11.0702
▁viruses	-11.0704
▁Total	-11.0705
▁инъекции	-11.0705
▁внутриклеточн	-11.0706
аются	-11.0708
▁metabolites	-11.0708
▁produced	-11.071
▁снижается	-11.0711
▁Test	-11.0711
▁амплитуды	-11.0711
au	-11.0712
▁century	-11.0713
▁ophthalmic	-11.0713
▁стабилизации	-11.0715
▁кровотечением	-11.0715
▁университета	-11.0716
▁planned	-11.0718
▁representatives	-11.0722
▁Ou	-11.0723
▁ушн	-11.0724
▁algorithms	-11.0727
▁токсическ	-11.073
▁неба	-11.0732
▁инфекция	-11.0733
▁лекарственного	-11.0733
▁делает	-11.0734
▁starting	-11.0736
▁началом	-11.0736
▁исторически	-11.0737
цы	-11.0741
NP	-11.0743
▁баллонн	-11.0744
▁результатах	-11.0745
pre	-11.0749
▁(51	-11.0752
▁резекций	-11.0753
▁databases	-11.0756
▁vegetative	-11.0757
nic	-11.076
▁редких	-11.0763
▁art	-11.0765
▁перспектив	-11.0767
ходят	-11.0767
▁выявляют	-11.077
▁порок	-11.0774
sk	-11.0774
▁gl	-11.0776
oxy	-11.0778
virus	-11.0781
▁ВНЧС	-11.0782
▁срединн	-11.0783
▁научного	-11.0784
▁суд	-11.0784
▁New	-11.0785
▁использова	-11.0786
▁клеточного	-11.0786
▁н	-11.0786
▁language	-11.0787
▁toxin	-11.0787
▁требующи	-11.0791
ergic	-11.0791
▁ТТГ	-11.0793
▁вызванны	-11.0794
▁препаратам	-11.0795
main	-11.0798
.0%	-11.08
▁classifications	-11.0803
-11	-11.0804
▁отдельн	-11.0806
ond	-11.0807
TM	-11.0816
tracellular	-11.0817
▁труда	-11.082
▁иммунологически	-11.082
▁накопление	-11.0825
▁cava	-11.0825
▁канал	-11.0826
ПДР	-11.0829
▁k	-11.0829
▁алкогольн	-11.0834
preserv	-11.0835
▁zones	-11.0835
▁созда	-11.0837
▁хирурга	-11.0837
▁подобны	-11.0838
тическая	-11.0838
▁непрерывн	-11.084
▁числ	-11.084
▁центр	-11.085
▁семей	-11.0854
LD	-11.0854
инвазивных	-11.0856
▁Un	-11.0857
▁courses	-11.0858
гла	-11.0862
4,5	-11.0865
▁методах	-11.0871
▁старческой	-11.0873
▁средних	-11.0875
▁organizations	-11.0875
ДК	-11.0878
▁ПР	-11.0884
68	-11.0884
▁(41	-11.0886
этому	-11.0892
chemical	-11.0898
SA	-11.09
▁modification	-11.0904
▁challenge	-11.0904
cute	-11.0908
трудоспособности	-11.091
▁цел	-11.0912
▁предиктор	-11.0918
▁проведенно	-11.092
охранения	-11.092
▁выполнять	-11.0924
ments	-11.0924
▁visit	-11.0926
▁показателе	-11.0928
▁частичн	-11.0931
▁толщин	-11.0933
▁школьн	-11.0935
▁выступа	-11.0939
▁neurologic	-11.0942
▁advance	-11.0947
▁dentin	-11.0955
▁hepato	-11.0956
▁peculiar	-11.0957
фокальн	-11.0957
▁glutamate	-11.0959
▁акцент	-11.0959
parathyroidism	-11.0959
▁Academy	-11.0959
▁antimicrobial	-11.0959
▁circumstances	-11.0959
▁compensation	-11.0959
▁unconscious	-11.0959
▁аномалий	-11.0959
▁ближайши	-11.0959
▁гибели	-11.0959
▁долгосрочн	-11.0959
▁мероприятия	-11.0959
▁непроходимости	-11.0959
▁отверстия	-11.0959
▁поступлении	-11.0959
▁рутинн	-11.0959
▁течении	-11.0959
▁ontogenesis	-11.0959
▁одинаков	-11.0959
▁retinopathy	-11.0959
▁детьми	-11.0959
▁регионов	-11.0959
▁Летальн	-11.0959
▁плотность	-11.0959
▁emission	-11.0959
▁theories	-11.0959
▁если	-11.0959
▁неврологии	-11.096
▁стандартную	-11.096
LT	-11.096
▁law	-11.096
▁папиллярн	-11.0961
=6	-11.0961
▁фрагментов	-11.0962
▁сенсорн	-11.0962
▁bile	-11.0962
▁выявляется	-11.0962
оракоабдоминальн	-11.0963
▁исследователей	-11.0963
▁отек	-11.0965
▁относящ	-11.0966
▁принят	-11.0967
genous	-11.0967
▁обнаружили	-11.0968
▁проводились	-11.0968
▁сторону	-11.0969
▁мониторировани	-11.097
▁звена	-11.097
▁infusion	-11.0971
▁dys	-11.0973
▁тонуса	-11.0974
▁выявляли	-11.0975
mediated	-11.0976
▁пептидн	-11.0977
▁поддержки	-11.0977
▁сепсиса	-11.098
▁распространение	-11.0984
▁dentists	-11.0985
▁миниинвазивн	-11.0985
▁navigation	-11.0987
ша	-11.0987
▁зависимостью	-11.0988
▁установки	-11.0989
▁norm	-11.099
▁нарастание	-11.0991
65	-11.0991
▁succinate	-11.0992
▁свойствами	-11.0993
2,5	-11.0993
/100	-11.0995
▁OA	-11.0995
▁odonto	-11.0996
psychopathologic	-11.0997
▁сосудисто	-11.1001
▁achievements	-11.1003
▁подверга	-11.1005
▁мио	-11.1006
▁актуальных	-11.1007
▁расшир	-11.1007
▁axon	-11.1011
▁choroid	-11.1012
▁регионах	-11.1014
j	-11.1015
▁larger	-11.1017
▁ДЦП	-11.1017
▁CKD	-11.1019
▁presentations	-11.1019
▁актуальны	-11.1019
0,5	-11.1021
▁типом	-11.1021
▁обнаружена	-11.1028
▁spatial	-11.1032
▁ГЭРБ	-11.1032
▁выраженными	-11.1033
▁Возраст	-11.1035
▁одномоментно	-11.1037
▁nor	-11.1037
▁ОНМК	-11.1037
патия	-11.1042
контрольная	-11.1043
▁consists	-11.1044
▁получа	-11.1047
cerebral	-11.1048
BF	-11.1051
▁морфологической	-11.1052
ere	-11.1053
▁ВСА	-11.1056
▁программа	-11.1058
▁(45	-11.1058
ОТ	-11.1059
CE	-11.1063
SM	-11.1065
six	-11.1065
▁содержанием	-11.1068
▁возникаю	-11.1071
▁железе	-11.1076
que	-11.1076
резистентности	-11.1079
open	-11.1084
▁сложность	-11.1085
порт	-11.1086
▁clinics	-11.1087
▁amyloid	-11.1088
▁пар	-11.1091
protective	-11.1092
▁фиксированн	-11.1094
▁источника	-11.1095
▁(29	-11.1096
кров	-11.1101
PV	-11.1102
▁подтверди	-11.1103
▁ст	-11.1104
▁harm	-11.1104
ирует	-11.1107
▁когнитивно	-11.1107
▁коэффициента	-11.1112
образ	-11.1116
glycemic	-11.1117
▁Де	-11.1124
▁выявил	-11.1127
▁переход	-11.1129
тип	-11.1134
ents	-11.1139
▁forming	-11.1142
▁вызванной	-11.1148
81	-11.115
▁Отсутств	-11.1163
АС	-11.117
▁ventricle	-11.1173
▁ОА	-11.1173
▁цитофлавин	-11.1173
▁Science	-11.1173
▁plate	-11.1177
▁node	-11.1182
BCL	-11.1182
▁акустическ	-11.1183
▁influenc	-11.1185
вшего	-11.1186
биологических	-11.1194
ось	-11.1196
ерии	-11.1197
▁внешне	-11.1197
ON	-11.1198
▁границ	-11.1198
▁shunt	-11.12
▁Заболевани	-11.1207
▁carbon	-11.1208
нефр	-11.121
пластических	-11.1211
▁leg	-11.1211
▁ДР	-11.1212
▁поведение	-11.1213
▁муко	-11.1213
▁переносимость	-11.1217
▁заболеваемость	-11.1218
▁predominant	-11.1219
▁предполагает	-11.1221
anti	-11.1228
▁врожденным	-11.1228
▁псевдо	-11.1229
▁Study	-11.1229
▁appendicitis	-11.1229
▁assay	-11.1229
▁categories	-11.1229
▁contemporar	-11.1229
▁cytoplasm	-11.1229
▁danger	-11.1229
▁excision	-11.1229
▁fossa	-11.1229
▁mesenter	-11.1229
▁teaching	-11.1229
▁зависел	-11.1229
▁инсомнии	-11.1229
▁клетками	-11.1229
▁недоношенн	-11.1229
▁пролиферации	-11.1229
▁противоречивы	-11.1229
▁слюны	-11.1229
▁управления	-11.1229
▁предрасположенн	-11.1229
▁nephropathy	-11.1229
▁conflict	-11.1229
▁родственников	-11.1229
▁epigenetic	-11.1229
▁температуры	-11.1229
▁vaccine	-11.123
▁multicenter	-11.123
▁percutaneous	-11.123
▁radiotherapy	-11.123
▁irradiation	-11.123
▁chromosome	-11.123
▁infiltration	-11.123
▁разнообразны	-11.123
▁pharmaceutical	-11.123
▁outflow	-11.123
▁обращения	-11.123
▁extracellular	-11.123
▁респондентов	-11.123
ungian	-11.123
▁refraction	-11.1231
▁декомпрессии	-11.1231
▁rheumato	-11.1231
▁Подтвержден	-11.1232
▁HLA	-11.1232
▁поведенческих	-11.1232
▁заживления	-11.1232
▁Международн	-11.1232
liac	-11.1232
▁nodules	-11.1233
▁2017.	-11.1234
▁да	-11.1234
Петербурга	-11.1235
▁Oto	-11.1236
▁снизилась	-11.1236
▁общепринят	-11.1237
▁центров	-11.1237
▁лимфоидн	-11.1239
▁предотвращения	-11.124
▁пом	-11.124
▁demonstrat	-11.124
▁Изменения	-11.124
▁поясничн	-11.1242
▁устройств	-11.1242
▁Sleep	-11.1242
ированы	-11.1245
▁аллеля	-11.1249
▁проведению	-11.1249
▁тестирование	-11.1252
▁отлича	-11.1252
▁родов	-11.1253
▁benefits	-11.1254
микро	-11.1254
▁статья	-11.1255
preclinical	-11.1263
▁0,3	-11.1263
▁четырех	-11.1264
психическ	-11.1266
▁депрессивным	-11.1268
АК	-11.1274
▁хорошие	-11.1275
ированные	-11.1279
▁pH	-11.1282
▁размеры	-11.1283
стали	-11.1283
=7	-11.1283
▁ИМТ	-11.1286
▁reflected	-11.129
▁общее	-11.1291
▁amino	-11.1293
▁хирургические	-11.1293
▁артери	-11.1293
▁fluorescence	-11.1294
cation	-11.1295
▁ХБП	-11.1295
▁индексов	-11.1297
▁MoCA	-11.1306
▁тесты	-11.1307
▁once	-11.1309
▁трудов	-11.1313
ВП	-11.1317
контроль	-11.1319
двигательн	-11.132
▁ADHD	-11.132
Petersburg	-11.1321
▁neurotic	-11.1321
▁типы	-11.1322
trans	-11.1322
возраст	-11.1322
генетического	-11.1325
▁aid	-11.1329
▁устранение	-11.1331
negative	-11.1331
▁разным	-11.1332
▁образ	-11.1333
▁протезирования	-11.1334
МИ	-11.1335
▁психологических	-11.1338
▁(28	-11.1341
▁NSAIDs	-11.1342
▁AT	-11.1342
▁1,2	-11.1345
▁матриксн	-11.1347
press	-11.1348
▁стрессов	-11.1352
>/	-11.1357
енных	-11.1365
▁Современны	-11.137
▁величин	-11.1371
▁mode	-11.1374
▁responses	-11.1375
tosis	-11.1387
tur	-11.1388
▁физиологических	-11.1391
▁ethyl	-11.1391
▁im	-11.1393
тические	-11.1398
▁Bio	-11.1401
вает	-11.1403
▁поддержани	-11.1404
▁hypertensive	-11.1404
ОД	-11.1405
ПМ	-11.1407
▁скрининг	-11.1407
▁Endo	-11.1425
щей	-11.1432
сел	-11.1434
▁теле	-11.1436
остояние	-11.1437
▁наблюдаем	-11.1438
▁mandibula	-11.1441
GP	-11.1441
DR	-11.1448
▁phenotype	-11.1452
НК	-11.1452
▁product	-11.1455
▁signal	-11.1457
▁link	-11.1458
▁регуляторн	-11.1459
AH	-11.1459
▁Se	-11.146
▁expand	-11.146
диагностического	-11.1461
▁коротк	-11.1463
▁14-	-11.1464
▁кортексин	-11.1465
▁ИК	-11.1467
▁pha	-11.147
▁анкет	-11.1472
▁fire	-11.1477
▁staff	-11.1477
▁церебрального	-11.1478
▁паст	-11.1478
08	-11.1479
▁Обоснован	-11.1483
ПБ	-11.1485
ophag	-11.1488
▁сообществ	-11.1489
-19,	-11.1491
nine	-11.1496
▁применять	-11.1499
▁пояснично	-11.1499
носят	-11.15
▁Определ	-11.1502
▁завися	-11.1504
▁частым	-11.1504
▁работоспособно	-11.1507
▁adipos	-11.1507
▁displacement	-11.1507
▁glutathione	-11.1507
▁laparoscopy	-11.1507
▁narrow	-11.1507
▁orthopedic	-11.1507
▁osteoporosis	-11.1507
▁septum	-11.1507
▁withdrawal	-11.1507
▁десятилетия	-11.1507
▁ошибки	-11.1507
▁сердце	-11.1507
▁спастичности	-11.1507
▁указывают	-11.1507
▁аутосомно	-11.1507
▁hyperglycemia	-11.1507
▁ресурсов	-11.1507
▁home	-11.1507
▁головк	-11.1507
▁потребность	-11.1507
▁Diagnostic	-11.1507
▁aggregation	-11.1507
▁верхнего	-11.1507
▁million	-11.1507
▁endoscopy	-11.1508
▁preservation	-11.1508
▁controversial	-11.1508
▁дренирование	-11.1509
▁промежуточн	-11.1509
▁stromal	-11.1509
▁второго	-11.1509
▁ascen	-11.1509
▁branches	-11.151
▁dilatation	-11.151
▁заднего	-11.151
▁обнаружения	-11.151
▁кровотечений	-11.1511
▁neurology	-11.1512
▁висцеральн	-11.1512
▁thereby	-11.1513
▁поражении	-11.1513
▁специальности	-11.1514
▁cap	-11.1515
▁забрюшинн	-11.1515
▁применяться	-11.1515
▁интерпретации	-11.1516
▁(47	-11.1517
▁гл	-11.1517
▁нейротрофическ	-11.1517
▁предлагаем	-11.1517
▁перфорации	-11.1518
▁Московск	-11.152
▁adjuvant	-11.1521
<0.001).	-11.1521
▁Intra	-11.1522
▁Ч	-11.1527
▁latent	-11.1527
▁Dec	-11.1528
▁вторично	-11.1529
▁PE	-11.1529
нес	-11.1532
▁отрицательны	-11.1532
▁documents	-11.1533
▁включают	-11.1536
▁свища	-11.1536
genetically	-11.154
▁axial	-11.1542
▁месяца	-11.1543
молекулярных	-11.1543
▁parents	-11.1544
генетической	-11.1545
▁дефекты	-11.1546
▁thrombo	-11.1548
▁окислительного	-11.1549
▁angio	-11.155
▁многом	-11.1554
▁программу	-11.1554
▁грыжи	-11.1555
▁compounds	-11.1556
▁subgroups	-11.1556
▁Post	-11.156
▁высоких	-11.1569
▁cystic	-11.157
▁CHF	-11.1572
▁первый	-11.1574
▁врожденных	-11.1577
lateral	-11.158
изма	-11.158
▁такими	-11.1581
▁RF	-11.1582
▁КИ	-11.1585
▁фиброзн	-11.1587
▁электрическ	-11.1589
▁IFN	-11.1595
▁units	-11.1599
мерно	-11.1604
дневн	-11.1605
▁лабораторно	-11.1607
vertebral	-11.1607
инфекции	-11.1608
▁онкологическ	-11.1614
▁редкого	-11.1614
▁поражениями	-11.1614
▁плазм	-11.1615
▁речевых	-11.1615
▁смен	-11.1615
▁Endoscop	-11.1617
▁antigen	-11.1618
▁фонов	-11.1621
группа	-11.163
37	-11.1632
▁устройства	-11.1637
ft	-11.1645
ick	-11.1645
5-	-11.1657
▁показала	-11.1666
▁Выявленны	-11.1674
▁вес	-11.1675
▁(37	-11.1675
2.5	-11.1676
▁прогрессирующим	-11.1682
▁комплексных	-11.1683
▁склероз	-11.1684
▁microcirculat	-11.1689
▁протекал	-11.169
▁populations	-11.1692
▁взросл	-11.1697
degenerative	-11.1698
▁признан	-11.1703
pathogenetically	-11.1703
▁специализирова	-11.1721
▁типичн	-11.1722
▁дальнейшее	-11.1725
▁определяют	-11.1726
▁mother	-11.1737
▁trace	-11.1737
▁туберкулез	-11.1744
▁мозговых	-11.1748
роп	-11.1751
▁апоптоз	-11.1751
функциональных	-11.1754
▁drop	-11.1763
ward	-11.1767
▁membranes	-11.1767
tended	-11.1768
tu	-11.177
MI	-11.177
▁способствующи	-11.177
стен	-11.1772
▁провоспалительн	-11.1773
▁получавши	-11.178
▁rest	-11.178
▁ВА	-11.1781
los	-11.1782
▁регрессионн	-11.1782
▁четыре	-11.1783
ova	-11.1786
▁используют	-11.1787
▁bacteria	-11.1789
▁пневмо	-11.1791
вид	-11.1791
▁addresse	-11.1792
▁exclude	-11.1793
interstitial	-11.1793
▁chamber	-11.1793
▁encephalitis	-11.1793
▁enough	-11.1793
▁hyperplasia	-11.1793
▁impossible	-11.1793
▁influenza	-11.1793
▁leptin	-11.1793
▁width	-11.1793
▁Оценен	-11.1793
▁аминокислот	-11.1793
▁бодрствования	-11.1793
▁мануальн	-11.1793
▁окраск	-11.1793
▁яичников	-11.1793
▁EDSS	-11.1793
▁held	-11.1793
▁thorough	-11.1793
▁мнение	-11.1793
▁опухолевой	-11.1793
▁сигнальн	-11.1793
▁sometimes	-11.1793
▁судорожн	-11.1793
▁latency	-11.1793
neurotransmitter	-11.1793
▁exudative	-11.1793
▁burden	-11.1793
▁anastomoses	-11.1793
▁team	-11.1793
▁излучения	-11.1793
polar	-11.1793
▁противовирусн	-11.1793
▁выписан	-11.1793
▁exclusion	-11.1793
▁share	-11.1793
▁Time	-11.1793
▁стромальн	-11.1793
▁elevation	-11.1793
lingual	-11.1793
▁amyloidosis	-11.1793
▁Possibl	-11.1793
▁labor	-11.1793
▁parathyroid	-11.1793
▁стентирования	-11.1793
▁белок	-11.1793
▁masticat	-11.1793
▁existence	-11.1794
▁Laparoscopic	-11.1794
▁психотерапии	-11.1794
▁pass	-11.1794
▁neurosurgery	-11.1795
▁ablation	-11.1795
▁РНК	-11.1795
▁студентов	-11.1796
▁исследованию	-11.1796
▁употребления	-11.1798
▁нормального	-11.1798
▁выборки	-11.1798
▁жалобами	-11.1799
▁мозжечка	-11.1799
BM	-11.18
▁concerned	-11.18
▁площадь	-11.1801
▁влияют	-11.1801
▁adjacen	-11.1801
▁высокоэффективн	-11.1801
▁синтетически	-11.1803
▁генотипов	-11.1803
▁контексте	-11.1804
▁компенсации	-11.1804
▁namely	-11.1804
▁классов	-11.1804
▁участия	-11.1806
▁статистики	-11.1807
▁intellectual	-11.1808
hip	-11.181
income	-11.181
▁приступы	-11.1811
▁энцефалопатии	-11.1812
▁SM	-11.1813
пластики	-11.1814
▁капсулы	-11.1814
▁считается	-11.1815
▁снижал	-11.1817
▁безопасн	-11.1821
▁restored	-11.1822
▁sequencing	-11.1823
ready	-11.1824
▁отмечали	-11.1825
РТ	-11.1826
▁врачами	-11.1826
месячных	-11.183
▁variations	-11.1831
▁пациенту	-11.1833
▁повреждением	-11.1833
▁summarized	-11.1835
▁ММП	-11.1837
▁Multiple	-11.1838
▁взрослого	-11.1851
▁приступа	-11.1852
▁длительное	-11.1854
▁Сам	-11.1861
▁труд	-11.1862
▁Че	-11.1864
▁редукци	-11.1866
▁пла	-11.1866
▁modify	-11.1867
▁СДВГ	-11.1868
▁структурах	-11.1869
▁имеется	-11.187
▁ними	-11.1871
ility	-11.1873
▁одномоментн	-11.1873
▁пластин	-11.1874
▁спектральн	-11.1876
специфическ	-11.1877
medical	-11.188
▁обследован	-11.188
▁выделенн	-11.1881
▁Проводили	-11.1885
▁международны	-11.1889
▁изучен	-11.1889
▁ALS	-11.189
economic	-11.189
▁par	-11.1893
hypertensive	-11.19
known	-11.1901
▁нм	-11.1902
ФР	-11.1903
▁диабете	-11.1905
▁регулярн	-11.1907
▁выраженная	-11.1907
±12	-11.191
▁персон	-11.191
уш	-11.191
▁диск	-11.1914
▁класс	-11.1915
▁процессами	-11.1916
▁немедикаментозн	-11.1919
▁осуществлен	-11.1919
.0%)	-11.1924
rus	-11.1934
▁гетерогенн	-11.1938
▁MCI	-11.1941
▁Данны	-11.1942
▁en	-11.1943
=0.00	-11.1943
87	-11.1946
ФП	-11.1947
▁регистра	-11.1948
▁важнейши	-11.1949
емые	-11.195
нная	-11.195
MF	-11.1951
▁departments	-11.1952
ЭМ	-11.1961
▁деструктивн	-11.1964
▁организм	-11.1964
▁расчета	-11.1966
НИ	-11.1966
▁коэффициент	-11.1967
▁grafts	-11.1969
▁описанны	-11.1973
▁травматическ	-11.1978
▁103	-11.1985
хороший	-11.1987
▁частот	-11.1988
glial	-11.1991
▁коленн	-11.1991
▁масса	-11.1994
▁применяют	-11.1996
▁macro	-11.1997
▁чрескожн	-11.1998
10)	-11.1998
▁выстрела	-11.2002
ГА	-11.2006
▁рецептор	-11.2009
RF	-11.2013
▁MR	-11.2017
ВР	-11.2018
▁ежедневно	-11.2021
▁granuloma	-11.2021
уса	-11.2025
ают	-11.2025
late	-11.2029
▁district	-11.2031
vers	-11.2031
-25	-11.2031
медицинская	-11.2032
▁et	-11.2035
▁комплексе	-11.2036
▁evolution	-11.2036
иль	-11.2041
genesis	-11.2044
zh	-11.2047
▁успех	-11.2051
▁analyz	-11.2056
▁achiev	-11.2057
▁гранулем	-11.2058
▁purposes	-11.2059
ascular	-11.2065
▁соотношение	-11.2069
▁органическ	-11.2071
▁ткань	-11.2074
▁динамическ	-11.2083
▁гепато	-11.2084
▁те	-11.2087
anuary	-11.2087
опосредованн	-11.2087
▁embolism	-11.2087
▁false	-11.2087
▁frailty	-11.2087
▁obvious	-11.2087
▁terminology	-11.2087
▁информация	-11.2087
▁низкая	-11.2087
▁ноофен	-11.2087
▁пролечен	-11.2087
▁усталости	-11.2087
▁эпизодов	-11.2087
▁январ	-11.2087
▁Combin	-11.2087
▁ethanol	-11.2087
▁mouth	-11.2087
aerobic	-11.2087
▁members	-11.2087
▁преждевременн	-11.2087
▁систематизирова	-11.2087
▁audiometry	-11.2087
▁vaccination	-11.2087
▁terminal	-11.2087
▁thyrotoxicosis	-11.2087
▁понятие	-11.2087
▁гипертонии	-11.2087
▁дренирования	-11.2087
▁справа	-11.2087
▁citizens	-11.2087
▁морфологии	-11.2087
▁hematoma	-11.2087
▁плода	-11.2087
▁единичны	-11.2087
▁химиотерапии	-11.2087
▁neuroendocrine	-11.2088
▁weakness	-11.2088
▁восходяще	-11.2088
septic	-11.2088
▁пассивн	-11.2089
▁участников	-11.2089
▁Four	-11.209
▁priority	-11.209
▁mandat	-11.209
▁полость	-11.209
▁участков	-11.2091
▁дна	-11.2092
▁More	-11.2092
▁шейного	-11.2092
▁изготовления	-11.2093
▁sufficient	-11.2094
▁approximate	-11.2095
▁превентивн	-11.2095
▁Диагностика	-11.2096
▁приходит	-11.2098
▁остаточн	-11.2098
▁миопии	-11.2098
профилактически	-11.2099
▁ног	-11.21
▁низки	-11.2102
▁дофаминов	-11.2103
экономическ	-11.2103
гидрокси	-11.2104
Evaluation	-11.2105
▁структурные	-11.2107
▁anemia	-11.2109
▁тр	-11.2109
▁периферического	-11.2109
▁inpatient	-11.211
produc	-11.211
spe	-11.2112
genetic	-11.2112
▁рождения	-11.2113
▁учреждениях	-11.2114
▁глаукомой	-11.2114
▁последствиями	-11.2115
▁subtypes	-11.2116
▁ангио	-11.2116
▁рассматрива	-11.2117
▁androgen	-11.2119
lation	-11.2123
77	-11.2124
▁refer	-11.2124
▁tablets	-11.2124
▁осложнением	-11.2129
ретин	-11.2129
▁психотерапевт	-11.2131
▁единственным	-11.2136
▁офтальмологии	-11.2137
▁отказа	-11.2138
▁четк	-11.2138
▁ухе	-11.2139
▁хирургическая	-11.2144
▁средствами	-11.2145
ассоциированной	-11.2145
▁Ro	-11.2148
▁имела	-11.2149
▁НМ	-11.215
▁медиальн	-11.2155
▁позвоночн	-11.2156
▁poorly	-11.2157
▁РАС	-11.2157
▁PH	-11.2162
▁tumours	-11.2164
▁ан	-11.2166
▁108	-11.2166
месячн	-11.2167
▁оказывал	-11.2169
▁прогнозом	-11.2169
▁EG	-11.2174
▁обоснован	-11.2174
▁план	-11.2175
▁Вмест	-11.2175
otic	-11.2176
▁значимой	-11.2177
▁IOP	-11.2179
5).	-11.2184
▁2003	-11.2189
GA	-11.219
rimary	-11.2194
▁нейроэндокринн	-11.2197
▁Указан	-11.22
ирован	-11.22
▁ET	-11.22
инфекцией	-11.2201
emotional	-11.2204
▁трудно	-11.2205
component	-11.2205
▁процессах	-11.2205
three	-11.2205
РА	-11.2206
ЛК	-11.2206
рецепторов	-11.2207
▁ядерн	-11.2208
depressive	-11.2209
rehabilitation	-11.2209
ICD	-11.2214
▁12%	-11.2217
▁НПВП	-11.2221
-2.	-11.2223
▁объективно	-11.2231
▁височно	-11.2236
▁позволяюще	-11.2238
▁диаметр	-11.2244
▁ведущ	-11.2245
▁располага	-11.2247
смотр	-11.2248
▁autolog	-11.2249
noid	-11.2251
▁ГА	-11.2253
▁pharyngeal	-11.2254
95	-11.2257
▁старческом	-11.2262
▁возрастает	-11.2262
▁стационарно	-11.2262
▁ретроспективн	-11.2268
▁техника	-11.227
ГК	-11.2272
-67,	-11.2273
let	-11.2275
DF	-11.2275
проанализировать	-11.2278
▁достига	-11.228
▁programme	-11.228
▁AA	-11.2285
BD	-11.2292
▁кратк	-11.2295
РИ	-11.2296
метрии	-11.2298
▁аналитическ	-11.2304
троф	-11.2309
ированию	-11.2317
▁Ча	-11.2319
▁(24	-11.2321
▁metastat	-11.2324
▁reactive	-11.2324
йровизуализации	-11.2325
9).	-11.2325
▁Ab	-11.2326
ogenesis	-11.2327
IT	-11.2327
▁tim	-11.233
▁Cu	-11.233
▁passage	-11.2334
▁violation	-11.2335
▁image	-11.2335
▁seizure	-11.2335
▁гисто	-11.234
▁1,8	-11.2341
▁стадия	-11.2341
AK	-11.2344
▁1,4	-11.2346
▁тесно	-11.2348
▁обработк	-11.2352
▁затрат	-11.2359
▁наук	-11.236
▁системой	-11.2364
▁nm	-11.2368
king	-11.237
▁бессимптомн	-11.2372
▁Ka	-11.2372
▁слов	-11.2373
▁protect	-11.2376
▁Recent	-11.2377
вес	-11.2382
coding	-11.2383
ский	-11.2383
▁ГБ	-11.2383
▁branch	-11.2387
▁reflex	-11.2388
▁gingival	-11.2389
stead	-11.239
▁Examination	-11.239
▁Indications	-11.239
▁Kretschmer	-11.239
▁Mortality	-11.239
▁Organization	-11.239
▁carriers	-11.239
▁exchange	-11.239
▁frame	-11.239
▁indicating	-11.239
▁inguinal	-11.239
▁little	-11.239
▁maximal	-11.239
▁mixture	-11.239
▁mmHg	-11.239
▁modalities	-11.239
▁personnel	-11.239
▁retention	-11.239
▁testosterone	-11.239
▁tobacco	-11.239
▁understood	-11.239
▁Республике	-11.239
▁Республики	-11.239
▁гипоксии	-11.239
▁депрессий	-11.239
▁живота	-11.239
▁инородн	-11.239
▁кадров	-11.239
▁кальция	-11.239
▁коронавирусн	-11.239
▁падения	-11.239
▁перекисно	-11.239
▁спине	-11.239
▁стадией	-11.239
▁тестостерона	-11.239
▁челюстей	-11.239
▁considerably	-11.239
▁solid	-11.239
▁Long	-11.239
▁принимали	-11.239
▁adopt	-11.239
▁mesenchymal	-11.239
▁schizophrenic	-11.239
▁отобран	-11.239
▁целях	-11.239
▁происшествия	-11.239
▁engage	-11.239
▁колеб	-11.239
▁потеря	-11.239
▁взаимодействие	-11.239
▁регионе	-11.239
▁хотя	-11.239
clavi	-11.239
▁волос	-11.2391
▁восстанавлива	-11.2391
▁mood	-11.2391
▁gerontology	-11.2391
moya	-11.2391
▁fibrous	-11.2391
▁стандарта	-11.2392
нтов	-11.2392
▁Освещен	-11.2392
▁ограничений	-11.2393
▁microsurgical	-11.2393
▁интерлейкина	-11.2395
▁экзогенн	-11.2396
▁disabled	-11.2396
▁standardized	-11.2396
▁Эта	-11.2396
▁доступности	-11.2396
▁выработк	-11.2396
▁discovered	-11.2397
▁трубы	-11.2398
ней	-11.2398
▁мягк	-11.2398
оподобн	-11.2399
▁стопы	-11.2402
▁приступами	-11.2403
▁остальных	-11.2403
▁humans	-11.2404
визуализационных	-11.2405
▁осуществлять	-11.2405
▁шейк	-11.2406
▁основная	-11.2408
▁puncture	-11.2411
ировал	-11.2414
▁burn	-11.2416
▁orientation	-11.2417
▁тяжелое	-11.2418
▁женского	-11.242
▁новым	-11.2423
роз	-11.2424
▁ситуациях	-11.2425
▁сосудах	-11.2425
▁эндартерэктомии	-11.2425
▁деструкции	-11.2426
▁lethal	-11.2426
▁belonging	-11.2427
▁врожденного	-11.2429
▁encod	-11.2431
▁цели	-11.2431
▁керато	-11.2431
▁thromboemboli	-11.2431
▁bring	-11.2432
▁MOG	-11.2434
▁спинальн	-11.2434
▁выражены	-11.2434
▁thin	-11.2435
ТК	-11.2436
равнение	-11.2436
▁перехода	-11.2438
▁представление	-11.2441
▁СП	-11.2441
▁Ни	-11.2441
▁0,4	-11.2443
▁сильн	-11.2444
МЭ	-11.2447
til	-11.2452
кишечн	-11.2454
677	-11.2455
▁biomechanic	-11.2455
▁ХГП	-11.2458
BCA	-11.2459
phen	-11.246
sky	-11.2462
▁патологическ	-11.2464
▁бедренно	-11.2467
протектор	-11.247
▁биологически	-11.2482
ления	-11.2488
sectional	-11.2492
▁Нейро	-11.2492
▁catheter	-11.2493
ичного	-11.2495
▁сух	-11.2495
▁контраст	-11.2496
▁вариантах	-11.2498
▁ВГД	-11.2498
▁выявля	-11.2498
▁электронной	-11.2502
ene	-11.2503
3,7	-11.2507
rea	-11.2511
▁стандартны	-11.2511
▁адекватного	-11.2511
seven	-11.2515
онных	-11.2515
отомии	-11.2516
intensity	-11.2518
neurological	-11.2518
four	-11.2519
onset	-11.2519
▁гранулематоз	-11.252
▁эндотели	-11.252
IP	-11.2525
▁inhibit	-11.2526
мента	-11.2526
±10	-11.2526
ard	-11.2527
▁minimize	-11.2528
▁(1)	-11.2528
▁AS	-11.2529
либо	-11.2531
▁форму	-11.2532
▁Ha	-11.2534
ический	-11.2535
ющее	-11.2537
▁анализом	-11.2538
▁заключа	-11.2538
▁нарастани	-11.2539
angle	-11.2539
ГЭ	-11.2541
▁layers	-11.2542
бедренной	-11.2543
йти	-11.2545
▁установк	-11.2546
>=0.0	-11.2556
oL	-11.2556
▁обще	-11.2561
▁Снижени	-11.2563
▁нормативн	-11.2563
МО	-11.2566
▁высоки	-11.2568
▁CSF	-11.2569
▁стал	-11.2571
▁Выбор	-11.2572
▁антиген	-11.2572
genital	-11.2576
1,0	-11.2577
0,6	-11.2583
патологической	-11.2583
видетельствующие	-11.259
▁ключевым	-11.2592
▁опорно	-11.2593
▁вовлечени	-11.2595
▁определять	-11.2596
▁генетические	-11.2599
▁fr	-11.26
ual	-11.2605
-1)	-11.2605
▁mi	-11.2609
▁SE	-11.2612
ates	-11.2614
▁затрудня	-11.2616
ства	-11.2617
▁ФГБ	-11.2622
oli	-11.2622
клин	-11.2624
▁(80	-11.2624
▁индивидуального	-11.2625
▁Ph	-11.2626
CM	-11.2628
▁115	-11.2631
▁near	-11.2631
▁резерв	-11.2633
oster	-11.2635
ET	-11.264
=20)	-11.264
▁valu	-11.2641
▁повторно	-11.2642
▁cadaver	-11.2646
▁toothpaste	-11.2647
▁suture	-11.2647
▁compound	-11.2647
▁victim	-11.2648
▁алло	-11.2651
▁крупн	-11.2651
▁subgroup	-11.2651
▁аневризмой	-11.2652
КБ	-11.2654
ethyl	-11.2656
▁легко	-11.2659
over	-11.2661
3,3	-11.2661
▁PT	-11.2667
▁ca	-11.2679
▁СТ	-11.268
▁kidneys	-11.2687
▁thi	-11.2687
▁surviv	-11.2687
▁nutrition	-11.2687
▁broad	-11.2688
сон	-11.2688
▁причинно	-11.269
▁хроническом	-11.269
▁буду	-11.2692
▁name	-11.2694
▁вирус	-11.2694
▁criminal	-11.2695
▁трети	-11.2697
gun	-11.2697
▁hemisphere	-11.2698
▁Цитофлавин	-11.2698
▁participate	-11.2701
▁усиление	-11.2701
евой	-11.2702
orld	-11.2702
▁пищев	-11.2702
анатомо	-11.2702
coemulsification	-11.2702
evertheless	-11.2702
▁Bureau	-11.2702
▁Complex	-11.2702
▁Consider	-11.2702
▁ischaemic	-11.2702
▁malignancy	-11.2702
▁measuring	-11.2702
▁predisposition	-11.2702
▁territory	-11.2702
▁wakefulness	-11.2702
▁Подчеркнут	-11.2702
▁добровольцев	-11.2702
▁допплеровск	-11.2702
▁жирны	-11.2702
▁картину	-11.2702
▁мультиспиральн	-11.2702
▁перфоративн	-11.2702
▁предполагаем	-11.2702
▁противоположн	-11.2702
▁юношеск	-11.2702
▁sharp	-11.2702
▁звенья	-11.2702
▁benefic	-11.2702
▁Histological	-11.2702
▁equivalent	-11.2702
▁микробиоты	-11.2702
▁margin	-11.2702
▁термическ	-11.2702
▁бета	-11.2703
▁axis	-11.2703
▁пептидов	-11.2703
▁исключением	-11.2703
▁нейропатическ	-11.2703
▁теломер	-11.2703
▁таргетн	-11.2703
▁междисциплинарн	-11.2703
▁внутримышечно	-11.2703
▁reverse	-11.2703
▁intracerebral	-11.2704
▁Клиническая	-11.2704
▁подбор	-11.2704
▁intranasal	-11.2704
▁аномалиями	-11.2705
▁passive	-11.2705
▁встречались	-11.2705
▁Рэнкина	-11.2706
▁тенденцию	-11.2706
▁конструкции	-11.2706
▁сыворотки	-11.2707
▁manag	-11.2707
▁суток	-11.2707
▁документов	-11.2707
teen	-11.2707
▁регрессии	-11.2707
▁принципов	-11.2707
▁ineffective	-11.2708
▁физиотерапии	-11.2709
▁Main	-11.2709
▁fourth	-11.2709
▁эндокринной	-11.2709
▁Hz	-11.2709
▁кровоизлияния	-11.271
▁athletes	-11.271
▁Oral	-11.2711
▁Sub	-11.2712
▁25(	-11.2712
▁статистический	-11.2712
▁act	-11.2715
жде	-11.2715
▁нарушению	-11.2716
▁establishment	-11.2717
ACS	-11.2717
▁организаций	-11.2718
▁КС	-11.272
▁arrhythmias	-11.2721
▁Доказано	-11.2721
пато	-11.2722
▁spastic	-11.2722
▁небны	-11.2722
▁gliomas	-11.2723
▁relapsing	-11.2723
▁экономически	-11.2724
▁опроснику	-11.2724
▁implemented	-11.2725
▁АС	-11.2725
▁herpes	-11.2726
▁холестеатомы	-11.2727
▁vena	-11.2728
▁Five	-11.2734
▁параметрами	-11.2736
▁теме	-11.2736
▁контактн	-11.2737
▁науки	-11.2739
▁enter	-11.2739
▁головокружением	-11.274
▁obtaining	-11.2743
невр	-11.2744
,0±	-11.2747
▁аденомы	-11.2752
▁TA	-11.2754
▁signaling	-11.2757
▁появи	-11.2761
▁участвующи	-11.2762
▁ЦСЖ	-11.2766
▁вариантом	-11.2767
▁challenges	-11.2769
▁соматической	-11.2773
▁кисты	-11.2776
▁GERD	-11.2778
▁нарушениям	-11.2778
▁риски	-11.278
▁судебн	-11.2781
▁peak	-11.2783
▁heat	-11.2784
▁Особенность	-11.2785
▁180	-11.2787
▁attempts	-11.2788
иммунного	-11.2789
▁свободного	-11.2789
=0.01	-11.2794
АО	-11.2798
лем	-11.2799
▁CAD	-11.2799
▁ограничен	-11.2802
▁инструмента	-11.2802
▁базисной	-11.2803
▁карцином	-11.2805
дов	-11.2805
▁CVD	-11.2806
▁наш	-11.2808
▁(60	-11.2813
НП	-11.2815
▁доказательства	-11.2817
▁факторам	-11.2821
российских	-11.2824
▁связанной	-11.2825
нят	-11.2831
эндоваскулярн	-11.2834
▁обязательн	-11.2835
опросник	-11.2839
orbital	-11.2839
contain	-11.284
▁Пол	-11.284
клеток	-11.2841
quality	-11.2841
high	-11.2842
organic	-11.2843
pulmonary	-11.2845
овая	-11.2846
▁ПА	-11.2847
▁высоком	-11.2849
▁вмешательствах	-11.2853
OX	-11.2854
ообразн	-11.2854
▁AC	-11.2856
are	-11.2865
томии	-11.2867
вит	-11.2874
▁адекватно	-11.2874
▁полезн	-11.2876
▁изменениям	-11.2878
▁(200	-11.2879
▁opportunit	-11.288
▁подгрупп	-11.2884
Met	-11.2895
▁ЭТ	-11.2896
▁повышени	-11.29
▁агрессивн	-11.2901
▁(59	-11.2904
▁быстрое	-11.2906
▁Проводи	-11.2907
▁срока	-11.2908
▁блок	-11.2924
множественных	-11.2924
▁иници	-11.2931
gra	-11.2935
ometric	-11.2935
▁фермент	-11.2939
limiting	-11.294
▁плечево	-11.2943
▁GA	-11.2944
▁создает	-11.2944
arach	-11.2949
ДТ	-11.2954
▁damages	-11.2956
▁иммунологическ	-11.296
см	-11.2965
▁pleura	-11.2969
▁ga	-11.2969
▁localiz	-11.2974
▁allowing	-11.2981
stern	-11.2984
1,2	-11.2985
▁основы	-11.2986
▁преоблада	-11.2987
▁GP	-11.2989
▁матери	-11.2991
зарегистрировано	-11.2991
мор	-11.2993
меняются	-11.2995
дифференцированн	-11.2997
▁приводяще	-11.3001
ЭС	-11.3006
▁глутатион	-11.3007
ositive	-11.3012
ow	-11.3012
peptide	-11.3014
▁hydro	-11.3017
▁careful	-11.3017
▁35%	-11.3018
▁abscess	-11.3022
▁Low	-11.3024
5,4	-11.3024
▁Siberia	-11.3025
▁anamnesis	-11.3025
▁crucial	-11.3025
▁extremity	-11.3025
▁frequencies	-11.3025
▁ganglia	-11.3025
▁jaundice	-11.3025
▁juvenile	-11.3025
▁levodopa	-11.3025
▁manuscript	-11.3025
▁morning	-11.3025
▁nuclei	-11.3025
▁occlusal	-11.3025
▁pancreatectomy	-11.3025
▁reliably	-11.3025
▁return	-11.3025
▁sequential	-11.3025
▁sphincter	-11.3025
▁traffic	-11.3025
▁unclear	-11.3025
▁гестации	-11.3025
▁здоровью	-11.3025
▁кишке	-11.3025
▁коррекцию	-11.3025
▁оболочке	-11.3025
▁операцию	-11.3025
▁потребления	-11.3025
▁улитки	-11.3025
▁cicatric	-11.3025
▁patent	-11.3025
▁соавт	-11.3025
▁anxiolytic	-11.3025
▁pineal	-11.3025
▁геронтологии	-11.3025
▁кортизола	-11.3025
▁defense	-11.3025
▁Classification	-11.3025
▁airway	-11.3025
▁микроРНК	-11.3025
▁пальцев	-11.3025
▁nasola	-11.3025
▁formulation	-11.3025
▁kind	-11.3025
▁трехмерн	-11.3025
▁Intraoperative	-11.3026
▁планирования	-11.3026
▁принадлежности	-11.3026
▁соотношени	-11.3026
ющий	-11.3026
▁microbiological	-11.3026
▁rural	-11.3026
▁дофаминергическ	-11.3026
▁отличия	-11.3026
▁ретинальн	-11.3026
▁antiviral	-11.3027
▁overweight	-11.3027
▁неинфекционн	-11.3027
▁получала	-11.3027
▁навыков	-11.3028
formed	-11.3028
▁chose	-11.3028
▁(20%)	-11.3028
▁alcoholism	-11.3028
▁алкоголем	-11.3028
▁двухэтапн	-11.3028
▁сегментов	-11.3029
▁есть	-11.3029
▁конструкций	-11.3029
▁get	-11.3029
▁мышления	-11.3029
параноидной	-11.3029
▁квалификации	-11.3029
▁дополнение	-11.3029
conduction	-11.3029
▁integration	-11.3029
физиологических	-11.3029
▁Was	-11.303
▁analyst	-11.303
▁ценность	-11.303
▁отсутствует	-11.3031
▁биопсии	-11.3031
▁accumulated	-11.3031
wake	-11.3031
▁Studie	-11.3031
▁ensur	-11.3032
▁Care	-11.3032
▁ремоделирования	-11.3032
▁prepared	-11.3033
▁болей	-11.3033
▁classes	-11.3034
▁единственно	-11.3036
озом	-11.3037
▁независимы	-11.3038
reperfusion	-11.304
▁Общ	-11.304
действии	-11.304
▁заместительн	-11.3041
CCI	-11.3041
лево	-11.3041
▁lowest	-11.3041
▁стандартом	-11.3041
=0,02	-11.3043
▁ведет	-11.3045
▁embolization	-11.3047
▁mini	-11.3047
▁хряща	-11.3048
▁Hg	-11.3048
▁базах	-11.305
▁сохранени	-11.3051
▁covered	-11.3052
▁interferon	-11.3053
▁market	-11.3053
▁определена	-11.3054
▁карциномы	-11.3056
▁распределение	-11.3058
▁затраты	-11.3058
▁величины	-11.3061
▁ультразвуковое	-11.3061
▁сокращения	-11.3062
vol	-11.3064
▁интракраниальн	-11.3066
▁зрелого	-11.3067
▁решений	-11.3068
▁ускоренн	-11.307
▁неотложной	-11.307
поддержания	-11.307
▁сроках	-11.3071
▁MTHFR	-11.3072
СГ	-11.3074
▁ЛАГ	-11.3075
▁просвета	-11.3077
▁причинами	-11.3077
▁CABG	-11.3078
▁отрицательно	-11.3079
-6-	-11.308
▁acts	-11.3082
▁сопоставление	-11.3084
▁инфекционно	-11.3085
ице	-11.3087
▁drops	-11.3088
▁initially	-11.3091
▁достигнута	-11.3097
▁БАС	-11.3098
▁анестезиологи	-11.3101
▁хорош	-11.3101
кроме	-11.3102
овидн	-11.3102
▁методически	-11.3107
▁orbit	-11.3107
▁ангиографии	-11.3109
Glu	-11.311
▁совместно	-11.3112
▁признака	-11.3114
▁темп	-11.3114
▁alleles	-11.312
▁робот	-11.3123
▁желудочков	-11.3123
<0,0001)	-11.3124
▁обоснова	-11.3125
▁TSH	-11.313
1).	-11.3131
▁исследова	-11.3134
▁осмотра	-11.3134
▁акустически	-11.3135
▁метаболические	-11.3136
ana	-11.3137
▁inpatients	-11.3142
ших	-11.3144
▁positional	-11.3144
▁CE	-11.3145
▁пока	-11.3149
кус	-11.3151
воспалительного	-11.3155
показанием	-11.3159
▁характеристикам	-11.3161
мышечн	-11.3165
лучшение	-11.3167
mentioned	-11.3169
част	-11.3172
▁устойчивость	-11.3172
стимуляции	-11.3173
step	-11.3173
thyroid	-11.3173
лучев	-11.3173
blood	-11.3174
▁ингибитора	-11.3174
ума	-11.3177
▁devices	-11.3178
▁relations	-11.3178
▁лицев	-11.3178
CSF	-11.3179
▁foundation	-11.3183
▁схеме	-11.3186
▁parenchyma	-11.3187
▁genotypes	-11.3188
▁объекта	-11.3192
><0,05)	-11.3196
ati	-11.3196
▁улучша	-11.3205
▁образу	-11.3206
▁вестибуло	-11.3211
▁эмоционально	-11.3213
под	-11.3214
▁распространен	-11.3216
оцен	-11.3222
▁объективной	-11.3228
=0.03	-11.3231
▁воздействи	-11.3232
ируемых	-11.3232
▁flu	-11.3233
▁дают	-11.3236
▁arise	-11.3242
▁24%	-11.3244
▁рассеянном	-11.3245
▁генетического	-11.3247
▁значительным	-11.3252
▁нарушени	-11.3256
▁positions	-11.3257
▁she	-11.3262
▁СК	-11.3263
▁ряду	-11.3264
trophic	-11.3271
клад	-11.3276
-40	-11.3279
▁125	-11.3283
>=0,0	-11.3283
▁фенотип	-11.3286
▁ранне	-11.329
▁opening	-11.329
▁hemi	-11.3297
состоятельности	-11.3301
▁усовершенствова	-11.3302
▁solutions	-11.3302
▁tear	-11.3304
▁глазах	-11.3305
▁achievement	-11.3305
▁просвет	-11.3306
atin	-11.3308
±0,1	-11.3314
link	-11.3316
▁ситуация	-11.332
▁обществ	-11.3321
ultidisciplinary	-11.3322
▁rule	-11.3322
▁hemo	-11.3323
ural	-11.3323
▁незначительно	-11.3324
▁школ	-11.3327
мени	-11.3328
▁служб	-11.3328
ритм	-11.3329
▁CO	-11.3331
▁weak	-11.3334
▁гидро	-11.3335
арди	-11.3337
иммунологических	-11.3337
<0.001)	-11.3341
анализ	-11.3342
▁артрит	-11.3346
▁gradual	-11.3346
altered	-11.3347
▁SR	-11.3347
▁РН	-11.3351
зу	-11.3352
▁anatomic	-11.3352
▁fibro	-11.3353
▁надежн	-11.3353
▁Different	-11.3354
ников	-11.3357
▁System	-11.3358
▁Blood	-11.3358
▁Cochrane	-11.3358
▁Objective	-11.3358
▁RUMatrix	-11.3358
▁antibody	-11.3358
▁melanoma	-11.3358
▁passenger	-11.3358
▁prophylactic	-11.3358
▁titanium	-11.3358
▁tremor	-11.3358
▁Создан	-11.3358
▁нагрузкой	-11.3358
▁патологий	-11.3358
▁предсердия	-11.3358
▁прошедши	-11.3358
▁сенсоневральн	-11.3358
▁технология	-11.3358
▁шанс	-11.3358
▁экстракции	-11.3358
Dindo	-11.3358
▁collective	-11.3358
▁longitudinal	-11.3358
▁Медиа	-11.3358
ЭРГ	-11.3358
▁многоцентров	-11.3358
▁половины	-11.3358
▁пролонгированн	-11.3358
ГМУ	-11.3358
▁картиной	-11.3358
▁окклюзией	-11.3358
▁HIF	-11.3358
▁loop	-11.3358
▁метаболитов	-11.3358
▁лейкоцитов	-11.3358
▁транскраниальн	-11.3358
▁exogenous	-11.3358
▁microscope	-11.3358
▁colitis	-11.3358
▁thinking	-11.3358
▁планировании	-11.3358
▁cooperation	-11.3358
▁food	-11.3358
▁emergence	-11.3359
▁conversion	-11.3359
phenyl	-11.3359
angi	-11.3359
▁round	-11.3359
▁ранений	-11.3359
▁Cytoflavin	-11.3359
▁flowmetry	-11.3359
▁микробн	-11.3359
▁педиатрическ	-11.3359
▁прогнозировать	-11.3359
print	-11.3359
▁patency	-11.3359
▁unified	-11.3359
▁North	-11.3359
нального	-11.336
▁film	-11.336
▁гастроэзофаге	-11.336
▁коже	-11.336
▁инструментов	-11.336
▁округа	-11.3361
▁поведенческие	-11.3363
▁наблюдался	-11.3364
▁направление	-11.3364
▁недостатков	-11.3364
▁млн	-11.3366
▁оттока	-11.3366
▁UV	-11.3366
▁199	-11.3366
▁контроле	-11.3367
▁корней	-11.3367
▁мигренью	-11.3367
uterine	-11.3367
▁пяти	-11.3367
▁закон	-11.3368
▁substantially	-11.3368
▁мутациями	-11.3368
▁гипотензивн	-11.3368
▁оперированы	-11.3369
▁hair	-11.337
scan	-11.337
▁supplemented	-11.337
самцах	-11.3371
▁ПД	-11.3372
▁Первичн	-11.3372
▁гомеостаза	-11.3373
▁измерение	-11.3374
▁билиарн	-11.3374
▁hemoglobin	-11.3374
▁матрикса	-11.3376
▁интерстициальн	-11.3376
▁rabbits	-11.3378
▁приоритетн	-11.3378
▁стратегий	-11.3379
▁маркерами	-11.338
cial	-11.338
▁высоты	-11.3381
▁круга	-11.3381
▁42%	-11.3383
▁фибро	-11.3384
▁Immuno	-11.3385
▁элементы	-11.3385
▁режим	-11.3386
▁изучено	-11.3386
▁transcription	-11.3388
▁сосуда	-11.3388
ИЦ	-11.3389
▁инъекционн	-11.3389
ологов	-11.3391
paranoid	-11.3393
▁сохран	-11.3396
ae	-11.3397
▁mid	-11.3398
▁rationale	-11.3398
▁mind	-11.3399
eth	-11.34
▁предпосылк	-11.3401
TR	-11.3401
▁обеспечение	-11.3402
▁компрессии	-11.3403
▁гнойным	-11.3403
▁длительно	-11.3404
▁penetrat	-11.3405
▁users	-11.3405
▁anticoagulants	-11.341
▁continues	-11.3411
▁достигнуто	-11.3411
pharyngeal	-11.3412
▁ELISA	-11.3413
▁НАЖБП	-11.3413
▁delusion	-11.3415
▁временны	-11.3415
▁продукци	-11.3416
▁Наибольше	-11.3417
93	-11.3418
▁differed	-11.3421
распространенным	-11.3423
58	-11.3423
▁traces	-11.3423
▁Staphylococcus	-11.3426
▁redo	-11.3428
BT	-11.3428
▁склерозе	-11.3428
▁visits	-11.3429
▁дополнительные	-11.343
▁психоактивны	-11.3432
▁мест	-11.3432
▁обозначен	-11.3433
рентгенологическ	-11.3435
▁обмен	-11.3437
▁государственных	-11.3437
▁рисков	-11.3438
▁помо	-11.3439
химических	-11.3441
▁сложным	-11.3444
▁Tr	-11.3445
▁перфузии	-11.3445
▁sarcoma	-11.3446
казывается	-11.3452
▁красн	-11.3452
echocardiography	-11.3453
uality	-11.346
▁необходима	-11.346
▁диапазоне	-11.3465
uro	-11.3467
▁BMI	-11.3468
▁МР	-11.3468
▁Pre	-11.3469
▁ME	-11.3469
▁например	-11.3471
▁автора	-11.3472
физиологические	-11.3477
▁ortho	-11.3478
lin	-11.348
▁Cr	-11.3482
▁имело	-11.3485
▁0.8	-11.3488
4,9	-11.3494
▁ago	-11.35
▁0,9	-11.35
5.3	-11.3501
ear	-11.3505
▁112	-11.3506
▁сетчат	-11.3506
tomy	-11.3509
▁психотическ	-11.351
▁диапазон	-11.3512
ТГ	-11.3515
wave	-11.3516
femoral	-11.3517
controlled	-11.3517
лимфоцитов	-11.3517
protein	-11.3518
biological	-11.3518
▁вегетативных	-11.352
▁дневн	-11.3522
▁Ко	-11.3523
▁внутривенн	-11.3528
ностью	-11.3529
aw	-11.3529
range	-11.353
6;	-11.3533
▁имел	-11.3536
емии	-11.3538
▁годов	-11.3538
ontraindications	-11.3539
▁1-2	-11.3543
▁формул	-11.3544
▁rights	-11.3545
▁trachea	-11.355
ическая	-11.3554
▁анастомоз	-11.3566
▁психофармако	-11.3566
ВС	-11.3568
генеза	-11.3568
ii	-11.3569
стимул	-11.3572
▁вызывают	-11.3573
ody	-11.3573
=0,03	-11.3575
КК	-11.3581
▁доклиническ	-11.3582
▁116	-11.3588
▁оп	-11.3589
▁попытка	-11.359
▁3,5	-11.3593
пептид	-11.3593
▁сравн	-11.3595
▁положительным	-11.3598
▁сторон	-11.3601
▁лазер	-11.3605
▁Li	-11.3606
▁induce	-11.3611
▁ПС	-11.3618
oper	-11.3619
▁индуцированн	-11.3621
▁образа	-11.3624
ya	-11.3625
▁схема	-11.3626
ФК	-11.3628
сульфат	-11.3633
▁сформулирован	-11.3636
▁measure	-11.3636
▁постепенно	-11.3643
▁sequence	-11.3647
▁stand	-11.365
▁1,0	-11.3659
свет	-11.3662
▁fluids	-11.3665
▁Существу	-11.3665
▁ключевы	-11.3673
▁respond	-11.3675
▁elaborat	-11.3678
стандартного	-11.3681
▁worsen	-11.3683
сипиридина	-11.3684
▁SS	-11.3684
▁соматическ	-11.3689
▁возникновение	-11.369
use	-11.3691
▁2%	-11.3692
▁worse	-11.3694
▁ранения	-11.3695
▁оксида	-11.3695
▁рефлюкс	-11.3696
остей	-11.3698
▁fla	-11.3699
omplications	-11.3701
▁ethnic	-11.3702
▁MI	-11.3702
iterature	-11.3703
▁Име	-11.3703
▁демиелинизирующ	-11.3703
remitting	-11.3703
доминантн	-11.3703
ысокотехнологичн	-11.3703
▁Correlation	-11.3703
▁Visual	-11.3703
▁aphasia	-11.3703
▁cluster	-11.3703
▁examining	-11.3703
▁excellent	-11.3703
▁federal	-11.3703
▁ganglion	-11.3703
▁keratitis	-11.3703
▁malignancies	-11.3703
▁myasthenia	-11.3703
▁next	-11.3703
▁retardation	-11.3703
▁Минздрава	-11.3703
▁антропометри	-11.3703
▁асимметрии	-11.3703
▁аутистическ	-11.3703
▁ведению	-11.3703
▁ветвей	-11.3703
▁возникновении	-11.3703
▁митохондриальн	-11.3703
▁ожогов	-11.3703
▁онтогенеза	-11.3703
▁рекомендует	-11.3703
▁симптоматикой	-11.3703
▁слюне	-11.3703
▁содержит	-11.3703
▁устрани	-11.3703
▁штаммов	-11.3703
▁эпизода	-11.3703
▁clinicians	-11.3703
▁кластер	-11.3703
▁постнатально	-11.3703
▁приобрета	-11.3703
▁Follow	-11.3703
▁rank	-11.3703
▁карбо	-11.3703
▁растет	-11.3703
▁тазов	-11.3703
▁интраокулярн	-11.3703
▁sedation	-11.3703
▁Minimal	-11.3703
▁disabilities	-11.3703
▁physiotherapy	-11.3703
▁attract	-11.3703
▁microbial	-11.3704
▁курения	-11.3704
▁prevalent	-11.3704
▁music	-11.3704
▁слепо	-11.3704
▁intermediate	-11.3704
▁дерме	-11.3704
▁paralysis	-11.3704
▁preferable	-11.3704
▁(25%)	-11.3704
▁служа	-11.3705
▁сахарном	-11.3705
▁обоснованны	-11.3707
▁daytime	-11.3707
dopaminergic	-11.3708
sparing	-11.3709
▁feeling	-11.371
▁angiogenesis	-11.371
▁тугоухостью	-11.371
▁ears	-11.3711
▁slightly	-11.3713
▁позднего	-11.3713
▁ophthalmology	-11.3713
▁подкожн	-11.3714
▁политики	-11.3714
▁аффективными	-11.3714
▁компрессионн	-11.3717
▁врачебн	-11.3719
▁Mexidol	-11.372
▁permeability	-11.372
▁таковой	-11.372
▁nutritional	-11.372
ologists	-11.3722
▁ИМ	-11.3722
емой	-11.3723
ther	-11.3723
▁channel	-11.3724
▁атрофии	-11.3724
▁дисплазии	-11.3726
▁аудиологическ	-11.3727
▁бактерий	-11.3727
▁introduce	-11.3729
▁gained	-11.3731
-14	-11.3732
▁направлением	-11.3733
▁сохранением	-11.3733
▁кожны	-11.3733
▁тромбозом	-11.3734
▁световой	-11.3734
▁института	-11.3738
▁clearly	-11.3739
▁rhino	-11.3739
▁ground	-11.374
▁интеллектуальн	-11.374
▁сканирования	-11.374
эк	-11.3741
▁AED	-11.3741
▁тяжелые	-11.3743
0).	-11.3744
▁антибиотико	-11.3746
▁humoral	-11.3746
▁компоненты	-11.3748
tein	-11.3751
ella	-11.3752
mia	-11.3752
ОГ	-11.3754
▁сокращени	-11.3758
▁обл	-11.3758
▁Ac	-11.3759
otropic	-11.376
▁значениями	-11.3761
▁количественные	-11.3763
=0,7	-11.3764
▁FAS	-11.3764
▁респираторных	-11.3766
▁онко	-11.3768
▁техник	-11.3769
AL	-11.3773
▁links	-11.3774
▁enzym	-11.3775
▁remove	-11.3776
▁бес	-11.3776
crim	-11.3776
▁введением	-11.3778
▁lip	-11.3781
▁пациентом	-11.3781
▁центре	-11.3782
▁религиозн	-11.3786
▁170	-11.3787
sen	-11.3789
▁Pr	-11.379
▁ростом	-11.379
скопическ	-11.3791
пут	-11.3791
▁road	-11.3792
глу	-11.3792
bra	-11.3793
▁illustrate	-11.3793
▁необходимым	-11.3795
0-	-11.3795
ИЛ	-11.3797
▁подтверждена	-11.3797
демонстрировали	-11.3798
band	-11.3799
▁completed	-11.3799
▁donors	-11.38
ЛП	-11.3809
▁гастро	-11.3812
▁наследственной	-11.3815
▁2004	-11.3815
▁107	-11.3817
▁рабоче	-11.382
альным	-11.382
▁ген	-11.3822
▁15-	-11.3824
▁Необходимо	-11.3824
инвазивн	-11.383
▁превышал	-11.3836
▁правильно	-11.3836
ходятся	-11.3837
▁обраща	-11.384
криминалистическ	-11.3845
нальной	-11.3846
▁HC	-11.3847
рная	-11.3852
▁гепатита	-11.3855
▁Multi	-11.3856
альн	-11.3856
▁ASD	-11.3857
iven	-11.3858
жение	-11.386
ОА	-11.3861
▁myo	-11.3864
▁CRP	-11.3864
=15)	-11.3865
аци	-11.3865
▁негативны	-11.3865
ocytic	-11.3867
продукции	-11.3868
secret	-11.3873
▁фундаментальн	-11.3873
▁амбулаторно	-11.3873
неврологическое	-11.3874
venous	-11.3875
▁outpatients	-11.3875
ИБС	-11.3875
вирус	-11.3876
▁тромбо	-11.3876
▁принципиально	-11.3877
density	-11.3877
ОКТ	-11.3877
brain	-11.388
гер	-11.388
▁шунт	-11.3884
▁низко	-11.3887
▁изменя	-11.3887
▁Sch	-11.3887
▁Na	-11.3888
▁симптоматическ	-11.3889
▁исследованием	-11.3898
10<	-11.39
▁постоянной	-11.3901
▁ultrason	-11.3904
-55	-11.3904
bility	-11.3907
▁чрезвычайно	-11.391
▁выводы	-11.3912
▁3-4	-11.3917
▁меди	-11.3932
ВН	-11.3933
▁PI	-11.3933
▁полным	-11.3934
становления	-11.3935
вари	-11.3937
1,7	-11.3939
▁преимущество	-11.3949
▁заболеваниям	-11.3953
▁МТ	-11.3953
GFR	-11.3954
ских	-11.3962
▁благоприятным	-11.3965
▁(44	-11.3967
овать	-11.3968
▁дела	-11.397
graphic	-11.3973
position	-11.398
▁эндоскопически	-11.398
▁нашем	-11.3981
луча	-11.3982
▁стандартным	-11.3986
базилярн	-11.3988
рмо	-11.3989
▁реконструкци	-11.399
▁слабо	-11.3994
▁continue	-11.3994
▁обо	-11.3995
▁подготовк	-11.4005
▁anticoagulant	-11.4006
▁indication	-11.4006
▁parameter	-11.4006
▁описывает	-11.4009
tumor	-11.4013
▁нарушениях	-11.4013
КА	-11.4014
ложения	-11.4017
PH	-11.4019
▁занима	-11.4021
инструментальных	-11.4023
▁erythrocyte	-11.4023
анн	-11.4028
▁idea	-11.4031
▁черт	-11.4031
▁understand	-11.4032
▁протезирование	-11.4033
▁член	-11.4034
▁психоза	-11.4034
▁ожирение	-11.4034
efore	-11.4036
ДР	-11.4036
тар	-11.4041
▁патологоанатом	-11.4042
▁Но	-11.4043
▁prescrib	-11.4043
1,5	-11.4045
эпилептически	-11.4046
▁проявление	-11.4046
▁вариабельность	-11.4049
▁famili	-11.4054
▁шум	-11.4055
▁которыми	-11.4055
▁Актив	-11.406
▁дивертикул	-11.406
hydroxypyridine	-11.406
▁Association	-11.406
▁answer	-11.406
▁calcification	-11.406
▁detachment	-11.406
▁hippocampus	-11.406
▁hydrocephalus	-11.406
▁irrigation	-11.406
▁popular	-11.406
▁psychosomatic	-11.406
▁senior	-11.406
▁specialties	-11.406
▁yield	-11.406
▁Увеличени	-11.406
▁аномалии	-11.406
▁ассоцииру	-11.406
▁варьировал	-11.406
▁вместе	-11.406
▁детям	-11.406
▁логистическ	-11.406
▁русскоязычн	-11.406
▁тиреотоксикоза	-11.406
▁толерантности	-11.406
фосфат	-11.406
▁parallel	-11.406
▁Спилбергера	-11.406
▁дренаж	-11.406
▁потребности	-11.406
▁применяется	-11.406
▁складок	-11.406
nolaryngologic	-11.406
▁concre	-11.406
▁meningitis	-11.406
▁Поиск	-11.406
▁внутриутробн	-11.406
▁многопрофильн	-11.406
▁palate	-11.406
▁Pain	-11.406
▁season	-11.406
▁sarcoidosis	-11.406
▁ангиогенеза	-11.406
▁культи	-11.406
▁endoprosthetic	-11.406
▁room	-11.406
▁соединения	-11.4061
▁employment	-11.4061
▁подкорков	-11.4061
▁eosinophilic	-11.4061
▁Other	-11.4061
▁usage	-11.4062
▁decompensation	-11.4062
▁эндоваскулярной	-11.4062
▁psychoemotional	-11.4062
▁compos	-11.4062
▁phenotypic	-11.4063
▁placement	-11.4063
▁отличаются	-11.4064
▁зонах	-11.4064
▁psychology	-11.4064
61	-11.4066
▁cellex	-11.4066
▁извлечения	-11.4067
▁гемоглобина	-11.4067
▁Гц	-11.4068
▁thought	-11.4069
4,2%	-11.4069
▁накопления	-11.4069
▁поряд	-11.4069
▁дофамина	-11.407
▁intelligence	-11.4071
▁тромбозов	-11.4072
антигипертензивн	-11.4072
▁обследуемых	-11.4072
▁уменьшается	-11.4073
gon	-11.4073
▁диспансерн	-11.4074
▁оказании	-11.4076
▁свищами	-11.4076
▁перевод	-11.4076
▁digestive	-11.4078
▁mobile	-11.4078
▁пограничн	-11.4078
▁достоверности	-11.4079
▁shorter	-11.4079
▁spectrophotomet	-11.408
▁аневризмами	-11.408
▁masses	-11.4081
▁pneumoniae	-11.4081
▁лабораторные	-11.4084
▁хорошей	-11.4084
▁dual	-11.4085
▁ухудшает	-11.4085
▁kerato	-11.4088
▁профил	-11.4088
▁окислительн	-11.4091
▁определяем	-11.4092
▁коллагенов	-11.4092
▁Heli	-11.4093
▁мутация	-11.4093
▁city	-11.4095
▁Stage	-11.4097
▁newborns	-11.4098
▁йода	-11.4098
iotic	-11.4098
gan	-11.4099
▁Обнаружено	-11.41
▁аденокарциномы	-11.41
▁осложненным	-11.4101
▁сохранение	-11.4101
вяз	-11.4103
▁composite	-11.4105
▁Интраоперационн	-11.4106
rib	-11.4107
▁накоплен	-11.4107
▁cone	-11.4109
optic	-11.411
АЗ	-11.411
▁отношений	-11.4112
▁verbal	-11.4112
▁cortisol	-11.4112
▁аллель	-11.4112
▁указан	-11.4112
▁мышечно	-11.4116
,0%)	-11.4116
▁ретроспективно	-11.4117
▁0.6	-11.4121
▁neonat	-11.4123
▁меньш	-11.4124
ening	-11.4125
▁нейродегенера	-11.4133
▁VEGFR	-11.4134
▁rehabilitati	-11.4136
носителей	-11.4136
▁0.9	-11.4136
▁modifications	-11.4136
-50	-11.4139
▁ng	-11.414
▁топическ	-11.414
фтор	-11.4144
weight	-11.4145
▁ПОУГ	-11.4147
▁исходы	-11.4149
динамического	-11.4152
▁подтвержденным	-11.4158
▁HbA	-11.4161
AE	-11.4163
▁тяжелыми	-11.4164
neuro	-11.4164
▁dependent	-11.4168
тем	-11.4169
▁терапевтические	-11.4173
морфологического	-11.4174
▁производи	-11.4175
анатомическ	-11.4179
▁находит	-11.4179
ающих	-11.418
med	-11.419
1%	-11.419
ишемических	-11.419
=0,02)	-11.4195
30%	-11.4195
▁аспект	-11.4197
▁ПЦР	-11.4202
▁конце	-11.4203
▁гр	-11.4203
▁исследовательск	-11.421
▁sac	-11.4211
CAP	-11.4218
химическ	-11.4218
вшей	-11.4219
протеин	-11.4219
▁damaged	-11.422
▁(55	-11.4227
our	-11.4228
▁лазера	-11.4234
▁Non	-11.4235
5,3	-11.424
▁гистологическом	-11.4242
▁VAS	-11.4244
▁гетерозиготн	-11.4245
1.2	-11.4245
ЭЭГ	-11.4246
infection	-11.4246
temporal	-11.4246
enhanced	-11.4247
ze	-11.4248
▁secret	-11.425
gram	-11.4251
ЛС	-11.4253
▁легочных	-11.4254
▁НС	-11.4256
▁наибольши	-11.4259
▁инсульте	-11.4262
6,5%	-11.4264
MSC	-11.4264
▁максимальной	-11.4266
▁фиброз	-11.4271
▁потенциальны	-11.4271
КГ	-11.4272
▁улучшением	-11.4272
tory	-11.4272
NO	-11.4273
either	-11.4277
steroid	-11.4281
дис	-11.4284
▁(48	-11.4284
▁su	-11.4285
▁СГ	-11.4286
3,6	-11.4287
▁неврологически	-11.429
▁точно	-11.4296
▁эта	-11.4298
ГБ	-11.43
▁эн	-11.4301
льной	-11.4304
▁joints	-11.4307
hr	-11.4307
0,05)	-11.4313
▁внедрен	-11.4316
эндогенных	-11.4316
анти	-11.4318
▁венозного	-11.4324
vir	-11.4324
псих	-11.4333
ируя	-11.4339
▁140	-11.434
▁скелетн	-11.4346
ирующей	-11.4346
▁гипотиреоз	-11.4349
▁nitr	-11.4353
PK	-11.4354
▁слизист	-11.4354
▁sizes	-11.4357
▁язык	-11.4357
одержание	-11.436
parative	-11.4364
4,2	-11.4366
▁панкреатит	-11.4367
▁(61	-11.4369
▁подходах	-11.4371
▁dream	-11.4374
▁shot	-11.4374
▁error	-11.4376
▁biomarker	-11.4376
▁153	-11.4377
▁отказ	-11.4379
imp	-11.4384
▁Анализиру	-11.4385
▁построен	-11.4387
▁рефлекс	-11.4387
▁антитела	-11.4388
▁интактн	-11.4391
▁(58	-11.4391
▁правов	-11.4391
▁психолог	-11.4393
▁участвовал	-11.4394
▁меньшим	-11.4395
▁кислота	-11.4398
▁глиом	-11.44
▁Количеств	-11.4402
▁стента	-11.4402
▁кровотечение	-11.4413
▁точность	-11.4423
▁ultra	-11.4429
▁уточни	-11.4431
▁Material	-11.4431
▁academic	-11.4431
▁battery	-11.4431
▁candidate	-11.4431
▁creating	-11.4431
▁dermatoglyphic	-11.4431
▁gallbladder	-11.4431
▁nucleus	-11.4431
▁sensation	-11.4431
▁Отдельно	-11.4431
▁антипсихотическ	-11.4431
▁делирия	-11.4431
▁десятилетие	-11.4431
▁десятилетий	-11.4431
▁довольн	-11.4431
▁доказана	-11.4431
▁закономерностей	-11.4431
▁объясняет	-11.4431
▁полушария	-11.4431
▁происходил	-11.4431
▁психосоматическ	-11.4431
▁реабилитация	-11.4431
▁семьи	-11.4431
▁спины	-11.4431
▁эндодонтическ	-11.4431
▁metastasis	-11.4431
▁mutual	-11.4431
▁специфик	-11.4431
нейромиографи	-11.4431
▁cirrhosis	-11.4431
▁nano	-11.4431
▁себе	-11.4431
▁Срок	-11.4431
▁musculoskeletal	-11.4431
▁recombinant	-11.4431
▁торакоскопическ	-11.4431
▁pneumati	-11.4431
▁адгезивн	-11.4431
▁кровоснабжения	-11.4431
▁collected	-11.4431
▁версии	-11.4431
▁logistic	-11.4431
▁outline	-11.4431
▁минимизирова	-11.4431
▁nucleotide	-11.4431
▁исключения	-11.4431
▁hypotensive	-11.4431
▁subtotal	-11.4431
▁neoplasia	-11.4431
▁disruption	-11.4431
▁blindness	-11.4431
▁formula	-11.4431
▁hypoglycemic	-11.4431
▁palm	-11.4431
▁эозинофильн	-11.4431
▁clot	-11.4432
▁validity	-11.4432
новая	-11.4432
тивной	-11.4432
▁развился	-11.4432
▁колит	-11.4433
▁фокальной	-11.4433
▁ботулинотерапии	-11.4433
▁построения	-11.4433
▁political	-11.4433
▁surrounding	-11.4433
▁диафрагмы	-11.4433
хлор	-11.4434
▁Eighty	-11.4435
▁свищей	-11.4435
▁дифференциально	-11.4435
▁окончания	-11.4437
▁истинн	-11.4437
▁освоения	-11.4438
▁язвенн	-11.4438
▁полном	-11.4438
usta	-11.4438
apan	-11.4439
▁projection	-11.4439
▁кардиомиопатии	-11.4439
▁проспективны	-11.444
▁переломами	-11.4441
▁put	-11.4443
▁проекции	-11.4443
▁односторонней	-11.4444
▁prerequisites	-11.4444
▁передних	-11.4446
▁самооценки	-11.4446
целе	-11.4447
амилоида	-11.4448
▁плевральн	-11.4449
▁normative	-11.4449
▁CG	-11.445
▁substantia	-11.445
▁нозологически	-11.4452
▁категорий	-11.4454
▁Программ	-11.4454
▁перспективные	-11.4455
▁аденокарцином	-11.4456
▁демографическ	-11.4456
▁дуоденальн	-11.4457
▁1.4	-11.4457
▁стационарного	-11.4457
▁кардиоэмболи	-11.4459
▁получили	-11.4459
▁опасн	-11.4461
морф	-11.4462
▁покров	-11.4463
▁instruments	-11.4463
▁компонентом	-11.4463
▁started	-11.4465
гипофизарно	-11.4466
▁воздействий	-11.4467
sellar	-11.4467
spi	-11.4468
▁details	-11.447
▁Self	-11.447
▁понятия	-11.4473
▁газов	-11.4477
▁исключительно	-11.4483
▁лоскута	-11.4483
MM	-11.4483
▁arm	-11.4484
▁играю	-11.4484
▁2001	-11.4485
▁операциям	-11.4487
▁нерв	-11.4488
▁возбудителя	-11.45
открытое	-11.4503
▁специфической	-11.4503
▁ДППГ	-11.4506
▁USA	-11.4507
▁диска	-11.4508
▁detecting	-11.4509
▁ранним	-11.451
▁оказыва	-11.4511
▁информативны	-11.4512
▁motivation	-11.4513
ips	-11.4514
▁influences	-11.4514
ulin	-11.4516
▁(54	-11.4518
▁диагностировать	-11.4518
▁Describe	-11.4518
▁2010-201	-11.4521
▁Po	-11.4522
▁психические	-11.4523
▁ПЭП	-11.4525
▁POAG	-11.4528
▁показывает	-11.4528
▁ring	-11.4531
▁значимыми	-11.4531
▁observational	-11.4531
▁результатом	-11.4532
▁accidents	-11.4533
▁SH	-11.4534
1.7	-11.4536
▁situational	-11.4539
СЗ	-11.454
ср	-11.4541
▁maxilla	-11.4543
▁стар	-11.4546
▁детально	-11.4547
ению	-11.4549
▁зрительной	-11.4549
atory	-11.4552
индуцированн	-11.4552
техническ	-11.4555
▁необходимостью	-11.4555
▁жиров	-11.4562
▁(87	-11.4566
50%	-11.4569
▁DRD	-11.4571
иммуносупрессивн	-11.4574
▁ВЧ	-11.4576
▁locally	-11.4577
▁intervals	-11.4578
▁приеме	-11.4578
za	-11.4579
8;	-11.458
MCI	-11.4585
▁диаметра	-11.4586
▁сформированн	-11.4587
LE	-11.4587
epithelial	-11.4587
▁процессом	-11.4597
▁последующем	-11.4601
являются	-11.4604
▁традиционно	-11.4605
▁действующи	-11.4605
▁кровеносны	-11.4608
▁молекулярной	-11.461
ophthalmological	-11.4611
ставлен	-11.4612
evelopment	-11.4615
▁самостоятельно	-11.4615
ХТ	-11.4617
▁гетерогенность	-11.4618
▁неизвестн	-11.462
▁ten	-11.462
▁MP	-11.4621
▁блока	-11.4622
▁1.3	-11.4626
matched	-11.4627
препарат	-11.4627
amyloid	-11.4629
CHD	-11.4629
frontal	-11.463
according	-11.4631
micro	-11.4631
amide	-11.4631
MSCT	-11.4632
▁доза	-11.4633
median	-11.4634
доступ	-11.4635
ERG	-11.4636
acute	-11.4637
ischemic	-11.4637
uric	-11.4638
VAS	-11.4639
▁неврологическ	-11.4639
▁(46	-11.4644
hysiotherapeutic	-11.4649
БК	-11.465
▁(34	-11.4655
КИ	-11.4657
ологических	-11.4657
=0,00	-11.4661
нтной	-11.4664
▁зача	-11.4666
▁выраж	-11.4669
▁санаторно	-11.4672
▁shoulder	-11.4674
▁орбит	-11.4675
ографии	-11.4675
▁супер	-11.4678
being	-11.4679
▁neuropath	-11.4679
▁кур	-11.4682
▁обстоятельств	-11.4683
▁1%	-11.469
1.3	-11.4694
▁термина	-11.4695
▁одновременн	-11.4696
20%	-11.4703
фаз	-11.471
▁дифференцирова	-11.471
дегенеративного	-11.4712
▁достоверной	-11.4715
▁remov	-11.4715
=0,01)	-11.4722
▁главным	-11.4724
▁маркер	-11.4731
▁Depend	-11.4734
▁изолированно	-11.4737
льных	-11.4738
ВА	-11.4739
▁стойки	-11.4739
ner	-11.4743
▁продолжа	-11.4744
токси	-11.4744
ивания	-11.4745
▁введен	-11.4749
8),	-11.475
▁проф	-11.4751
▁pathogen	-11.4756
▁носит	-11.4756
▁infant	-11.4761
▁Patient	-11.4761
ание	-11.4762
бы	-11.4766
воспалительный	-11.477
ole	-11.4771
tactic	-11.4772
▁characteriz	-11.4773
▁дисбаланс	-11.4773
▁Ni	-11.4775
▁analogue	-11.4775
▁адаптивн	-11.4776
▁кровоток	-11.4777
▁Clinic	-11.4777
токсикологическ	-11.4777
▁элемент	-11.4779
▁принадлеж	-11.478
▁регенераци	-11.4781
▁отбор	-11.4784
▁холестеатом	-11.4785
▁лекарств	-11.4786
ования	-11.4787
▁другим	-11.4787
▁мен	-11.479
ographic	-11.4798
▁register	-11.4799
70%	-11.4799
adren	-11.48
▁annual	-11.4802
▁Me	-11.4803
PL	-11.4804
▁update	-11.4804
ван	-11.4807
▁медленно	-11.481
▁когнитивным	-11.481
пуска	-11.4811
-10)	-11.4811
▁аорто	-11.4812
енного	-11.4812
▁протяженн	-11.4812
тимпан	-11.4813
▁Пред	-11.4814
▁stoma	-11.4815
terview	-11.4815
прежнему	-11.4815
▁Bleuler	-11.4815
▁Expertise	-11.4815
▁aggression	-11.4815
▁appointment	-11.4815
▁arrest	-11.4815
▁challenging	-11.4815
▁compartment	-11.4815
▁corpus	-11.4815
▁diastol	-11.4815
▁gastroduodenal	-11.4815
▁heterozygous	-11.4815
▁identity	-11.4815
▁immunoassay	-11.4815
▁innovative	-11.4815
▁junction	-11.4815
▁lumbo	-11.4815
▁palatine	-11.4815
▁Благодар	-11.4815
▁Высказан	-11.4815
▁биоэлектрическ	-11.4815
▁десны	-11.4815
▁диастолическ	-11.4815
▁дуплексно	-11.4815
▁клубочков	-11.4815
▁митохондрий	-11.4815
▁нейтрофилов	-11.4815
▁реабилитацию	-11.4815
▁триглицеридов	-11.4815
▁nigra	-11.4815
▁precise	-11.4815
▁областей	-11.4815
▁репаративн	-11.4815
▁сенсомоторн	-11.4815
▁нагрузка	-11.4815
▁Morphological	-11.4815
▁срезах	-11.4815
▁санации	-11.4815
▁exemplifie	-11.4815
▁Леви	-11.4815
▁комплемента	-11.4815
▁врачу	-11.4815
▁клинику	-11.4815
▁audiological	-11.4815
▁изображений	-11.4815
▁steady	-11.4815
▁носоглотки	-11.4816
▁participat	-11.4816
▁hypertrophy	-11.4816
▁спортивн	-11.4816
▁терминологии	-11.4816
▁томографию	-11.4816
▁cough	-11.4816
▁lost	-11.4816
▁Overall	-11.4816
▁superficial	-11.4816
▁separation	-11.4816
▁rejection	-11.4816
▁слева	-11.4816
▁ремиссия	-11.4816
▁открытоугольн	-11.4816
▁migration	-11.4816
▁подвергш	-11.4816
▁дети	-11.4816
▁тел	-11.4816
itation	-11.4816
▁adjustment	-11.4817
▁маз	-11.4817
▁discontinuation	-11.4817
▁сохранить	-11.4817
▁отличались	-11.4818
▁miR	-11.4818
▁HSP	-11.4818
▁изображения	-11.4818
▁eating	-11.4818
▁discovery	-11.4819
▁germin	-11.4819
▁demyelinati	-11.4819
▁природу	-11.482
▁назначали	-11.482
▁точности	-11.482
▁пародонтитом	-11.4821
▁захвата	-11.4821
▁analog	-11.4822
▁возникши	-11.4823
▁обязательным	-11.4823
▁ГХ	-11.4823
amil	-11.4824
▁Although	-11.4825
ertain	-11.4825
▁пародонтита	-11.4826
▁применялись	-11.4826
▁confidence	-11.4827
PN	-11.4827
▁deposits	-11.4827
▁connected	-11.4828
▁обструкции	-11.4828
▁recording	-11.4829
▁протоколов	-11.4829
▁мета	-11.4829
▁КО	-11.4829
▁hemorrhoids	-11.483
▁sports	-11.483
▁донорск	-11.483
▁ассоциаций	-11.483
▁amplification	-11.4832
▁уникальн	-11.4832
▁weapons	-11.4832
противопоказания	-11.4832
▁атеросклерозом	-11.4832
▁составляющих	-11.4837
iform	-11.4838
▁линзы	-11.4838
▁объективизаци	-11.4838
▁природн	-11.4839
▁зоба	-11.484
0,7	-11.484
▁Sechenov	-11.4841
▁cerebellar	-11.4841
▁сбор	-11.4842
▁смещение	-11.4843
▁одному	-11.4845
▁внешних	-11.4845
▁радио	-11.4845
▁отит	-11.4849
▁первичном	-11.4849
▁язычн	-11.4849
=0,5	-11.485
-3,	-11.4852
▁организация	-11.4854
▁последнего	-11.4854
▁2015.	-11.4855
▁незначительн	-11.4856
eu	-11.4859
РПЭ	-11.486
фил	-11.4862
▁If	-11.4864
▁алгоритмов	-11.4865
▁retrospectively	-11.4866
▁tonsils	-11.4866
▁морфологическим	-11.487
▁церебральным	-11.487
▁белого	-11.4871
КМ	-11.4873
1.6	-11.4874
=9	-11.4877
▁СКФ	-11.4878
▁социальные	-11.4879
▁PAH	-11.488
▁обследовали	-11.4881
▁прямо	-11.4886
▁доступом	-11.4889
▁13-	-11.4889
Th	-11.4893
▁MFI	-11.4895
▁ТК	-11.4896
спир	-11.4897
▁энергетическ	-11.4901
демографических	-11.4902
▁settings	-11.4904
классической	-11.4907
▁ART	-11.4908
▁additionally	-11.491
▁лекарственным	-11.4912
▁типах	-11.4912
▁аналитической	-11.4912
MH	-11.4913
0.8	-11.4914
Продемонстрирова	-11.4921
▁пародонтальн	-11.4922
опатии	-11.4924
▁обеспечивающи	-11.4924
tropic	-11.4927
pathic	-11.4928
▁физиотерапевт	-11.4929
▁ориентирован	-11.4933
родолжительность	-11.4936
▁УЗ	-11.4937
ified	-11.4938
▁метастатическ	-11.4945
▁PCNA	-11.4947
▁ПН	-11.4948
row	-11.4949
▁реабилитационны	-11.4952
▁соблюдени	-11.4954
><	-11.4955
▁Раз	-11.4957
▁steroid	-11.4957
▁этиологически	-11.4958
▁офтальмо	-11.4969
▁mel	-11.4977
beam	-11.4977
▁excit	-11.4981
морфологическ	-11.4984
ttal	-11.4989
-65	-11.4994
▁комплексный	-11.4994
ral	-11.4997
▁протекающи	-11.4999
▁2018.	-11.5001
3.3%	-11.5004
▁биомеханически	-11.5006
▁астеническ	-11.501
▁оперативно	-11.5014
▁неврологическим	-11.5015
▁отдельно	-11.5016
▁симптома	-11.5017
панкреатического	-11.5018
2,2	-11.502
ИК	-11.5023
метаболическ	-11.5024
кардиальн	-11.5026
▁теоретически	-11.5026
cross	-11.503
EEG	-11.503
pharmacotherapy	-11.5031
psychiatric	-11.5032
factor	-11.5034
СА	-11.5034
▁Ment	-11.5034
▁помога	-11.5044
version	-11.5045
▁prolactin	-11.5045
▁типичны	-11.5046
▁текуще	-11.5048
▁тракт	-11.5051
▁seven	-11.5052
▁специфическ	-11.5056
лоб	-11.5058
рд	-11.506
▁трупн	-11.5062
▁недостаточной	-11.5064
▁triple	-11.5067
шк	-11.507
ометрии	-11.5071
▁панкреатодуоде	-11.5075
▁перелом	-11.5077
▁becom	-11.5079
▁универсальн	-11.5081
органическ	-11.5081
▁ill	-11.5084
одну	-11.5085
▁узла	-11.5085
оше	-11.5087
▁экспресс	-11.5087
▁Mi	-11.5088
▁meaning	-11.5091
▁follows	-11.5091
▁КГ	-11.5094
бор	-11.5096
cidence	-11.5103
TS	-11.5109
uria	-11.511
standing	-11.5111
▁анамнез	-11.5115
=0,04	-11.5115
▁рефрактерн	-11.5118
недрение	-11.5118
▁мир	-11.5123
corticosteroids	-11.5124
▁гендерн	-11.513
▁режима	-11.5135
▁необратим	-11.5136
цитов	-11.5137
ирующим	-11.5145
▁1,1	-11.5148
▁син	-11.5151
▁(91	-11.5153
ker	-11.5157
120	-11.5158
▁scar	-11.5158
▁ГК	-11.5161
▁antipsychotic	-11.5162
▁коллективн	-11.5164
▁АО	-11.5164
▁воспалительн	-11.5165
нутри	-11.5166
▁160	-11.5166
nodular	-11.517
▁fet	-11.5172
▁перестройк	-11.5179
▁grow	-11.5185
▁происходя	-11.5187
▁meet	-11.5188
▁describ	-11.5188
▁предпочтительн	-11.5188
генетически	-11.5189
▁Доказан	-11.5191
▁activ	-11.5194
▁initiat	-11.5196
▁открытым	-11.5197
▁количестве	-11.52
fibr	-11.5201
▁поверхность	-11.5202
▁polyp	-11.5203
▁эпифиза	-11.5205
агонист	-11.5205
lthough	-11.5205
▁мужчина	-11.5207
▁индикатор	-11.5207
▁just	-11.5211
▁идентичн	-11.5212
▁мобильн	-11.5212
критери	-11.5213
▁valid	-11.5213
ечение	-11.5213
opathies	-11.5214
minute	-11.5214
▁зуб	-11.5215
apoptotic	-11.5215
гидроксибензол	-11.5215
ондиционирования	-11.5215
▁Stroke	-11.5215
▁cascade	-11.5215
▁catarrhal	-11.5215
▁claudin	-11.5215
▁expected	-11.5215
▁financial	-11.5215
▁hypoplasia	-11.5215
▁hypotheses	-11.5215
▁lifespan	-11.5215
▁likelihood	-11.5215
▁longevity	-11.5215
▁multifactorial	-11.5215
▁neuroplasticity	-11.5215
▁probable	-11.5215
▁stump	-11.5215
▁suturing	-11.5215
▁swelling	-11.5215
▁true	-11.5215
▁vasculitis	-11.5215
▁Гамильтона	-11.5215
▁Известно	-11.5215
▁Характер	-11.5215
▁азота	-11.5215
▁динамикой	-11.5215
▁каскад	-11.5215
▁матерей	-11.5215
▁недавно	-11.5215
▁отметить	-11.5215
▁пирамид	-11.5215
▁приверженность	-11.5215
▁тактике	-11.5215
▁тревожным	-11.5215
▁NiTi	-11.5215
▁verify	-11.5215
▁брыжеечн	-11.5215
▁официальн	-11.5215
▁угроз	-11.5215
▁эпизодическ	-11.5215
▁ethical	-11.5215
▁filtration	-11.5215
▁конусно	-11.5215
▁симультанн	-11.5215
▁отчетлив	-11.5215
▁подвижности	-11.5215
▁Осложнения	-11.5215
▁ушивание	-11.5215
▁продольн	-11.5215
▁Операци	-11.5215
▁leukemia	-11.5215
▁uveitis	-11.5215
▁excretion	-11.5215
sagi	-11.5216
▁разрабатыва	-11.5216
▁воздуха	-11.5216
▁рефракции	-11.5216
▁bipolar	-11.5216
▁reuptake	-11.5216
▁вреда	-11.5216
▁neovascular	-11.5216
▁spray	-11.5216
▁койко	-11.5216
▁contraction	-11.5216
▁силу	-11.5216
▁несъемн	-11.5217
▁регионарн	-11.5217
▁memantine	-11.5217
▁закрытия	-11.5217
▁lot	-11.5217
▁быстрым	-11.5217
▁Lew	-11.5217
▁intraperitoneal	-11.5218
конституциональн	-11.5218
▁аллелей	-11.5218
▁integrity	-11.5218
▁включать	-11.5218
▁занятий	-11.5218
▁выполнялась	-11.5219
▁невролога	-11.5219
▁native	-11.5219
▁родителей	-11.522
▁agreement	-11.522
▁расположения	-11.522
▁подтверждения	-11.5221
▁mapp	-11.5221
▁кардиоваскулярн	-11.5221
▁climatic	-11.5221
▁you	-11.5221
▁stopp	-11.5222
▁пересадки	-11.5222
▁ЛЖ	-11.5222
▁оказалось	-11.5223
▁слое	-11.5223
▁адгезии	-11.5225
▁вакцинации	-11.5225
▁синусов	-11.5225
=25)	-11.5225
▁aorto	-11.5225
▁вирусов	-11.5225
▁исследовател	-11.5226
▁параличом	-11.5226
▁macrophages	-11.5228
▁конъюнктивы	-11.5228
коэмульсификации	-11.5229
▁Гр	-11.5229
▁отсутствовали	-11.5229
=50)	-11.5229
=35)	-11.5229
▁ongoing	-11.523
▁женщина	-11.523
▁gradually	-11.523
▁использует	-11.5231
▁опросников	-11.5232
▁прохода	-11.5232
▁PR	-11.5235
▁благоприятный	-11.5235
▁шока	-11.5235
▁spectroscopy	-11.5235
▁альтернатив	-11.5235
▁обеспечива	-11.5236
▁ranges	-11.5236
metry	-11.5237
▁цен	-11.5237
▁разницы	-11.5238
▁протоколу	-11.5239
GC	-11.524
▁Additional	-11.5241
▁fluoresce	-11.5241
▁йод	-11.5241
▁Ho	-11.5242
▁фибрилляции	-11.5243
▁stones	-11.5246
▁cold	-11.5246
=0,000	-11.5248
▁1-3	-11.5249
▁worsening	-11.5249
subclinical	-11.5251
зер	-11.5251
патогенетической	-11.5253
▁генах	-11.5254
▁патогенны	-11.5254
▁indexes	-11.5254
▁цель	-11.5256
▁контингента	-11.5258
▁HPLC	-11.5258
HTR	-11.5258
acceptable	-11.5259
GI	-11.5259
ений	-11.526
▁УФ	-11.5262
▁дефектами	-11.5265
ирующие	-11.5265
▁среднее	-11.5266
stru	-11.5269
▁rating	-11.527
1.5	-11.527
▁angina	-11.527
▁гор	-11.5271
▁causal	-11.5274
▁угнетени	-11.5276
solu	-11.5276
▁atrophic	-11.5276
▁BC	-11.5277
▁tele	-11.5278
▁хороши	-11.5278
▁RD	-11.5278
lumin	-11.5284
▁генома	-11.5286
▁violations	-11.5289
▁адъювантн	-11.5293
▁затылочн	-11.5297
▁транспортн	-11.5297
▁fold	-11.5298
▁патофизиологии	-11.5298
▁регулятор	-11.5304
=8	-11.5304
▁bulb	-11.5305
▁spectrometry	-11.5305
▁суставн	-11.5307
▁разработаны	-11.5307
функционирование	-11.5308
▁разработанны	-11.531
▁центрах	-11.531
▁(74	-11.5315
▁13%	-11.5315
▁желчно	-11.5317
▁последней	-11.532
▁>1	-11.5321
▁СВ	-11.5324
▁сложно	-11.5324
▁визуальн	-11.5327
▁характеризуют	-11.5328
▁matern	-11.5329
▁aggravat	-11.5329
▁rhythms	-11.5329
-3.	-11.5331
ДЗ	-11.5331
▁circ	-11.5332
nom	-11.5333
▁обсужден	-11.5335
▁choline	-11.5336
steno	-11.5337
▁МСКТ	-11.534
▁личностной	-11.5341
▁(95	-11.5346
▁perspectives	-11.5347
▁notion	-11.5351
▁front	-11.5352
▁отдел	-11.5352
▁бел	-11.5353
adian	-11.5354
oxide	-11.5354
=10)	-11.5355
plasty	-11.5357
▁получено	-11.5357
▁возник	-11.5359
SNP	-11.5361
▁аспектам	-11.5364
▁микроскопическ	-11.537
▁регистраци	-11.5375
▁ответственны	-11.5379
▁Дж	-11.538
▁достаточн	-11.5385
▁aris	-11.5386
ocytes	-11.539
▁Необходимы	-11.5393
▁lact	-11.5394
▁невозможно	-11.5397
▁выделя	-11.5398
лер	-11.5399
▁наибольш	-11.5403
▁ПТ	-11.5407
▁Настоящ	-11.5408
bar	-11.5417
scher	-11.5418
▁многофакторн	-11.5419
▁refract	-11.5428
инструментальн	-11.543
нием	-11.5435
явились	-11.5436
▁band	-11.5438
▁биомаркера	-11.5439
▁критически	-11.5442
▁вертебрально	-11.5443
tho	-11.5443
▁decompensat	-11.5443
транспортн	-11.5444
НПВП	-11.5445
±9.	-11.5446
ЧМТ	-11.5447
laser	-11.5448
CRP	-11.5448
инусит	-11.5452
тельных	-11.5452
aging	-11.5458
моль	-11.546
▁стандарт	-11.5462
профилактической	-11.5462
▁DC	-11.5462
▁(72	-11.5468
▁ИР	-11.5469
АП	-11.547
▁последующи	-11.5477
-24	-11.5477
транс	-11.5478
▁уровнями	-11.5479
▁одонтогенн	-11.548
▁0.4	-11.5481
▁MC	-11.5481
ologist	-11.5483
1,5%	-11.5484
▁морфологически	-11.5487
talloproteinases	-11.5488
▁синдромами	-11.5488
ИЭ	-11.5491
орб	-11.5494
курортн	-11.5503
▁контрольная	-11.5507
▁автор	-11.551
▁классически	-11.5519
▁наблюдают	-11.5521
логии	-11.5521
▁капсул	-11.5521
эпителиальных	-11.5522
без	-11.5523
0.5	-11.5529
7;	-11.553
систем	-11.553
нь	-11.5535
ыявить	-11.5535
ысокая	-11.5536
▁удалени	-11.5545
▁месяц	-11.5546
▁длительном	-11.5548
▁клапан	-11.5549
хирургического	-11.5551
ace	-11.5554
▁интер	-11.5564
▁Сравнительн	-11.5565
▁систематически	-11.5569
graph	-11.5572
▁визуально	-11.5574
▁amputation	-11.5576
▁agonist	-11.5576
▁antagonist	-11.5576
constitutional	-11.5577
▁пят	-11.5577
▁infrare	-11.5577
перспективных	-11.5577
▁variation	-11.5578
эпидемиологическ	-11.5583
▁контакт	-11.5583
▁Микро	-11.5588
▁Важны	-11.5591
▁учреждения	-11.5593
дент	-11.5594
▁(63	-11.5594
▁параметра	-11.5595
▁TS	-11.5596
▁cyto	-11.5597
гран	-11.56
терапевтических	-11.5604
▁adolescent	-11.5606
▁оперированн	-11.5606
▁сон	-11.5608
▁образц	-11.5609
▁экспертиза	-11.561
специфич	-11.5612
таблетки	-11.5614
ган	-11.5616
метрия	-11.5617
▁substantiate	-11.5621
▁субстрат	-11.5624
–201	-11.5625
▁параметрам	-11.5625
▁111	-11.5627
▁germ	-11.5628
▁плоск	-11.5629
▁elaborate	-11.5629
▁myelo	-11.563
ъ	-11.563
▁слухо	-11.5631
Центр	-11.5631
▁percent	-11.5631
▁complain	-11.5632
RIN	-11.5632
▁appendix	-11.5632
▁blockade	-11.5632
▁derivatives	-11.5632
▁distant	-11.5632
▁inheritance	-11.5632
▁keratoconus	-11.5632
▁obese	-11.5632
▁probably	-11.5632
▁psyche	-11.5632
▁relaxation	-11.5632
▁Бартел	-11.5632
▁Дальнейш	-11.5632
▁Национальн	-11.5632
▁апробаци	-11.5632
▁голени	-11.5632
▁инвазии	-11.5632
▁информацию	-11.5632
▁катарактой	-11.5632
▁леводопы	-11.5632
▁легким	-11.5632
▁оптимизирова	-11.5632
▁пневмонией	-11.5632
▁повышал	-11.5632
▁предотврати	-11.5632
▁приверженности	-11.5632
▁равновесия	-11.5632
▁расщелин	-11.5632
▁ривароксабан	-11.5632
▁события	-11.5632
▁финансов	-11.5632
▁acetate	-11.5632
▁дерматоглифи	-11.5632
▁швов	-11.5632
▁elective	-11.5632
▁передачи	-11.5632
▁эпилептиформн	-11.5632
▁ямки	-11.5632
▁реципиентов	-11.5632
▁horizontal	-11.5632
▁rheumatic	-11.5632
▁Dental	-11.5632
▁тонкокишечн	-11.5632
▁становя	-11.5632
▁гипоплази	-11.5632
▁интраназальн	-11.5632
▁холецистэктомии	-11.5632
▁неясн	-11.5632
▁hypothalamic	-11.5632
▁возможностях	-11.5632
▁leakage	-11.5632
▁настроения	-11.5632
▁Север	-11.5632
▁тонзиллита	-11.5632
▁postmenopaus	-11.5632
конец	-11.5632
▁hyperactivity	-11.5632
▁isolat	-11.5632
▁порядке	-11.5632
▁изолирования	-11.5632
▁занят	-11.5632
▁антидепрессивн	-11.5633
▁белку	-11.5633
▁extracranial	-11.5633
▁varies	-11.5633
▁parotid	-11.5633
▁положении	-11.5633
▁exception	-11.5633
▁sleepiness	-11.5633
—201	-11.5633
▁экспериментов	-11.5633
▁синусита	-11.5633
▁Six	-11.5634
▁circle	-11.5634
▁психологии	-11.5634
▁fever	-11.5634
▁Germany	-11.5634
▁умерли	-11.5635
▁рентгено	-11.5635
▁electrode	-11.5635
AB	-11.5636
▁justify	-11.5636
▁оси	-11.5637
▁локализацию	-11.5637
▁производили	-11.5638
▁остава	-11.5638
▁But	-11.564
▁Больш	-11.564
амилоидоз	-11.5642
▁tendon	-11.5643
▁позитивн	-11.5643
▁parent	-11.5643
▁Обсужден	-11.5643
▁ферментативн	-11.5644
▁тромбоцитарн	-11.5644
▁stains	-11.5645
▁грыжами	-11.5645
▁усиления	-11.5645
▁полиморфизмов	-11.5646
▁рекомбинантн	-11.5646
90%	-11.5648
CLP	-11.5648
▁зрел	-11.5648
▁mucosal	-11.5649
zo	-11.5649
▁come	-11.5649
▁декомпенсации	-11.5651
▁ухудшения	-11.5652
119	-11.5652
▁regulator	-11.5652
▁retirement	-11.5653
▁роговичн	-11.5654
immunodeficiency	-11.5654
▁маркером	-11.5655
▁finding	-11.5656
ake	-11.5658
▁smaller	-11.5659
ТП	-11.566
теля	-11.566
▁apparently	-11.566
▁доступов	-11.5661
▁гистологические	-11.5661
▁послужили	-11.5661
▁затруднен	-11.5661
▁distinguished	-11.5661
ФДТ	-11.5665
▁множественные	-11.5668
▁кариозн	-11.5668
▁explored	-11.567
▁информативност	-11.5672
▁изуч	-11.5672
▁создани	-11.5675
амино	-11.5676
▁АВМ	-11.5677
▁synapt	-11.5677
▁комплексов	-11.5678
▁дисбаланса	-11.5678
▁умеренно	-11.568
▁apathy	-11.568
▁младше	-11.5682
▁leukocytes	-11.5683
▁hypoxic	-11.5687
▁молекулы	-11.5688
▁constitution	-11.5688
▁позитивно	-11.5689
▁обобщение	-11.569
▁NAFLD	-11.5693
▁psychic	-11.5693
бул	-11.5694
▁медицинск	-11.5695
▁биохимическ	-11.5695
▁кортексина	-11.5696
▁веществами	-11.5697
▁подтверждено	-11.5697
злокачественными	-11.5698
▁thermo	-11.5699
корон	-11.57
▁стороне	-11.5704
▁отмечают	-11.5706
patient	-11.5707
▁бюджет	-11.5711
писан	-11.5711
▁исходной	-11.5712
▁organizational	-11.5713
▁persist	-11.5714
▁индивидуально	-11.5714
▁механизмом	-11.5716
▁флюоресцентн	-11.5718
мощности	-11.572
TC	-11.572
9;	-11.572
▁6%	-11.5721
▁adequately	-11.5721
▁эффектами	-11.5721
▁фермента	-11.5722
pathy	-11.5723
▁aids	-11.5724
▁capillary	-11.5724
▁мелки	-11.5724
графта	-11.5725
▁greatly	-11.5728
▁networks	-11.5728
▁shorten	-11.5729
dose	-11.573
▁LE	-11.5731
▁eyelids	-11.5733
▁характеризующих	-11.5734
▁недель	-11.5734
евых	-11.574
▁дегенеративных	-11.5741
▁подкожной	-11.5744
▁достоверным	-11.5746
▁СОР	-11.5755
▁197	-11.5756
▁открытого	-11.5758
▁синус	-11.5762
нном	-11.5764
▁безопасной	-11.5769
ХС	-11.577
▁динамическо	-11.5777
психометрических	-11.5782
▁непосредственн	-11.5784
▁log	-11.5788
▁sympathetic	-11.5791
▁BPPV	-11.5791
▁Методы	-11.5793
▁tonsil	-11.5795
▁19%	-11.5797
▁наши	-11.5799
=1)	-11.5799
▁медицинским	-11.5802
▁уровнях	-11.5804
дет	-11.5806
▁ед	-11.5809
=17)	-11.5813
▁терминальн	-11.5814
ВД	-11.5816
nce	-11.5821
▁opportun	-11.5822
стую	-11.5823
▁depressions	-11.5827
▁лини	-11.5828
▁ruptures	-11.583
▁хорошим	-11.583
▁AE	-11.583
308	-11.5833
▁теоретическ	-11.5834
▁гигиеническ	-11.5836
▁(3-	-11.5841
▁CH	-11.5844
▁дополня	-11.5853
DLB	-11.586
соци	-11.5863
прав	-11.5866
▁местных	-11.5867
▁тесте	-11.5869
surgery	-11.5871
▁Кон	-11.5871
КД	-11.5872
▁становления	-11.5872
крестцов	-11.5874
▁impacts	-11.5874
ract	-11.5877
ational	-11.5878
▁permit	-11.5879
▁почечно	-11.5881
system	-11.5881
▁характеризующие	-11.5882
COPD	-11.5882
limb	-11.5882
soft	-11.5882
making	-11.5882
scale	-11.5883
risk	-11.5885
дать	-11.5885
▁риносинусита	-11.5888
▁headaches	-11.5895
▁достижение	-11.5904
▁тромб	-11.5907
▁Средне	-11.5907
▁AH	-11.5909
дается	-11.5913
▁следующи	-11.5916
▁операционной	-11.5918
диагностических	-11.5918
plas	-11.5919
ыраженность	-11.592
▁национальн	-11.592
▁определя	-11.592
▁отражаю	-11.593
характеристиками	-11.5931
-4,	-11.5938
▁рецидивирующе	-11.594
▁правил	-11.5941
болев	-11.5942
eter	-11.5943
▁диагностическим	-11.5947
мена	-11.5947
▁классическ	-11.5949
▁интервала	-11.5949
▁непрям	-11.5949
теста	-11.5951
видимо	-11.5958
▁CL	-11.5958
ированием	-11.5962
3,9	-11.5962
▁аналог	-11.5964
очной	-11.5964
▁Inter	-11.5964
кло	-11.5967
8%)	-11.5971
fusion	-11.5973
▁русск	-11.5983
▁четко	-11.5984
▁поставлен	-11.5986
years	-11.5991
▁витамин	-11.5993
охран	-11.5998
▁различ	-11.5998
ich	-11.5998
ink	-11.5999
–2	-11.6001
▁свидетельств	-11.6002
▁функциональным	-11.6006
▁общим	-11.6006
▁tablet	-11.6012
тический	-11.6012
▁principle	-11.6012
▁anesthetic	-11.6018
▁рефлюксн	-11.6021
-308	-11.6021
▁недостатк	-11.6025
▁опрос	-11.6027
±0,3	-11.603
▁полинейропати	-11.6032
фокус	-11.6032
▁трансформаци	-11.6032
иса	-11.604
4</	-11.6045
повтор	-11.6046
▁ulcerati	-11.6046
▁предлагает	-11.6051
▁electric	-11.6051
▁pay	-11.6052
ck	-11.6054
▁метаболизм	-11.6054
▁preserve	-11.6055
▁organiz	-11.6056
▁исключ	-11.6057
▁substantial	-11.6059
▁core	-11.6059
▁близк	-11.6059
communica	-11.6059
CAM	-11.606
▁cochlea	-11.6061
▁epilepti	-11.6062
интерферон	-11.6063
▁продолжает	-11.6064
▁Предлага	-11.6064
▁infarct	-11.6065
▁endometri	-11.6066
▁strict	-11.6067
▁temporo	-11.6067
pedagogical	-11.6067
эмиссионн	-11.6067
▁Barthel	-11.6067
▁Drug	-11.6067
▁Google	-11.6067
▁abilities	-11.6067
▁approve	-11.6067
▁configuration	-11.6067
▁constitute	-11.6067
▁diversity	-11.6067
▁implies	-11.6067
▁laryngitis	-11.6067
▁lithium	-11.6067
▁loci	-11.6067
▁paresis	-11.6067
▁pharynx	-11.6067
▁prostheses	-11.6067
▁rivaroxaban	-11.6067
▁schedule	-11.6067
▁security	-11.6067
▁ultrastructural	-11.6067
▁window	-11.6067
▁Бурденко	-11.6067
▁Концентраци	-11.6067
▁Числ	-11.6067
▁аугментации	-11.6067
▁аутологичн	-11.6067
▁бригад	-11.6067
▁васкулит	-11.6067
▁вербальн	-11.6067
▁гидрохлорид	-11.6067
▁долгожителей	-11.6067
▁здорового	-11.6067
▁консультаци	-11.6067
▁коррекцией	-11.6067
▁моделях	-11.6067
▁низкую	-11.6067
▁позвонков	-11.6067
▁походки	-11.6067
▁ретроградн	-11.6067
▁скелета	-11.6067
▁увеличилась	-11.6067
▁эндовидео	-11.6067
▁exact	-11.6067
▁opposite	-11.6067
▁Отражен	-11.6067
▁доноров	-11.6067
▁фармацевтическ	-11.6067
▁фильтрации	-11.6067
довлетворенность	-11.6067
▁collection	-11.6067
▁diaphragm	-11.6067
▁neglect	-11.6067
▁render	-11.6067
▁sarcopenia	-11.6067
▁аксональн	-11.6067
▁астмой	-11.6067
▁ринита	-11.6067
▁семье	-11.6067
▁тазобедренн	-11.6067
▁extracorpor	-11.6067
▁AVM	-11.6067
▁безрецидивн	-11.6067
▁Высоки	-11.6067
▁облучения	-11.6067
довлетворенности	-11.6067
▁плодов	-11.6067
▁fungi	-11.6067
▁секвенирования	-11.6067
▁division	-11.6067
▁жесткости	-11.6067
▁социальным	-11.6067
▁федерального	-11.6067
▁granulomatosis	-11.6067
▁гипергликемии	-11.6067
▁novo	-11.6067
>0.05).	-11.6067
▁cardioembolic	-11.6067
▁ЖКБ	-11.6067
ериод	-11.6067
▁dislocation	-11.6067
▁substitution	-11.6067
▁нейросенсорн	-11.6068
ought	-11.6068
▁incision	-11.6068
▁lifestyle	-11.6068
▁завершения	-11.6068
▁equi	-11.6068
▁Peri	-11.6068
▁myeloid	-11.6068
▁deposition	-11.6068
▁лечили	-11.6069
▁ECG	-11.6069
▁больному	-11.6069
▁выполнили	-11.6069
▁American	-11.6069
▁профилактику	-11.6069
tetra	-11.607
▁abnormality	-11.607
▁гастродуоден	-11.607
▁Unit	-11.6071
▁Burden	-11.6071
quent	-11.6072
▁альфа	-11.6072
▁validated	-11.6072
вободнорадикальн	-11.6073
▁седации	-11.6074
▁биохимические	-11.6074
▁IBS	-11.6075
▁контактов	-11.6075
тремя	-11.6075
▁специалистами	-11.6076
▁сохраняется	-11.6076
▁anthropometric	-11.6076
▁sero	-11.6077
▁ситуационн	-11.6078
▁filling	-11.6079
▁низкомолекулярн	-11.6079
▁Increase	-11.608
▁сте	-11.608
▁спасти	-11.608
▁лимфома	-11.6081
▁overcome	-11.6081
▁секрета	-11.6081
сомни	-11.6082
▁Recently	-11.6085
▁сформированы	-11.6086
▁детским	-11.6086
▁эволюции	-11.6086
▁стратегия	-11.6086
▁рН	-11.6087
▁основыва	-11.6087
▁government	-11.6088
▁hydrochloride	-11.6088
▁мишени	-11.6088
▁эпилепсия	-11.6088
▁терапевтический	-11.6088
▁ions	-11.6089
▁микроскопа	-11.6089
▁managed	-11.6091
▁Centre	-11.6092
▁Особенност	-11.6092
▁OR	-11.6092
▁лептина	-11.6092
icular	-11.6092
▁участках	-11.6093
▁expanded	-11.6094
▁настоящ	-11.6094
▁stabilize	-11.6095
▁флоуметрии	-11.6097
▁антителами	-11.6098
▁GM	-11.6098
▁added	-11.61
▁очаги	-11.6101
6</	-11.6103
borne	-11.6104
▁HD	-11.6105
▁convulsi	-11.6107
▁патологическим	-11.6108
▁curves	-11.6108
▁остро	-11.6109
▁lipoproteins	-11.611
▁гистологическое	-11.6111
▁синуса	-11.6111
▁боев	-11.6112
▁hold	-11.6112
▁подключичн	-11.6113
▁2002	-11.6114
▁паховой	-11.6114
ПД	-11.6114
▁toxicological	-11.6115
▁driver	-11.6116
▁acetyl	-11.612
▁ведущим	-11.6122
▁rapidly	-11.6123
▁получаем	-11.6124
▁ограничение	-11.6124
исследовательск	-11.6125
3,5	-11.6125
▁stained	-11.6126
▁тесн	-11.6128
▁dysfunctions	-11.6129
▁Clavien	-11.613
▁подтип	-11.6131
▁ускорени	-11.6131
▁возникше	-11.6131
▁адаптивного	-11.6133
▁проекта	-11.6134
▁жидкостн	-11.6134
▁СРК	-11.6135
▁индивидуальные	-11.6136
▁ЛГ	-11.614
17)	-11.6143
▁издани	-11.6143
▁loading	-11.6146
▁ХГС	-11.6147
▁ультраструктурн	-11.6148
▁снижена	-11.6149
▁oculo	-11.6149
▁RNA	-11.6151
▁выделение	-11.6152
perinatal	-11.6153
▁compensated	-11.6154
▁закрытой	-11.6154
▁жалобы	-11.6156
осстановительном	-11.6156
▁splen	-11.6156
▁знания	-11.616
▁примеры	-11.6162
tia	-11.6163
▁ССЗ	-11.6164
▁resolution	-11.6164
▁стоматологов	-11.6164
▁врожденн	-11.6165
инов	-11.6167
▁induction	-11.6168
><0.05)	-11.6173
▁достижени	-11.6174
▁журнала	-11.6174
▁очаг	-11.6175
▁обусловлен	-11.6175
HS	-11.6176
▁va	-11.6179
▁109	-11.618
могли	-11.6181
▁часов	-11.6181
▁аутотранспланта	-11.6182
▁like	-11.6183
▁fe	-11.6183
▁пищеводн	-11.6189
▁compact	-11.6192
▁рядов	-11.6196
graphy	-11.6196
▁специально	-11.6199
▁106	-11.62
▁1,7	-11.6201
▁MT	-11.6206
▁имплант	-11.6207
▁изменениях	-11.6208
▁эпилептическ	-11.621
MR	-11.6211
▁124	-11.6216
▁тональн	-11.6218
±0,4	-11.6221
▁chains	-11.6223
онные	-11.6225
▁Дол	-11.6226
▁platelets	-11.623
▁паралича	-11.6232
▁aque	-11.6234
кост	-11.6234
▁возника	-11.624
diagnostic	-11.6242
cure	-11.6246
▁(39	-11.625
▁jaws	-11.6251
▁cycles	-11.6256
лина	-11.626
▁NF	-11.6267
метод	-11.6277
▁МВ	-11.6279
▁масштаб	-11.6279
▁ERG	-11.6284
minal	-11.6289
ehabilitation	-11.6289
-21	-11.629
▁matched	-11.629
▁thoracoscop	-11.6291
ологического	-11.6294
▁GFR	-11.63
amin	-11.6302
▁lamin	-11.6302
▁CV	-11.6308
rad	-11.6311
[...]
