<unk>	0
<s>	0
</s>	0
.	-3.34853
,	-3.46067
▁of	-3.55051
▁the	-3.65027
▁	-4.00177
▁and	-4.30107
▁и	-4.31644
▁in	-4.49794
-	-4.63235
▁в	-4.6493
▁(	-4.74197
ой	-4.86884
▁с	-4.96621
▁with	-5.06583
▁to	-5.12848
е	-5.16776
ого	-5.17368
)	-5.20886
s	-5.21395
▁The	-5.24635
▁a	-5.35362
▁patients	-5.46132
а	-5.48427
ых	-5.55191
х	-5.58516
и	-5.68185
▁на	-5.69386
▁is	-5.70136
▁was	-5.70753
▁у	-5.76889
▁for	-5.7782
й	-5.7955
ы	-5.80616
ing	-5.85977
м	-5.89947
▁В	-5.99388
о	-6.05015
▁were	-6.05859
▁при	-6.09145
▁on	-6.09742
▁-	-6.09804
▁по	-6.10262
▁пациентов	-6.11155
ая	-6.13639
я	-6.16021
ом	-6.17646
).	-6.26794
▁as	-6.2709
▁treatment	-6.28384
▁by	-6.30207
▁are	-6.32173
ed	-6.39871
▁that	-6.44991
al	-6.50952
▁к	-6.53334
▁больных	-6.54159
▁study	-6.54713
▁не	-6.6004
'	-6.61605
▁что	-6.63929
),	-6.64554
у	-6.65291
▁лечения	-6.66604
▁для	-6.6669
▁исследования	-6.67142
ю	-6.68506
ую	-6.69003
d	-6.69605
▁clinical	-6.69748
ly	-6.70785
ые	-6.71449
го	-6.72011
i	-6.73492
:	-6.78505
▁from	-6.79695
▁а	-6.80148
▁от	-6.80242
;	-6.80383
▁an	-6.8263
ый	-6.84556
▁be	-6.87528
>	-6.91622
/	-6.91796
ми	-6.92085
▁group	-6.9254
▁disease	-6.93942
▁Цель	-6.94315
ое	-6.95083
▁A	-6.95516
▁из	-6.95648
▁2	-6.96791
▁In	-6.97317
▁this	-6.99351
n	-7.00913
ть	-7.01417
p	-7.0402
▁results	-7.05637
▁years	-7.07232
▁age	-7.08595
▁which	-7.09742
▁также	-7.10186
▁как	-7.10306
e	-7.10626
▁at	-7.10871
ся	-7.11003
ым	-7.11547
▁after	-7.11775
▁методы	-7.12965
▁3	-7.15213
▁до	-7.15595
▁1	-7.16326
▁лет	-7.19127
▁о	-7.19773
▁therapy	-7.20153
ов	-7.20391
▁после	-7.21721
т	-7.21967
▁—	-7.22766
▁Результаты	-7.22953
▁To	-7.23048
1	-7.26408
▁development	-7.2717
▁disorders	-7.2916
ic	-7.29645
▁терапии	-7.3038
▁С	-7.33479
р	-7.33551
▁Материал	-7.33601
▁'	-7.34055
ие	-7.35187
y	-7.35358
2	-7.35815
▁use	-7.35897
▁It	-7.36124
▁its	-7.38476
з	-7.40941
▁not	-7.41085
▁analysis	-7.41542
▁data	-7.42565
▁cases	-7.42608
▁surgical	-7.42811
▁used	-7.43863
▁является	-7.44221
▁using	-7.45609
▁diagnosis	-7.45972
▁развития	-7.46225
ыми	-7.46464
▁article	-7.47239
▁has	-7.4865
▁their	-7.49129
ных	-7.49648
▁present	-7.50254
▁заболевания	-7.50962
ей	-7.51252
r	-7.51833
▁diseases	-7.51877
▁or	-7.52177
ли	-7.52233
▁well	-7.52339
▁have	-7.54301
▁methods	-7.55952
▁более	-7.56096
▁changes	-7.56911
▁most	-7.57386
▁can	-7.57401
ет	-7.57698
c	-7.57815
▁«	-7.59303
▁This	-7.59624
▁patient	-7.60655
▁children	-7.61166
▁high	-7.61388
▁результаты	-7.62018
▁статье	-7.6209
▁их	-7.62443
их	-7.63196
▁детей	-7.63232
▁period	-7.63558
▁during	-7.63659
▁risk	-7.63727
▁more	-7.64015
▁анализ	-7.64727
▁main	-7.64742
A	-7.65182
▁У	-7.65316
с	-7.66172
▁группы	-7.66544
▁between	-7.67153
▁it	-7.67683
▁groups	-7.67689
»	-7.67814
▁surgery	-7.68058
▁medical	-7.68076
ной	-7.70165
▁blood	-7.70644
▁C	-7.70644
в	-7.70679
▁возраста	-7.70729
▁были	-7.71736
▁5	-7.71764
▁different	-7.72403
▁6	-7.73892
▁При	-7.74013
▁за	-7.74385
o	-7.74516
▁его	-7.74686
▁мозга	-7.74833
▁данные	-7.75111
▁case	-7.76073
ного	-7.76826
▁был	-7.77015
▁been	-7.77121
▁syndrome	-7.7715
▁4	-7.77547
▁группе	-7.77955
▁p	-7.7846
▁method	-7.7859
out	-7.78661
ее	-7.79116
▁into	-7.79203
▁significant	-7.79219
▁associated	-7.79344
</	-7.79346
▁level	-7.79447
▁chronic	-7.80046
▁complications	-7.80982
3	-7.81047
▁или	-7.81099
▁г	-7.81168
a	-7.81326
▁представлен	-7.81903
▁system	-7.82228
▁review	-7.82315
ется	-7.82514
▁диагностики	-7.84072
▁who	-7.84337
▁Представлен	-7.84456
C	-7.84764
▁эффективности	-7.84974
▁10	-7.85872
▁factors	-7.85905
▁activity	-7.86244
▁effect	-7.86533
▁these	-7.86553
▁acute	-7.86612
▁one	-7.86693
▁included	-7.87309
4	-7.8744
▁including	-7.87936
▁данн	-7.88222
▁studies	-7.88244
in	-7.88505
▁number	-7.88566
▁than	-7.89744
▁т	-7.90075
▁authors	-7.90409
▁исследование	-7.91267
▁может	-7.91886
l	-7.92317
▁На	-7.93355
▁исследований	-7.93445
t	-7.93509
▁крови	-7.94666
▁all	-7.95038
▁brain	-7.96339
▁P	-7.96886
▁пациента	-7.976
▁так	-7.97734
▁S	-7.9823
▁возрасте	-7.98866
▁применения	-7.9899
▁performed	-7.99626
▁время	-7.99852
▁control	-7.9995
▁cognitive	-8.00415
ость	-8.01179
D	-8.01263
ar	-8.01294
▁головн	-8.02266
▁features	-8.02294
▁клинических	-8.02466
▁We	-8.02575
▁данных	-8.02714
▁осложнений	-8.02885
▁нарушений	-8.02898
▁increase	-8.02968
▁течение	-8.02981
▁postoperative	-8.03136
▁заболеваний	-8.03266
▁various	-8.03507
▁first	-8.03528
▁literature	-8.04638
▁жизни	-8.04764
ий	-8.05261
▁D	-8.05368
▁stroke	-8.06261
m	-8.06312
▁20	-8.06444
st	-8.06524
▁efficacy	-8.06818
▁symptoms	-8.07115
п	-8.07812
▁also	-8.07847
6	-8.07957
▁случаев	-8.08127
▁out	-8.08292
ve	-8.08487
▁examination	-8.08628
▁life	-8.08853
▁года	-8.08889
▁оценки	-8.09593
▁non	-8.09797
▁7	-8.09803
▁I	-8.10533
ами	-8.10583
▁послеоперационн	-8.1064
▁операции	-8.10649
▁found	-8.10705
▁other	-8.1075
▁based	-8.1076
▁во	-8.10897
▁со	-8.11031
▁различных	-8.11168
▁women	-8.1119
▁было	-8.11228
▁both	-8.11337
▁между	-8.11434
▁type	-8.11717
▁time	-8.12056
▁There	-8.12603
▁had	-8.12796
▁2-	-8.12866
▁системы	-8.12928
▁may	-8.1307
▁presented	-8.13107
▁ее	-8.13625
▁30	-8.13822
▁12	-8.13841
T	-8.14602
▁методов	-8.14623
ости	-8.14684
▁possible	-8.15434
▁new	-8.15466
ь	-8.16041
nt	-8.1618
л	-8.16724
▁К	-8.16988
▁мес	-8.16997
▁риска	-8.17172
▁сравнени	-8.17179
▁лечении	-8.17712
▁role	-8.18145
▁проведен	-8.1817
er	-8.18506
ation	-8.19557
▁женщин	-8.19619
▁early	-8.1981
▁months	-8.19848
▁которых	-8.20318
▁литературы	-8.20338
or	-8.20437
es	-8.20692
▁помощью	-8.21088
▁decrease	-8.21155
S	-8.21639
▁которые	-8.21867
▁эффективность	-8.22159
P	-8.22351
▁Проведен	-8.22743
▁revealed	-8.22761
▁course	-8.22798
5	-8.22863
▁but	-8.23227
▁no	-8.23266
▁due	-8.23649
▁F	-8.23691
▁1-	-8.23702
▁quality	-8.2373
▁8	-8.23775
▁elderly	-8.23799
▁neuro	-8.23896
▁significantly	-8.23988
ются	-8.2411
▁хирургического	-8.2421
▁approach	-8.24242
▁<	-8.24402
▁only	-8.24689
▁functional	-8.24706
▁shown	-8.25048
▁characteristics	-8.25327
▁pathology	-8.25495
▁aged	-8.25583
▁objective	-8.25685
ому	-8.25706
▁severity	-8.25962
▁diagnostic	-8.26581
▁paper	-8.2659
олько	-8.27049
▁области	-8.2738
▁наибол	-8.27464
▁examined	-8.27556
0	-8.27647
▁том	-8.27874
▁such	-8.28339
▁E	-8.28419
▁two	-8.28456
▁заключение	-8.28499
▁без	-8.2854
▁Russian	-8.28585
▁drug	-8.28713
▁people	-8.2914
▁Дл	-8.2923
▁effectiveness	-8.29343
▁B	-8.29356
▁результатов	-8.2964
▁особенности	-8.2979
▁уровня	-8.30127
▁показателей	-8.30146
▁compared	-8.30304
▁studied	-8.30632
▁presents	-8.3067
▁rehabilitation	-8.30868
▁но	-8.3099
▁степени	-8.31425
▁analyzed	-8.31668
M	-8.32723
G	-8.32729
▁tissue	-8.32743
им	-8.32854
▁А	-8.3304
ные	-8.33102
▁всех	-8.33116
▁pain	-8.33144
▁работы	-8.33147
▁M	-8.33329
▁лиц	-8.33413
▁15	-8.33472
▁изменения	-8.33855
▁observed	-8.34106
▁cells	-8.34144
▁болезни	-8.34287
▁severe	-8.34294
an	-8.34305
▁current	-8.34798
▁60	-8.35283
▁быть	-8.35311
▁лечение	-8.35363
▁considered	-8.35395
▁c	-8.35416
▁there	-8.35444
▁факторов	-8.3548
▁патологии	-8.35508
8	-8.36073
▁mechanisms	-8.36138
▁18	-8.36463
▁cerebral	-8.36625
▁T	-8.36643
▁lower	-8.36936
▁work	-8.37044
B	-8.37095
▁complex	-8.37185
▁типа	-8.37441
▁оценка	-8.37483
▁синдрома	-8.37532
▁process	-8.37614
I	-8.3781
▁increased	-8.37931
▁drugs	-8.37975
▁total	-8.37987
▁состояния	-8.38132
▁parameters	-8.38287
▁state	-8.38307
▁анализа	-8.38338
7	-8.3846
С	-8.38605
▁effective	-8.38667
▁assessment	-8.3869
▁stage	-8.39016
▁использованием	-8.39262
▁post	-8.39544
▁являются	-8.39774
▁health	-8.39799
▁common	-8.39922
▁могут	-8.40086
▁позволяет	-8.40228
▁период	-8.40285
▁days	-8.40582
▁чем	-8.406
▁фоне	-8.40649
ем	-8.4065
▁активности	-8.40799
▁методом	-8.40877
▁long	-8.41061
▁Заключение	-8.41132
on	-8.41868
▁периоде	-8.41899
th	-8.41971
▁чере	-8.42278
на	-8.423
▁клинической	-8.42412
▁higher	-8.42475
▁Т	-8.42479
▁obtained	-8.4261
▁important	-8.42967
▁связи	-8.42967
▁влияние	-8.43594
sub	-8.43605
▁препаратов	-8.43785
▁препарата	-8.4399
▁распространенн	-8.44183
±	-8.4465
▁anti	-8.44716
▁cancer	-8.45057
▁обзор	-8.452
▁levels	-8.45318
▁основе	-8.45348
▁расстройств	-8.45458
9	-8.46036
▁G	-8.46503
▁L	-8.47015
▁assess	-8.47334
А	-8.47559
▁эти	-8.47585
▁low	-8.48308
▁care	-8.48574
г	-8.48712
sup	-8.48763
▁underwe	-8.48938
▁research	-8.49253
▁современн	-8.49422
▁frequency	-8.49636
▁tumor	-8.49808
g	-8.49885
L	-8.50031
▁обзоре	-8.50082
▁modern	-8.50271
▁conditions	-8.50355
▁evaluate	-8.50546
▁уровень	-8.50926
F	-8.51089
к	-8.51438
▁П	-8.51439
R	-8.51953
ный	-8.52122
▁combination	-8.52144
▁настояще	-8.52265
▁positive	-8.52324
лась	-8.52359
▁men	-8.52399
▁выполнен	-8.52607
ла	-8.52709
▁помощи	-8.52897
▁14	-8.52982
▁artery	-8.53513
▁нейро	-8.5369
ют	-8.53694
▁formation	-8.53745
▁зависимости	-8.53751
▁9	-8.53813
able	-8.53894
▁population	-8.54234
▁числе	-8.54246
▁primary	-8.54343
▁мужчин	-8.5453
▁нарушения	-8.54625
▁изменений	-8.55207
▁described	-8.55233
ion	-8.55537
▁О	-8.55566
N	-8.55587
▁showed	-8.55643
-1	-8.55702
▁function	-8.56059
▁основны	-8.56172
▁снижение	-8.5644
▁40	-8.56533
▁m	-8.56626
▁problem	-8.56742
▁effects	-8.5688
▁forensic	-8.57123
▁группа	-8.57125
▁should	-8.57155
▁По	-8.57163
▁II	-8.57337
b	-8.57427
▁возраст	-8.57548
но	-8.57578
▁Н	-8.57828
▁разн	-8.57899
▁tumors	-8.58094
▁injury	-8.58366
▁practice	-8.58418
▁combined	-8.58592
ная	-8.58637
term	-8.58639
▁rate	-8.58645
ия	-8.58654
▁М	-8.58668
▁качестве	-8.58729
▁carried	-8.59235
▁bone	-8.59346
▁наблюдения	-8.59506
▁об	-8.60073
ст	-8.60647
▁developed	-8.60661
▁duration	-8.60995
▁pathogenesis	-8.61022
▁использования	-8.61222
▁ab	-8.61223
▁это	-8.61472
▁we	-8.61527
▁19	-8.61964
▁condition	-8.62083
▁depression	-8.62486
▁structure	-8.62568
H	-8.62583
▁функции	-8.62787
д	-8.62852
▁form	-8.63296
▁specific	-8.63397
tic	-8.63574
▁over	-8.63591
▁50	-8.6376
▁sleep	-8.63768
<	-8.64101
▁изучение	-8.64332
▁under	-8.64341
▁respectively	-8.64385
▁25	-8.64444
▁dental	-8.64889
▁условиях	-8.64909
▁наличие	-8.6538
▁social	-8.65664
▁vascular	-8.65726
▁показатели	-8.65769
▁mental	-8.65773
▁presence	-8.66002
▁инсульта	-8.6617
▁determined	-8.66177
му	-8.66189
▁особенностей	-8.66235
▁experience	-8.66272
▁клеток	-8.66603
▁lead	-8.6663
▁application	-8.66636
E	-8.6665
▁All	-8.66753
▁impairment	-8.66864
▁result	-8.66936
▁IL	-8.66984
▁возможности	-8.67422
▁роль	-8.67651
▁человека	-8.67723
▁prevalence	-8.67886
▁метода	-8.68122
▁body	-8.68125
▁types	-8.68128
▁V	-8.68248
▁multiple	-8.68478
▁rare	-8.6896
▁forms	-8.68973
us	-8.69171
▁therapeutic	-8.69294
▁approaches	-8.69372
year	-8.69619
▁реабилитации	-8.69807
▁ткани	-8.7005
лось	-8.70212
ous	-8.70251
▁про	-8.70255
▁случай	-8.70419
▁test	-8.7051
▁received	-8.71045
▁signs	-8.71079
▁комплексн	-8.71085
▁11	-8.71335
▁up	-8.71544
▁heart	-8.71544
▁determine	-8.71619
▁этом	-8.71665
▁morphological	-8.71675
▁characterized	-8.71795
▁prevention	-8.72023
▁manifestations	-8.72186
▁mortality	-8.72261
▁когнитивных	-8.72349
▁influence	-8.72745
ка	-8.72804
▁technique	-8.72987
▁пожилого	-8.73039
▁(<	-8.73214
▁among	-8.7326
▁status	-8.7326
▁качества	-8.7327
▁железы	-8.73316
▁anxiety	-8.73337
▁dynamics	-8.73398
лись	-8.73399
▁pathological	-8.73479
▁Приведен	-8.73489
▁safety	-8.73514
▁criteria	-8.73519
ло	-8.73537
▁17	-8.73635
f	-8.74106
▁случаях	-8.74207
▁diabetes	-8.74269
▁опухоли	-8.74269
▁according	-8.74568
▁сна	-8.74984
▁функциональн	-8.75042
▁увеличение	-8.75189
up	-8.7559
н	-8.756
ен	-8.75711
▁large	-8.75787
▁comparison	-8.75833
▁уровне	-8.75901
le	-8.75971
▁полости	-8.76068
▁processes	-8.761
▁dysfunction	-8.76285
▁R	-8.76389
▁тела	-8.76637
▁16	-8.76804
▁24	-8.77181
▁neurological	-8.78058
ity	-8.78315
ary	-8.78525
▁мг	-8.78681
▁made	-8.78706
▁demonstrated	-8.78742
▁old	-8.78777
▁ischemic	-8.788
М	-8.78952
▁identified	-8.78991
▁судебно	-8.79053
id	-8.79059
ить	-8.79096
u	-8.79176
▁N	-8.79469
ческих	-8.79515
▁psycho	-8.79552
▁incidence	-8.79813
▁treated	-8.80081
V	-8.80282
▁human	-8.80317
▁death	-8.80539
за	-8.80601
▁данным	-8.80678
▁позволил	-8.80816
▁современны	-8.81123
▁вмешательства	-8.81208
▁loss	-8.8136
—	-8.8137
▁mg	-8.81385
▁поражения	-8.81412
▁schizophrenia	-8.81631
▁cause	-8.81794
those	-8.81819
▁oral	-8.81827
▁However	-8.81904
▁hearing	-8.81904
▁под	-8.81943
▁100	-8.81977
▁assessed	-8.8214
▁stages	-8.82194
▁outcomes	-8.8226
▁них	-8.82306
▁Установлено	-8.82309
В	-8.82709
▁клинико	-8.82732
ive	-8.82933
ки	-8.82997
▁функций	-8.83005
▁area	-8.83021
▁day	-8.83056
▁хронической	-8.8312
▁genetic	-8.83131
▁healthy	-8.8343
▁составила	-8.83554
▁some	-8.83568
ии	-8.83861
▁tissues	-8.83908
▁артерии	-8.83918
▁when	-8.84117
▁potential	-8.84184
▁риск	-8.84281
Р	-8.8432
▁further	-8.84398
▁discussed	-8.84516
▁gene	-8.84776
▁factor	-8.84844
▁management	-8.84961
▁improvement	-8.85575
▁влияния	-8.85605
▁cell	-8.85707
▁значительно	-8.85755
▁before	-8.85816
▁depend	-8.85822
▁процесса	-8.85888
▁relationship	-8.86119
▁re	-8.8643
▁three	-8.86554
▁Patients	-8.86995
▁aim	-8.87009
▁purpose	-8.87308
▁standard	-8.87352
▁causes	-8.87537
▁п	-8.87846
▁disorder	-8.88198
▁biological	-8.88268
О	-8.88311
▁An	-8.88492
▁проводили	-8.88979
▁коррекции	-8.88989
▁течения	-8.8899
▁MS	-8.89198
ах	-8.89254
▁within	-8.89298
▁describes	-8.89301
▁достоверно	-8.89355
▁index	-8.89581
▁приводит	-8.89647
б	-8.89749
▁stress	-8.89925
▁определения	-8.89929
▁consider	-8.89985
▁improve	-8.90103
▁H	-8.90128
▁основании	-8.90176
▁групп	-8.9032
▁Р	-8.90366
▁выявлено	-8.90586
▁indicators	-8.90601
▁Полученны	-8.90663
▁раза	-8.9068
▁analyze	-8.90948
▁проведения	-8.91107
▁less	-8.912
▁возможность	-8.91208
▁functions	-8.91239
▁attention	-8.91367
▁reduce	-8.91544
▁diagnosed	-8.9175
▁клинического	-8.9197
▁зубов	-8.91976
▁операций	-8.91985
▁артерий	-8.92004
или	-8.92644
▁CD	-8.92671
▁таких	-8.92704
▁need	-8.92764
▁развитие	-8.92918
▁соответственно	-8.92936
Н	-8.9295
ре	-8.93105
▁cardiovascular	-8.93191
▁older	-8.93221
▁21	-8.93278
▁report	-8.93494
▁проявлений	-8.93501
related	-8.93507
▁профилактики	-8.93548
▁lesions	-8.9358
▁pre	-8.93793
▁старше	-8.93856
▁сердечно	-8.93928
▁differences	-8.93975
▁СД	-8.93978
▁результате	-8.94028
▁damage	-8.94056
▁evaluation	-8.94111
▁РС	-8.94158
▁состояние	-8.94218
▁13	-8.94663
▁basis	-8.95044
▁больш	-8.95201
▁среди	-8.9531
▁статистически	-8.95359
▁physical	-8.95438
▁scale	-8.95568
▁special	-8.9563
▁proposed	-8.95693
▁диагностике	-8.95983
▁кишки	-8.95983
▁костн	-8.96008
▁Б	-8.96134
h	-8.96201
▁человек	-8.96516
▁лечению	-8.96615
▁основной	-8.96656
▁группу	-8.96753
▁aging	-8.96757
▁degree	-8.96775
▁often	-8.96791
▁infection	-8.96861
▁reduction	-8.96933
▁followed	-8.97095
▁чаще	-8.97305
▁region	-8.97515
▁печени	-8.9757
▁сердца	-8.9757
▁часто	-8.97868
▁населения	-8.97891
▁исследовании	-8.97896
▁growth	-8.97943
▁этого	-8.98211
▁других	-8.98223
re	-8.98361
▁resection	-8.98403
▁local	-8.98449
▁decreased	-8.98804
▁обследования	-8.98861
▁structures	-8.98993
▁высокой	-8.99073
▁III	-8.99142
▁same	-8.99183
ться	-8.99225
▁correction	-8.99237
▁visual	-8.99248
▁follow	-8.99522
▁характер	-8.99643
▁повышение	-8.99815
while	-8.99836
▁expression	-8.99932
▁пациенты	-8.9994
▁problems	-9.00018
▁Изучени	-9.00112
▁inflammatory	-9.00277
▁times	-9.00497
П	-9.00708
▁nasal	-9.00765
▁normal	-9.00819
▁Был	-9.00854
▁наблюдение	-9.00875
▁35	-9.00909
▁immuno	-9.01107
▁клинические	-9.01108
ным	-9.01192
▁учет	-9.01397
old	-9.01449
▁divide	-9.01487
▁зрения	-9.01488
▁все	-9.016
от	-9.01747
▁депрессии	-9.01819
▁allow	-9.01994
▁аорты	-9.02159
▁liver	-9.0226
ное	-9.02372
▁шкале	-9.02695
▁работе	-9.02705
▁year	-9.02792
▁тканей	-9.02826
▁применение	-9.02902
▁р	-9.02967
ж	-9.03144
▁здоровых	-9.03164
▁действия	-9.03164
▁сосудов	-9.03165
▁epilepsy	-9.0318
▁то	-9.03435
▁develop	-9.03528
▁процессов	-9.03555
▁группах	-9.0379
▁coronary	-9.03924
▁caused	-9.04023
▁метод	-9.04197
▁un	-9.04356
Т	-9.04394
▁hypertension	-9.04527
▁продолжительн	-9.04562
▁established	-9.04587
▁оста	-9.0476
▁безопасности	-9.04874
▁времени	-9.04884
▁внимание	-9.04942
▁laser	-9.05021
▁part	-9.05095
▁account	-9.05215
▁значение	-9.05215
▁left	-9.05257
▁медицинской	-9.05338
▁Показано	-9.05358
ам	-9.05447
▁применением	-9.055
▁general	-9.05511
▁нижне	-9.05614
te	-9.05635
▁interventions	-9.05688
▁симптомов	-9.05914
▁целью	-9.0592
▁опыт	-9.05945
по	-9.06179
▁смерти	-9.06607
▁изучения	-9.06684
▁second	-9.06719
is	-9.06873
▁techniques	-9.07019
▁central	-9.07059
▁dose	-9.07273
▁cavity	-9.0731
▁клинический	-9.07427
▁заболеваниями	-9.07475
▁evidence	-9.07536
та	-9.07584
▁model	-9.07617
▁These	-9.07693
en	-9.0775
▁23	-9.07768
▁impact	-9.07818
▁определение	-9.07873
▁young	-9.0799
▁identify	-9.08018
▁практике	-9.08018
▁выраженности	-9.08037
▁сопровожда	-9.08102
▁3-	-9.08104
▁Описан	-9.08107
▁Г	-9.08266
▁detected	-9.08416
▁дней	-9.08433
▁suggest	-9.08543
▁right	-9.08621
▁хирургии	-9.08804
▁гена	-9.0886
ng	-9.08886
▁correlation	-9.08931
▁терапию	-9.08988
▁органов	-9.09092
▁available	-9.091
▁them	-9.09152
▁confirmed	-9.09235
▁Обследован	-9.09251
▁response	-9.09369
▁information	-9.09449
▁middle	-9.09479
▁following	-9.09765
▁22	-9.09875
▁rats	-9.09986
▁At	-9.1007
▁arteries	-9.10172
▁боли	-9.10182
▁структур	-9.102
▁проблемы	-9.10292
▁markers	-9.10366
▁open	-9.10492
▁новых	-9.10542
▁эт	-9.10565
▁possibility	-9.1058
▁diagnostics	-9.10703
▁Russia	-9.10868
▁рассмотрен	-9.10965
▁per	-9.11015
O	-9.11088
▁вмешательств	-9.11161
▁efficiency	-9.11267
▁тяжести	-9.11635
▁эффект	-9.11729
ory	-9.12156
▁individual	-9.12373
▁сутки	-9.12382
▁пациентам	-9.12534
▁осложнения	-9.12733
▁Clinical	-9.12807
▁given	-9.12827
ра	-9.12851
▁27	-9.12923
▁negative	-9.12993
▁active	-9.1305
ими	-9.13312
▁nerve	-9.13322
vascular	-9.13333
▁particular	-9.13371
▁multi	-9.13581
▁отмечено	-9.13626
▁животных	-9.13869
at	-9.13917
▁hospital	-9.13953
ле	-9.14068
▁laboratory	-9.14264
▁образом	-9.14275
▁форм	-9.14543
▁Однако	-9.14626
▁protein	-9.14628
▁progression	-9.14642
▁sclerosis	-9.14708
▁методики	-9.14804
um	-9.14956
▁provides	-9.14956
▁пожилых	-9.15024
▁вопросы	-9.15135
▁reduced	-9.15163
ol	-9.15753
ид	-9.16099
▁history	-9.16157
▁injuries	-9.16175
▁отсутствие	-9.1618
▁нед	-9.16211
MS	-9.16697
▁noted	-9.1674
▁related	-9.16917
▁контрольной	-9.1694
▁eye	-9.16994
▁average	-9.17019
▁И	-9.17025
▁arterial	-9.17073
▁classification	-9.17158
воду	-9.1718
ма	-9.1725
▁endoscopic	-9.17319
▁количество	-9.17389
▁Обследова	-9.17455
▁оперативн	-9.17522
▁allows	-9.17563
▁45	-9.17636
▁each	-9.17711
▁pressure	-9.17742
▁motor	-9.17758
▁расстройства	-9.17786
▁respiratory	-9.178
▁необходимость	-9.17982
▁ряд	-9.18064
▁людей	-9.18101
▁comprehensive	-9.18102
▁компьютерн	-9.18111
▁animals	-9.18224
▁синдромом	-9.1829
▁формы	-9.18412
▁organs	-9.1843
▁имеет	-9.18436
▁prognosis	-9.18495
▁России	-9.18495
▁частоты	-9.18539
ар	-9.18812
▁conducted	-9.18954
▁виде	-9.18985
▁COVID	-9.18989
▁our	-9.19091
▁мм	-9.19145
the	-9.19233
▁Анализ	-9.19344
▁metabolic	-9.19409
▁intervention	-9.19595
▁will	-9.19685
▁peripheral	-9.19686
▁involved	-9.19763
▁aspects	-9.19822
▁противо	-9.1985
▁scientific	-9.20079
▁роли	-9.20085
▁Рассмотрен	-9.20126
▁глаз	-9.20133
▁некоторы	-9.20406
▁action	-9.20487
▁values	-9.20577
оз	-9.20604
il	-9.20629
▁которая	-9.20685
ию	-9.2078
▁крыс	-9.20818
▁положительн	-9.20892
▁развитии	-9.20892
▁систем	-9.20905
▁менее	-9.20983
▁65	-9.21092
то	-9.21113
▁Выявлен	-9.21156
▁experimental	-9.21214
▁сочетании	-9.21296
▁контроля	-9.21314
К	-9.21337
▁выше	-9.2145
to	-9.21496
▁thyroid	-9.21509
▁Оценк	-9.2172
ry	-9.21726
сь	-9.21818
▁late	-9.21818
▁которым	-9.21835
▁28	-9.21992
Ф	-9.22047
▁carotid	-9.2211
▁снижения	-9.22113
▁легких	-9.22136
▁возрастных	-9.22143
▁день	-9.22167
Г	-9.223
▁периода	-9.22412
▁активность	-9.22435
▁hyper	-9.22448
▁differential	-9.22545
▁aortic	-9.22551
▁inflammation	-9.22638
K	-9.22933
▁опухолей	-9.22958
▁необходимо	-9.22966
ur	-9.22989
▁abdominal	-9.22998
▁pulmonary	-9.23168
▁de	-9.23173
▁choice	-9.23344
▁носа	-9.23356
▁комбинированн	-9.23357
▁двух	-9.23365
▁травмы	-9.23423
▁vessels	-9.23477
▁weeks	-9.23511
▁O	-9.23596
▁патологией	-9.23759
▁successful	-9.2376
▁recovery	-9.23761
▁many	-9.2378
▁molecular	-9.23882
▁onset	-9.24004
▁consist	-9.24035
Л	-9.24134
▁nervous	-9.24176
▁outcome	-9.24469
не	-9.247
▁regard	-9.24847
inflammatory	-9.24869
k	-9.24961
▁basic	-9.25018
▁последние	-9.25029
ne	-9.25063
as	-9.25309
▁сравнения	-9.25311
▁терапия	-9.25372
▁serum	-9.25437
▁acid	-9.25453
▁increasing	-9.25456
▁did	-9.25502
▁give	-9.25565
▁mean	-9.25572
ин	-9.2568
▁90	-9.25702
▁through	-9.25869
▁составил	-9.2599
▁выявлены	-9.26073
▁lesion	-9.26167
▁mellitus	-9.26285
▁skin	-9.26288
можно	-9.26308
▁приведен	-9.26363
▁разделен	-9.26539
▁признаков	-9.26716
est	-9.26915
▁intra	-9.26968
▁indicate	-9.27018
▁больного	-9.27188
▁позволяю	-9.2737
▁One	-9.27647
▁который	-9.27675
▁evaluated	-9.27841
▁single	-9.28006
▁Это	-9.28018
И	-9.2806
▁secondary	-9.28077
▁No	-9.28081
▁синдром	-9.28142
▁speech	-9.28441
ок	-9.28456
▁экспериментальн	-9.28548
▁механизмы	-9.28562
Д	-9.28582
▁качество	-9.28602
▁использование	-9.28639
▁больше	-9.28653
▁failure	-9.28877
▁Д	-9.29228
▁accompanie	-9.29316
▁стадии	-9.29316
хирургических	-9.29475
▁выявления	-9.2977
▁особенно	-9.29798
▁котор	-9.30071
▁similar	-9.30199
ould	-9.30212
▁связь	-9.30229
▁механизмов	-9.30229
▁absence	-9.30244
▁уменьшение	-9.30263
▁причин	-9.30274
▁internal	-9.30284
▁отдела	-9.30387
▁перв	-9.30465
▁t	-9.3054
it	-9.30624
▁pronounced	-9.30644
▁anterior	-9.3066
▁Все	-9.30702
▁повреждения	-9.30988
▁taking	-9.3109
▁ИИ	-9.31094
ization	-9.31161
▁value	-9.31172
▁выполнения	-9.31179
▁острого	-9.31218
▁upper	-9.31544
▁значим	-9.31573
▁small	-9.31951
▁формирования	-9.32032
ном	-9.32076
▁гг	-9.32083
▁рака	-9.3209
лся	-9.32093
▁systems	-9.32164
▁procedure	-9.3235
▁42	-9.32365
▁content	-9.32374
▁teeth	-9.32441
▁flow	-9.32547
▁патогенеза	-9.32568
▁disturbances	-9.32581
▁части	-9.32617
ine	-9.32672
▁статуса	-9.32731
ключены	-9.3274
▁29	-9.32748
▁sub	-9.32835
▁help	-9.32896
▁клиническое	-9.32896
▁importance	-9.32896
▁посвящен	-9.33045
▁того	-9.33238
▁According	-9.33352
▁optimal	-9.33357
▁Л	-9.33763
▁ischemia	-9.33811
▁histological	-9.33875
▁addition	-9.34116
▁старческ	-9.34442
▁заболевание	-9.34456
▁имеют	-9.34565
▁volume	-9.3477
▁necessary	-9.34776
▁сроки	-9.34946
▁расстройствами	-9.34952
▁мозгов	-9.35121
▁disability	-9.35203
▁measures	-9.35273
▁procedures	-9.35294
▁tests	-9.35309
▁частота	-9.35315
▁terms	-9.35434
ческого	-9.35588
▁оптимальн	-9.3573
до	-9.35795
▁increases	-9.35844
▁affect	-9.35899
▁существенно	-9.36035
▁возрастн	-9.36085
▁свидетельствуют	-9.36137
хирургической	-9.36165
ness	-9.36242
▁pro	-9.36293
▁70	-9.36297
▁concentration	-9.36536
▁лекарственн	-9.36553
▁роговицы	-9.36608
▁good	-9.36609
▁Исследование	-9.36624
▁нерва	-9.36701
▁PD	-9.36724
▁этапе	-9.36788
▁одной	-9.36854
он	-9.3689
нов	-9.36891
ными	-9.36969
▁systemic	-9.36994
▁leads	-9.37233
▁роста	-9.37315
▁всего	-9.37342
▁отдаленн	-9.37352
▁issues	-9.37365
▁MRI	-9.37443
▁material	-9.3754
▁tomography	-9.37558
▁practical	-9.37586
ющихся	-9.37772
Б	-9.3783
▁стоматологическ	-9.37912
▁случае	-9.37993
▁подхода	-9.38018
▁Federation	-9.38037
▁За	-9.38043
▁operations	-9.38054
▁сетчатки	-9.3852
▁alcohol	-9.38521
-2	-9.38617
▁процесс	-9.38754
▁глаза	-9.38778
ди	-9.38781
▁comparative	-9.38877
▁K	-9.38922
▁развитием	-9.38957
▁использовали	-9.39001
▁Medical	-9.39001
▁однако	-9.39003
▁частности	-9.39005
▁две	-9.39024
ва	-9.39201
▁frequent	-9.39364
▁составили	-9.39399
%	-9.39423
▁36	-9.39516
▁выбора	-9.39733
РС	-9.4013
▁тем	-9.403
▁algorithm	-9.40406
▁minimal	-9.40464
няя	-9.40465
pite	-9.40482
ал	-9.40516
▁26	-9.40711
▁улучшение	-9.40776
▁mm	-9.40947
▁восстановления	-9.40978
▁concluded	-9.40985
▁inter	-9.41014
▁отношении	-9.41033
▁Установлен	-9.41036
▁оценить	-9.41452
▁обследование	-9.41471
па	-9.41504
▁findings	-9.41516
▁moderate	-9.4154
▁psychological	-9.4156
▁факторы	-9.41577
-10	-9.4184
▁identification	-9.4195
▁этиологии	-9.41954
▁muscle	-9.41963
▁способству	-9.42002
▁32	-9.42032
▁dementia	-9.42056
▁хронического	-9.42094
▁mass	-9.42304
▁detail	-9.42399
▁devote	-9.42449
▁классификации	-9.42449
▁числа	-9.42555
▁means	-9.42599
▁лечебн	-9.42666
▁variants	-9.42731
▁relative	-9.42906
▁trans	-9.4291
▁daily	-9.42952
▁дисфункции	-9.42952
▁certain	-9.42955
▁Наибол	-9.42981
▁электро	-9.4315
▁80	-9.43267
▁properties	-9.43457
▁шизофрении	-9.43457
▁malignant	-9.43458
▁For	-9.43547
▁field	-9.43561
▁дефицита	-9.43571
▁случая	-9.43582
▁подход	-9.4368
▁МРТ	-9.43921
▁три	-9.43925
▁medicine	-9.43925
▁investigation	-9.4393
▁prevent	-9.43931
▁возникновения	-9.43965
▁общей	-9.44043
▁модели	-9.44064
▁resistance	-9.44093
▁subjects	-9.44117
▁больным	-9.44139
▁Применен	-9.44301
▁сам	-9.44462
▁оценивали	-9.44494
▁cerebro	-9.44526
▁число	-9.44855
▁После	-9.44927
▁важн	-9.44937
▁components	-9.44948
▁первичной	-9.44998
rs	-9.45005
▁program	-9.4514
se	-9.4515
▁eyes	-9.45194
▁же	-9.45297
▁describe	-9.45362
▁микро	-9.45489
▁etiology	-9.45503
▁повреждений	-9.45506
▁содержания	-9.45518
▁survival	-9.45528
▁training	-9.45528
▁direct	-9.45541
▁значимо	-9.45588
▁рта	-9.45676
▁areas	-9.45713
▁association	-9.45991
▁среднего	-9.46035
▁воздействия	-9.46073
▁вывод	-9.46311
▁нервной	-9.46332
▁Таким	-9.46585
ол	-9.46589
▁диагнозом	-9.46719
▁относительно	-9.46745
▁вен	-9.468
▁peri	-9.46817
ent	-9.46819
▁описание	-9.46856
ш	-9.47043
▁wall	-9.47043
▁aneurysm	-9.47046
▁кожи	-9.47066
▁параметров	-9.47066
▁perform	-9.47086
▁female	-9.47089
▁rs	-9.47297
▁нарушениями	-9.47379
▁complete	-9.4739
▁recent	-9.47469
▁формирование	-9.47514
Ж	-9.47545
▁здоровья	-9.47592
▁activities	-9.47599
▁administration	-9.47609
–	-9.47618
▁pancreatic	-9.47676
да	-9.47679
▁plasma	-9.47688
▁прям	-9.47689
▁range	-9.48035
▁surface	-9.48096
▁реакции	-9.48121
▁detection	-9.48128
▁deficit	-9.48147
▁болезнью	-9.48192
ческие	-9.48193
следствие	-9.48216
▁cardiac	-9.48236
▁immune	-9.48264
▁возможны	-9.48267
ч	-9.48286
ны	-9.48345
▁включ	-9.4841
кт	-9.48443
▁литературе	-9.48653
▁recurrent	-9.48653
▁especially	-9.48654
▁нижних	-9.48678
ance	-9.48722
▁invasive	-9.48732
▁localization	-9.48737
▁seizures	-9.48748
ies	-9.48772
▁monitoring	-9.48846
ит	-9.48846
el	-9.48949
▁эндоскопическ	-9.48961
▁being	-9.4907
▁(1	-9.49076
▁lung	-9.49176
▁Определен	-9.49179
▁старения	-9.49188
▁пациентки	-9.49196
сти	-9.49429
▁–	-9.49545
▁место	-9.49669
основных	-9.49727
▁congenital	-9.49727
▁complicated	-9.49798
▁materials	-9.49801
▁оценке	-9.49963
▁средств	-9.5003
▁ear	-9.50068
▁external	-9.50268
-19	-9.50338
ор	-9.50362
▁концентрации	-9.50367
Э	-9.50553
▁различны	-9.50716
его	-9.50934
▁46	-9.50982
▁БП	-9.51024
',	-9.51238
▁short	-9.51258
▁здравоохранения	-9.51356
▁врачей	-9.51356
▁tract	-9.51357
▁образования	-9.51364
▁получали	-9.51366
▁миокарда	-9.51396
ch	-9.51404
▁additional	-9.51409
▁deficiency	-9.51433
▁statistically	-9.51454
▁высок	-9.51616
▁gastro	-9.51656
▁31	-9.51702
▁возрастом	-9.51888
▁metabolism	-9.51905
▁кровообращения	-9.51905
▁конечностей	-9.51906
▁nature	-9.51906
▁различия	-9.51908
▁41	-9.5197
▁слизистой	-9.52018
▁наблюда	-9.52116
▁concept	-9.52444
▁перед	-9.52547
▁spectrum	-9.52556
▁55	-9.52597
▁persons	-9.52657
▁great	-9.5286
1,	-9.52883
histochemical	-9.52888
▁On	-9.52909
▁world	-9.53013
▁adverse	-9.53031
1-	-9.53041
▁author	-9.53064
▁%	-9.53083
▁5-	-9.53108
▁key	-9.53132
▁шкалы	-9.53238
▁As	-9.53304
▁мин	-9.5346
▁томографии	-9.53576
▁recommendations	-9.53595
▁подростков	-9.53609
▁amount	-9.53613
▁проявля	-9.53636
15	-9.53791
ir	-9.53969
▁деятельности	-9.54134
▁средней	-9.54171
Х	-9.54294
▁причиной	-9.54546
Проанализированы	-9.5455
v	-9.54575
остью	-9.54684
▁собой	-9.54702
▁CI	-9.54763
▁progressive	-9.54795
▁диагностика	-9.548
▁практически	-9.5491
▁Group	-9.54926
ц	-9.54992
▁выраженн	-9.55119
▁micro	-9.55132
▁хроническим	-9.55226
▁major	-9.55252
▁structural	-9.55274
▁Thus	-9.55275
▁determination	-9.55291
▁indications	-9.55353
▁которого	-9.55426
▁34	-9.55435
▁publications	-9.5544
▁Изучен	-9.55481
▁Показан	-9.55499
▁подходы	-9.55606
▁участие	-9.55635
▁проявления	-9.55642
▁observation	-9.5573
▁одного	-9.55782
▁concerning	-9.55862
▁общего	-9.55865
▁bleeding	-9.55908
▁own	-9.56035
▁renal	-9.56073
▁pathogenetic	-9.56077
▁emotional	-9.56186
day	-9.56205
▁определяли	-9.56207
медицинской	-9.56218
▁средни	-9.56299
▁дополнительн	-9.56299
10	-9.56318
▁детск	-9.56356
▁гипер	-9.56411
▁After	-9.56413
▁наблюдений	-9.56413
▁Research	-9.5644
▁динамики	-9.56505
▁so	-9.56572
ную	-9.56638
▁объем	-9.56817
(	-9.56838
▁kidney	-9.5702
▁remain	-9.57028
▁профессиональн	-9.5703
▁взрослых	-9.57069
▁клеточн	-9.57276
▁ребенка	-9.57572
▁repair	-9.5758
▁недостаточности	-9.57586
▁they	-9.57613
▁кажд	-9.57619
▁количества	-9.57635
2)	-9.5767
▁технологий	-9.57676
physiological	-9.5774
▁behavior	-9.58035
▁insulin	-9.58074
▁Не	-9.58085
▁гортани	-9.58157
▁челюсти	-9.58157
▁сыворотке	-9.5817
▁генов	-9.58171
▁экспрессии	-9.58189
▁женщины	-9.58191
▁characteristic	-9.58202
▁technologies	-9.58239
ля	-9.58241
ния	-9.58274
,7%	-9.58376
▁frequently	-9.58442
▁Э	-9.58533
▁рассматривают	-9.58656
▁48	-9.58712
▁иммуногистохими	-9.58722
▁composition	-9.58746
▁order	-9.58746
▁applied	-9.58747
▁make	-9.58762
▁length	-9.58817
▁раз	-9.58844
ф	-9.58864
very	-9.58864
▁self	-9.58905
▁discusse	-9.58938
5%	-9.59124
▁component	-9.5915
▁материала	-9.59256
▁picture	-9.59337
▁several	-9.59337
▁play	-9.59348
▁2015	-9.5937
x	-9.59669
▁aimed	-9.59683
▁широко	-9.59732
▁тактики	-9.59935
▁почек	-9.59949
▁фактора	-9.5996
▁психических	-9.60027
▁achieved	-9.60041
▁95%	-9.60163
▁end	-9.60182
ности	-9.60421
▁adequate	-9.60422
▁IV	-9.60493
▁многи	-9.60531
▁оболочки	-9.60531
▁CT	-9.6057
▁счет	-9.60587
▁recommended	-9.60589
▁начала	-9.60655
▁маркеров	-9.60705
▁venous	-9.6084
▁результатам	-9.60872
▁intestinal	-9.60915
ходе	-9.61047
▁75	-9.6111
cause	-9.61119
▁stenosis	-9.61134
▁алгоритм	-9.61145
▁involvement	-9.6116
▁glaucoma	-9.61173
▁среднем	-9.61243
▁де	-9.61259
▁белка	-9.61261
▁advantages	-9.61264
▁индекс	-9.6128
▁membrane	-9.61286
▁vestibular	-9.61321
те	-9.61433
▁ряда	-9.61547
▁maxill	-9.61562
▁wound	-9.61628
li	-9.61663
▁выявлен	-9.61679
-3	-9.61683
▁remains	-9.61703
▁воспаления	-9.61749
▁повторн	-9.6176
▁ultrasound	-9.61779
ошли	-9.61865
▁рамка	-9.61936
im	-9.61958
▁массы	-9.61975
▁острой	-9.61996
▁intensity	-9.62097
ческой	-9.62128
16	-9.62145
▁БА	-9.62152
▁support	-9.62181
▁reactions	-9.62222
▁стенки	-9.6235
▁тревоги	-9.62367
ко	-9.62376
▁степень	-9.62389
▁mild	-9.62424
et	-9.62484
▁лапароскопическ	-9.62541
▁использовать	-9.62579
▁сочетанн	-9.62592
U	-9.627
▁инфекции	-9.62744
nd	-9.62886
▁диагноз	-9.62927
▁initial	-9.62936
▁possibilities	-9.62965
▁male	-9.63034
▁trauma	-9.63048
▁Пациенты	-9.63061
▁anatomical	-9.63233
▁мышц	-9.6326
▁X	-9.63269
▁ишемического	-9.63361
▁(5	-9.63428
▁contribute	-9.63537
,8%	-9.63603
▁again	-9.6361
же	-9.63619
▁understanding	-9.63632
▁fluid	-9.63651
ia	-9.6379
▁do	-9.64103
W	-9.64126
▁concomitant	-9.64203
ат	-9.64219
▁mechanism	-9.64281
▁патогенезе	-9.64444
▁depressive	-9.64579
▁высокая	-9.64587
▁demonstrate	-9.6464
▁any	-9.64661
▁Bas	-9.64765
▁зрительн	-9.64789
▁strategy	-9.64831
▁признаки	-9.64852
▁implantation	-9.64853
▁intraoperative	-9.64874
▁медико	-9.64916
ince	-9.64967
▁DM	-9.65106
▁weight	-9.65157
▁значения	-9.65352
▁острым	-9.65391
▁change	-9.65418
lo	-9.6544
▁определить	-9.65455
▁thrombosis	-9.65457
19	-9.65461
▁перенесши	-9.65469
ность	-9.65505
ина	-9.6563
▁mutations	-9.65744
,3%	-9.65748
▁samples	-9.65916
▁полн	-9.65929
designed	-9.65944
▁=	-9.65952
▁Всем	-9.66034
53	-9.6604
▁эпилепсии	-9.66088
▁does	-9.66117
▁gender	-9.66201
▁required	-9.66221
▁поражением	-9.66276
2-	-9.66312
▁33	-9.66329
▁provide	-9.66413
▁regions	-9.66535
▁reported	-9.66559
▁структуры	-9.66617
▁медицинских	-9.66625
▁требует	-9.66641
▁include	-9.66695
▁relevant	-9.66725
▁regression	-9.66727
▁развитию	-9.66728
▁использовании	-9.66735
ци	-9.66737
из	-9.66757
▁laparoscopic	-9.6677
11	-9.66777
▁церебральн	-9.6678
based	-9.66819
▁along	-9.66854
▁установлено	-9.66883
▁проведение	-9.67101
▁различной	-9.67125
▁traumatic	-9.67196
▁включен	-9.67264
▁senile	-9.67366
▁foreign	-9.67366
▁significance	-9.67366
ra	-9.67476
▁Moscow	-9.67492
▁carcinoma	-9.67493
▁43	-9.67513
17	-9.67514
ще	-9.67544
uch	-9.67545
▁implant	-9.67647
▁препараты	-9.67658
▁Выявлено	-9.67742
▁диагноза	-9.67747
▁методами	-9.67812
▁Использован	-9.67831
▁риском	-9.67845
pathological	-9.68006
▁медицины	-9.68011
▁occurred	-9.68031
▁локализации	-9.68033
▁genes	-9.6804
▁head	-9.68104
▁spinal	-9.68191
▁e	-9.68192
▁программы	-9.68261
▁типов	-9.68261
ков	-9.68436
▁para	-9.68439
▁2016	-9.68526
▁developing	-9.68558
▁представляет	-9.68584
▁endotheli	-9.68602
▁operation	-9.68621
▁prognostic	-9.68656
▁поверхности	-9.68661
▁reference	-9.68661
▁применении	-9.68667
▁биологическ	-9.68671
▁impaired	-9.68671
▁ч	-9.68717
▁выраженность	-9.68717
assisted	-9.68718
▁organ	-9.68745
▁side	-9.68758
z	-9.68764
▁expert	-9.68767
▁events	-9.68835
▁остром	-9.68908
ющиеся	-9.69005
▁37	-9.69082
13	-9.69094
▁выявлена	-9.69113
▁sinus	-9.69234
ment	-9.69288
▁наружн	-9.69314
▁путем	-9.69314
▁conventional	-9.69345
▁грудн	-9.69345
▁категории	-9.69359
▁measured	-9.69381
▁процессе	-9.69445
▁Ф	-9.69462
▁характеристик	-9.69497
▁agents	-9.69575
ку	-9.6963
2,	-9.69696
▁методика	-9.69737
▁(3	-9.69744
▁научны	-9.69755
▁description	-9.69972
▁search	-9.69972
У	-9.69973
▁difficult	-9.70008
▁randomized	-9.70029
▁solution	-9.70081
ty	-9.70158
▁вторичн	-9.70267
▁known	-9.70394
ers	-9.70411
▁неблагоприятн	-9.70502
▁комплекса	-9.70547
водится	-9.70636
▁снижению	-9.70638
▁2018	-9.70655
▁слуха	-9.70658
▁antibodies	-9.70661
▁повышения	-9.70679
▁proved	-9.70687
▁myocardi	-9.70786
2</	-9.70887
▁различными	-9.70895
▁годы	-9.70922
▁каса	-9.71042
▁defects	-9.71058
▁индекса	-9.71135
ul	-9.7118
▁препарат	-9.71228
▁пола	-9.7128
=	-9.71318
▁видов	-9.71336
▁third	-9.71371
▁проведении	-9.7138
▁ре	-9.71401
▁Среди	-9.71403
▁interest	-9.71427
▁отмечен	-9.71432
▁(2	-9.71433
▁activation	-9.71489
▁exist	-9.71492
▁показателями	-9.71514
6%	-9.7152
▁determin	-9.71666
▁U	-9.71706
▁last	-9.71757
ma	-9.7176
▁сут	-9.71799
w	-9.7188
▁makes	-9.71921
▁necessity	-9.71972
▁смертности	-9.71972
▁extreme	-9.71972
▁quantitative	-9.71973
▁removal	-9.71998
▁кости	-9.72006
▁другими	-9.72037
▁уха	-9.72056
▁preventive	-9.72061
▁questionnaire	-9.72097
surgical	-9.72164
▁Изучи	-9.7221
▁ведения	-9.72236
-4	-9.7236
▁возможно	-9.72375
▁confirm	-9.72452
1)	-9.7247
os	-9.72524
▁0	-9.72618
▁критериев	-9.72648
▁мероприятий	-9.72648
▁приступов	-9.72658
▁manifest	-9.72677
▁организации	-9.72685
▁повышенн	-9.72686
▁programs	-9.72688
▁suffering	-9.72731
▁терапевтическ	-9.72789
12	-9.72887
».	-9.729
▁individuals	-9.72965
▁his	-9.73032
▁диагностирован	-9.73092
▁statistical	-9.73263
▁predict	-9.73278
роме	-9.73329
▁необходимости	-9.73348
ally	-9.7335
▁Parkinson	-9.7336
▁следует	-9.73397
▁colon	-9.73425
▁страдающи	-9.73465
genic	-9.73476
▁light	-9.73567
▁sensitivity	-9.73579
la	-9.73652
▁working	-9.73766
▁зубн	-9.73793
▁нарушение	-9.73876
▁investigate	-9.73905
▁corne	-9.73908
▁W	-9.73945
▁estimate	-9.73953
▁улучши	-9.74013
▁брюшн	-9.74024
▁aneurysms	-9.74039
▁патогенетически	-9.7404
▁safe	-9.74052
▁size	-9.74152
▁reaction	-9.74159
▁trials	-9.74166
▁lipid	-9.74259
▁получен	-9.74279
%)	-9.74404
▁improved	-9.74432
полученных	-9.7447
▁содержание	-9.74593
▁щитовидн	-9.74703
▁(8	-9.74709
▁implementation	-9.74711
▁investigations	-9.74771
ot	-9.7484
▁объема	-9.74863
,4%	-9.74885
▁52	-9.74929
intestinal	-9.74954
▁им	-9.74971
▁undergo	-9.7501
▁free	-9.75076
▁ratio	-9.75099
▁Из	-9.75105
▁b	-9.75128
▁n	-9.75136
OR	-9.75193
▁динамика	-9.75397
▁поджелудочн	-9.75397
▁популяции	-9.75397
де	-9.75412
▁сведения	-9.75502
▁provided	-9.756
▁резекции	-9.75614
▁(10	-9.75623
▁аневризмы	-9.75658
▁retinal	-9.75659
▁разработка	-9.75684
▁имели	-9.75701
▁структуре	-9.75814
▁развива	-9.75925
▁deep	-9.76098
▁difficulties	-9.76105
▁personality	-9.7611
▁adolescents	-9.76187
▁организма	-9.76208
▁wide	-9.76223
▁основн	-9.76271
есмотр	-9.76313
▁снижением	-9.76315
▁давления	-9.76326
▁adults	-9.76522
▁количественн	-9.76596
DM	-9.76668
▁раннем	-9.76726
▁путей	-9.76801
▁periodont	-9.76803
▁2017	-9.76817
30	-9.76834
▁поведения	-9.76835
▁стороны	-9.76862
огласно	-9.76865
ями	-9.76902
▁част	-9.76906
▁endovascular	-9.7692
▁Авторы	-9.76965
▁артериальн	-9.7697
▁год	-9.7698
▁Основн	-9.76985
▁изменение	-9.76994
▁комплекс	-9.77025
ter	-9.77139
▁39	-9.77163
▁50%	-9.77294
▁scales	-9.77324
▁show	-9.77418
▁желудка	-9.7751
▁ишемии	-9.77519
▁advanced	-9.77629
▁влия	-9.77642
▁professional	-9.77686
▁одним	-9.77703
▁stimulation	-9.77716
▁сосудистой	-9.7775
▁сахарны	-9.77755
▁диагностическ	-9.77847
▁limb	-9.77973
▁ран	-9.78015
▁препаратами	-9.78023
▁местн	-9.78071
ль	-9.78104
▁background	-9.78224
age	-9.78241
▁child	-9.78285
▁ин	-9.78332
▁restoration	-9.78389
▁характера	-9.78425
▁Во	-9.78494
ан	-9.785
▁интраоперационн	-9.78547
▁highly	-9.78581
средни	-9.78629
▁спектра	-9.78671
▁мл	-9.7879
▁isolated	-9.78972
▁Российск	-9.78978
▁экспертн	-9.78993
▁преимущественно	-9.79049
▁estimated	-9.79093
▁complication	-9.79126
▁typical	-9.79127
ized	-9.79157
▁злокачественн	-9.79243
▁2014	-9.79283
▁описан	-9.79327
ров	-9.79341
вшихся	-9.79356
▁действие	-9.79392
▁electro	-9.79437
▁тяжелой	-9.79462
▁compare	-9.79545
oid	-9.79552
ос	-9.79555
▁свидетельствует	-9.79668
▁where	-9.79669
▁published	-9.79676
▁bypass	-9.79682
▁place	-9.79685
▁эпилепсией	-9.79702
▁низкой	-9.79732
▁muscles	-9.79736
▁традиционн	-9.79767
▁examinations	-9.79771
▁мире	-9.79777
▁введения	-9.79822
ющих	-9.79995
▁scores	-9.80009
group	-9.80023
am	-9.80062
▁Х	-9.80122
▁высоким	-9.80146
▁neurodegenerati	-9.80179
ial	-9.80279
ру	-9.80292
▁методик	-9.8034
▁antioxidant	-9.80401
▁верхней	-9.80405
тер	-9.80419
▁момент	-9.80568
патологических	-9.80582
▁r	-9.80597
▁models	-9.80795
▁requires	-9.80804
▁syndromes	-9.80892
▁38	-9.80938
Ц	-9.81002
▁Предложен	-9.81011
▁timely	-9.81062
▁morbidity	-9.81134
▁migraine	-9.81136
▁majority	-9.81153
-6	-9.81238
▁антител	-9.81256
▁Re	-9.81283
▁toward	-9.81286
▁Des	-9.81344
▁показали	-9.81471
▁56	-9.81502
▁легочн	-9.81559
▁reports	-9.81707
▁if	-9.81832
▁заболеваемости	-9.81874
▁рекомендации	-9.81878
▁раком	-9.81957
▁85	-9.81983
▁белков	-9.81993
▁51	-9.8201
▁выявление	-9.82068
▁разработки	-9.82082
▁дозе	-9.8209
▁regulation	-9.8211
▁original	-9.82154
нг	-9.82191
неврологического	-9.82233
less	-9.82308
▁mono	-9.82327
▁болевого	-9.8234
ации	-9.82409
▁большинств	-9.82501
▁меньше	-9.82582
ни	-9.82602
▁картины	-9.82621
▁aorta	-9.82621
▁obesity	-9.82621
▁критерии	-9.82622
▁преимущества	-9.82638
▁центральн	-9.82638
▁screening	-9.8265
▁traditional	-9.82656
▁principles	-9.82713
▁g	-9.82722
▁эффектов	-9.82772
▁молекулярно	-9.82791
ющего	-9.82911
ac	-9.82917
▁средства	-9.82922
▁Dur	-9.82924
▁preparation	-9.82946
▁sample	-9.83007
▁показал	-9.83123
▁срок	-9.83196
▁облада	-9.83261
▁hav	-9.83271
▁countries	-9.83372
▁Рассматрива	-9.83372
▁anesthesia	-9.83382
▁трех	-9.83386
▁достоверное	-9.83418
▁ранней	-9.83444
ческое	-9.83479
PD	-9.83485
▁которое	-9.83535
,9%	-9.83541
ta	-9.83545
▁expertise	-9.83579
▁reconstruction	-9.83591
▁обеи	-9.83629
ase	-9.8371
▁psychiatric	-9.83719
▁rates	-9.83771
▁они	-9.83805
▁доступа	-9.83853
▁cortex	-9.84128
▁pregnancy	-9.8413
▁promising	-9.8413
▁дистальн	-9.84131
▁жидкости	-9.84133
.7%	-9.84167
▁кровотока	-9.84211
▁связанных	-9.84338
▁обследованы	-9.84369
▁radical	-9.84379
▁w	-9.8443
▁patterns	-9.84479
▁проблеме	-9.84614
▁хронически	-9.84645
▁±	-9.84676
▁характеризу	-9.84687
▁reflect	-9.84697
▁ml	-9.84804
▁Scale	-9.84893
▁симптоматики	-9.84893
▁пути	-9.84895
▁consideration	-9.84965
▁этим	-9.85003
▁63	-9.85023
▁HIV	-9.85039
▁прогноз	-9.85053
00	-9.85085
▁антиоксидантн	-9.85191
ative	-9.85216
▁э	-9.85263
▁focal	-9.85293
▁44	-9.853
▁cm	-9.853
CD	-9.8534
op	-9.85349
▁subsequent	-9.85535
▁биологических	-9.85565
▁otitis	-9.85663
▁психического	-9.85665
▁беременности	-9.85668
▁auditory	-9.85712
▁ВИЧ	-9.85785
▁operated	-9.85848
альной	-9.85887
▁posterior	-9.85901
,1%	-9.85906
▁temporal	-9.86045
50	-9.86054
▁co	-9.86061
▁дальнейше	-9.86137
ряду	-9.86228
ние	-9.86329
ческий	-9.86363
▁индивидуальн	-9.86381
ectomy	-9.86385
▁снизи	-9.86394
▁living	-9.86438
▁Сделан	-9.86438
▁протяжении	-9.86438
▁состоянии	-9.86438
▁better	-9.86438
▁bilateral	-9.86442
▁направления	-9.86448
▁улучшения	-9.86475
▁вариантов	-9.86494
▁представления	-9.86593
▁discuss	-9.86614
би	-9.86631
▁AD	-9.86653
ил	-9.86689
▁manifestation	-9.86706
▁profile	-9.86741
▁нарушением	-9.8676
▁масс	-9.86836
▁име	-9.86868
20	-9.86881
▁консервативн	-9.86896
▁программ	-9.86925
.5%	-9.86943
▁причины	-9.86969
▁достаточно	-9.87044
▁полученны	-9.87066
бсуждаются	-9.87139
▁наличии	-9.87219
СД	-9.87229
▁Дан	-9.87381
лет	-9.8755
щ	-9.87567
▁соответстви	-9.87606
ical	-9.87606
▁functioning	-9.87638
40	-9.8764
▁international	-9.87641
▁patho	-9.87695
▁процессы	-9.8771
ген	-9.8776
▁диагностических	-9.87855
▁результат	-9.87943
▁поиск	-9.88006
▁состояний	-9.88006
▁benign	-9.88007
▁lack	-9.88008
▁крайне	-9.88012
ce	-9.88016
▁partial	-9.88022
▁position	-9.88064
▁occlusion	-9.88132
▁очагов	-9.88152
▁кислоты	-9.88235
▁view	-9.88251
▁анти	-9.88452
one	-9.88531
▁ones	-9.88571
mean	-9.88583
▁(12	-9.88692
ак	-9.88759
▁real	-9.88787
▁Паркинсона	-9.888
▁реакций	-9.888
▁hours	-9.88803
▁различий	-9.88806
▁dependence	-9.8882
▁ранее	-9.8885
▁функциональных	-9.8889
▁consequences	-9.88995
▁TNF	-9.8909
терапии	-9.89132
of	-9.89144
▁веществ	-9.89146
▁segment	-9.89185
▁когнитивного	-9.89253
нт	-9.89269
ph	-9.89415
ту	-9.89521
▁Treatment	-9.896
▁hundred	-9.896
▁публикаций	-9.896
▁частоту	-9.89648
▁показано	-9.89675
▁решения	-9.89685
▁organization	-9.89718
▁facial	-9.89809
▁пре	-9.89822
▁remission	-9.89846
тор	-9.89867
▁оценива	-9.89893
▁приводят	-9.89907
▁венозн	-9.89929
▁описаны	-9.89932
▁proteins	-9.89953
вести	-9.90081
тся	-9.90092
▁month	-9.9019
▁ответ	-9.902
▁(4	-9.90262
▁рассматривать	-9.90357
▁Статья	-9.90407
▁somatic	-9.90407
▁HER	-9.90485
▁слухов	-9.905
▁безопасность	-9.90504
▁ЦНС	-9.90506
▁использованы	-9.9063
▁хирургическое	-9.90649
ian	-9.90665
.8%	-9.90675
▁исхода	-9.90697
▁64	-9.90702
▁мы	-9.90704
▁психопатологи	-9.90806
▁характеристики	-9.90831
З	-9.90888
▁Вывод	-9.90917
like	-9.90972
▁оптическ	-9.91071
▁редко	-9.91083
▁шизофренией	-9.9122
▁valve	-9.9122
▁imaging	-9.91222
▁occurrence	-9.91243
▁compute	-9.91261
▁аспекты	-9.91286
лен	-9.91299
▁обмена	-9.91323
▁диабетом	-9.91332
▁IgG	-9.9134
<0.05)	-9.91378
овой	-9.91442
▁радикальн	-9.91453
dependent	-9.91519
▁formed	-9.91536
▁стресса	-9.91557
▁neurons	-9.91596
▁needed	-9.91668
▁Метод	-9.91729
▁выбор	-9.91808
▁media	-9.91828
induced	-9.91858
▁летальность	-9.91935
▁62	-9.91966
▁социально	-9.92031
▁indices	-9.92039
▁доброкачественн	-9.92039
▁caries	-9.92044
сосудистой	-9.92063
▁нейронов	-9.92073
cy	-9.92099
▁family	-9.92139
▁cervical	-9.9217
▁нескольк	-9.92267
▁joint	-9.92311
▁hernia	-9.92312
▁gland	-9.92321
▁(20	-9.92397
чи	-9.92449
▁periods	-9.9245
▁phase	-9.92583
▁вегетативн	-9.92621
▁предложен	-9.92637
psychological	-9.92694
▁poor	-9.92742
▁эффекта	-9.92826
▁происходит	-9.92866
▁alternative	-9.92868
▁обсуждение	-9.92952
▁physiological	-9.9298
▁ДНК	-9.92986
▁высокий	-9.93002
▁зоны	-9.93019
▁set	-9.93068
▁РФ	-9.93094
▁(7	-9.931
▁soft	-9.93217
▁системе	-9.93224
том	-9.93236
▁Он	-9.93428
▁controls	-9.93506
ированных	-9.9352
▁survey	-9.93527
▁эффективным	-9.93615
▁основ	-9.93686
▁transplantation	-9.93712
▁молодых	-9.93734
▁reducing	-9.93802
<0,05).	-9.93809
▁подходов	-9.93822
▁посвященн	-9.93862
,5%)	-9.93896
▁h	-9.93897
▁hormone	-9.94046
tion	-9.94117
▁др	-9.94279
▁extra	-9.94325
associated	-9.94402
▁improves	-9.94427
▁рассматривается	-9.94556
▁черепа	-9.94577
▁autoimmune	-9.94611
▁root	-9.94658
ble	-9.94684
led	-9.94686
,6%)	-9.9478
▁факторами	-9.94795
▁reviews	-9.94868
▁ответа	-9.94904
▁всем	-9.94916
▁reveal	-9.94923
▁infectious	-9.94954
.3%	-9.94954
▁ИБС	-9.94973
sh	-9.95001
▁even	-9.95074
▁pharmacological	-9.95183
ция	-9.95208
▁(6	-9.95221
▁drainage	-9.95387
▁vitro	-9.95387
▁клетки	-9.95387
▁tooth	-9.95388
▁greater	-9.9543
▁основан	-9.95437
▁taken	-9.95461
▁неврологических	-9.95487
▁свойств	-9.95534
▁целом	-9.95607
первые	-9.95617
ex	-9.9565
▁example	-9.95691
▁polymorphism	-9.95693
ев	-9.95784
▁рост	-9.95806
▁di	-9.9583
IS	-9.95921
▁defect	-9.95931
▁эффективны	-9.95997
▁correct	-9.96061
▁деменции	-9.96241
▁позволит	-9.96241
▁возможностей	-9.96243
▁пере	-9.96244
▁baseline	-9.96245
▁still	-9.96247
▁пациенток	-9.9625
▁соответствующи	-9.96259
▁цитокинов	-9.96298
▁State	-9.96335
▁53	-9.9634
motor	-9.96354
▁autonomic	-9.96387
▁(19	-9.96398
▁заболеваниях	-9.96412
▁отдельных	-9.96433
▁варианты	-9.96492
▁рассеянн	-9.96492
▁рандомизированн	-9.9651
▁Mo	-9.96523
▁имеющих	-9.96591
ate	-9.96684
▁рецидива	-9.96708
▁прогноза	-9.96709
▁61	-9.96738
▁коронарн	-9.96779
▁72	-9.96803
▁IS	-9.96907
▁иммуно	-9.96959
III	-9.9704
ющейся	-9.97067
▁Department	-9.97104
▁новые	-9.97113
▁сравнительн	-9.97212
▁performance	-9.97254
▁фактором	-9.97254
▁underlyi	-9.97374
ист	-9.97419
левой	-9.97428
▁теста	-9.97431
▁EEG	-9.975
▁points	-9.97568
ции	-9.9773
▁приема	-9.97736
▁последующе	-9.97773
▁ишемическ	-9.97795
me	-9.97805
▁возможн	-9.97821
▁summarize	-9.97848
▁ультразвуков	-9.97914
▁1,	-9.97947
itis	-9.97969
▁проводилась	-9.97973
▁ниже	-9.9798
прогрессирования	-9.97994
▁достижения	-9.98024
▁introduction	-9.98037
▁получавших	-9.9809
ской	-9.98146
▁affective	-9.98176
▁курса	-9.98194
▁диабета	-9.98213
▁thoracic	-9.98226
▁infarction	-9.98247
▁определенн	-9.98265
▁мышечн	-9.98323
▁лазерн	-9.98344
▁вида	-9.98511
▁water	-9.98529
▁един	-9.98558
▁improv	-9.98573
ant	-9.98677
▁close	-9.98766
▁Institute	-9.9885
▁however	-9.98851
▁distal	-9.98853
▁последних	-9.9887
▁100%	-9.98922
▁профиля	-9.98925
▁впервые	-9.98969
.4%	-9.98986
▁testing	-9.99006
▁affected	-9.99165
ov	-9.99324
артериальной	-9.99332
▁access	-9.99342
▁против	-9.99359
ческим	-9.99392
▁ни	-9.99455
дифференциальной	-9.99469
▁shows	-9.99528
онной	-9.99684
▁1,5	-9.99711
▁atherosclerosis	-9.99735
▁внимания	-9.99735
▁два	-9.99741
▁формой	-9.99749
▁вопрос	-9.99751
▁оказания	-9.9976
▁больные	-9.99766
▁obstruction	-9.99777
70	-9.99796
▁specialists	-9.99841
▁сочетание	-9.99843
he	-9.99868
▁регуляции	-9.99877
сосудистых	-9.99895
▁investigated	-9.99951
em	-9.99977
▁DNA	-10.0006
.6%	-10.0016
га	-10.0024
▁behavioral	-10.0024
▁аппарата	-10.0041
▁implants	-10.0049
проанализированы	-10.0051
▁врача	-10.0053
вер	-10.0058
▁thickness	-10.0063
▁болезней	-10.0063
▁etc	-10.0065
▁2019	-10.0067
▁1)	-10.0068
▁симптомы	-10.0068
▁49	-10.0075
▁instrumental	-10.0078
▁опыта	-10.0089
▁психологическ	-10.0095
▁adult	-10.0098
медицинского	-10.0109
▁hypo	-10.012
▁анализе	-10.0141
▁57	-10.0147
▁comorbid	-10.0151
▁Special	-10.0153
▁проводилось	-10.0153
▁serious	-10.0153
▁новообразования	-10.0153
▁сопутствующи	-10.0153
▁Authors	-10.0156
▁привел	-10.0157
▁удаления	-10.0158
▁magnetic	-10.0159
▁точки	-10.016
▁работ	-10.0161
▁circulation	-10.0165
▁mechanical	-10.0169
▁выявить	-10.0174
▁47	-10.0174
▁cornea	-10.0176
un	-10.0177
ихся	-10.0179
▁экспертизы	-10.0181
▁внутренни	-10.0181
▁headache	-10.0188
▁vein	-10.019
оп	-10.0191
▁вещества	-10.0197
▁virus	-10.0214
▁болев	-10.0223
▁пациентами	-10.0227
▁includes	-10.023
э	-10.0238
▁insufficiency	-10.0244
▁Also	-10.0244
▁University	-10.0244
▁составляет	-10.0244
▁первичн	-10.0245
▁центральной	-10.0247
▁cellular	-10.0247
▁тип	-10.0247
пер	-10.0249
▁ассоциирован	-10.025
▁линии	-10.0251
▁проблем	-10.0255
▁фармакологическ	-10.0257
▁54	-10.0263
▁predictors	-10.0267
▁субъективн	-10.0267
▁graft	-10.0272
II	-10.0276
ек	-10.0276
sis	-10.0278
▁issue	-10.0281
▁frontal	-10.0291
▁4-	-10.0296
▁см	-10.0306
▁пол	-10.0308
▁differ	-10.0318
2%	-10.0318
▁highlight	-10.032
▁sex	-10.0322
▁ability	-10.0329
▁maximum	-10.0336
▁lymph	-10.0336
▁overall	-10.0337
▁исходов	-10.0341
,7%)	-10.035
▁имплантации	-10.0352
▁Отмечено	-10.0356
▁связано	-10.0359
▁аневризм	-10.036
ИИ	-10.0361
▁Bo	-10.0362
▁Данные	-10.0368
связанные	-10.0379
▁vitamin	-10.0391
▁быстро	-10.0392
▁computer	-10.0403
X	-10.0407
▁данном	-10.0417
.9%	-10.0419
▁simultaneous	-10.042
ism	-10.0428
▁Two	-10.0428
▁memory	-10.0428
▁речи	-10.0429
▁узлов	-10.043
▁ранни	-10.0434
▁оценку	-10.0437
▁больной	-10.0441
▁fatal	-10.0442
▁дыхательн	-10.0445
▁лабораторных	-10.0447
ста	-10.0451
▁bio	-10.0457
4)	-10.0458
▁ДИ	-10.0464
▁10-	-10.0467
▁часть	-10.0487
4-	-10.0493
▁infections	-10.0495
▁previous	-10.0509
во	-10.0515
▁natural	-10.0522
▁Moreover	-10.0522
▁позвоночника	-10.0522
▁endogenous	-10.0522
▁peculiarities	-10.0522
▁коры	-10.0522
▁встречаются	-10.0523
▁авторов	-10.0523
▁обусловленн	-10.0524
▁специалистов	-10.0524
CT	-10.0526
▁10%	-10.0529
▁обсуждаются	-10.0532
▁vision	-10.0535
▁клинически	-10.0545
▁болезнь	-10.0545
▁Ki	-10.0547
удовлетворительн	-10.0547
.5%)	-10.0549
▁гене	-10.0553
▁комбинаци	-10.0554
▁активн	-10.056
line	-10.0566
▁спектр	-10.0577
▁veins	-10.0578
-20	-10.0583
▁поражение	-10.0592
▁установлен	-10.0604
75	-10.0604
▁шкал	-10.0611
▁conservative	-10.0616
▁cytoflavin	-10.0616
▁replacement	-10.0616
▁spine	-10.0616
▁раннего	-10.0619
▁mucosa	-10.0621
▁fibroblasts	-10.0621
▁исследованиях	-10.0622
ig	-10.0631
▁neoplasms	-10.0639
▁прогностическ	-10.064
▁elements	-10.0645
▁origin	-10.0645
▁связан	-10.0646
▁воспалительных	-10.065
▁примере	-10.0654
▁suggested	-10.066
▁con	-10.0663
▁дальнейши	-10.0667
▁лечебно	-10.067
▁пациент	-10.0675
▁изменениями	-10.0683
▁establish	-10.0694
▁специфически	-10.0698
▁indicated	-10.0699
▁dis	-10.0702
▁Особо	-10.0706
▁зависит	-10.0711
▁immediate	-10.0711
▁distribution	-10.0711
▁76	-10.0711
▁marked	-10.0712
ения	-10.0712
▁prospective	-10.0719
most	-10.0721
operative	-10.0725
▁concentrations	-10.0726
▁дефекта	-10.0727
▁technical	-10.0728
▁важно	-10.0729
▁died	-10.073
▁independent	-10.0733
▁течением	-10.0734
▁fractures	-10.0738
передней	-10.0744
▁ЭЭГ	-10.0759
0,	-10.0769
имо	-10.0777
▁resulted	-10.0779
de	-10.0784
,3%)	-10.0785
60	-10.0796
▁cord	-10.0798
▁дыхания	-10.0807
▁obstructive	-10.0807
▁stem	-10.0807
▁transformation	-10.0808
▁длительности	-10.0809
▁выживаемость	-10.0812
▁biopsy	-10.0818
▁Alzheimer	-10.0819
▁характерны	-10.0821
▁treating	-10.0828
co	-10.083
28	-10.0833
▁коморбидн	-10.0843
▁игра	-10.0843
▁ле	-10.0846
▁difference	-10.085
▁al	-10.0866
▁котором	-10.0868
▁variant	-10.0873
делено	-10.0877
▁67	-10.088
▁clinically	-10.088
▁58	-10.0886
▁retrospective	-10.0892
▁preoperative	-10.0893
▁периферически	-10.09
▁наличия	-10.0904
▁кишечника	-10.0905
▁периферической	-10.0914
▁формировании	-10.0918
▁степенью	-10.0925
▁магнитно	-10.0936
▁ХОБЛ	-10.094
▁Выводы	-10.0941
▁VEGF	-10.0941
▁base	-10.095
ofacial	-10.0952
▁состав	-10.0955
▁амбулаторн	-10.0955
▁такие	-10.0959
▁past	-10.0962
▁hand	-10.0968
▁направленн	-10.0969
успешного	-10.0972
ду	-10.0974
▁гистологическ	-10.0988
▁rapid	-10.099
▁achieve	-10.0994
▁мягки	-10.1
▁значений	-10.1002
▁above	-10.1002
▁variability	-10.1002
▁remote	-10.1003
▁обратн	-10.1003
▁параметры	-10.1003
▁thus	-10.1003
▁subjective	-10.1003
▁тонк	-10.1004
▁пост	-10.1004
▁recorded	-10.1004
▁экспертиз	-10.1016
▁whole	-10.1018
▁mexidol	-10.1022
▁показания	-10.1029
ирования	-10.103
ray	-10.1041
▁одно	-10.1043
▁fistula	-10.1043
▁лица	-10.1043
▁повыси	-10.1049
чувствительности	-10.1054
ab	-10.1057
▁120	-10.1057
<0,05)	-10.106
7%	-10.1064
.7%)	-10.1067
▁механическ	-10.1068
▁contain	-10.1071
▁81	-10.1085
▁кишечн	-10.1085
▁явля	-10.1086
▁observations	-10.1097
▁проводим	-10.1098
▁reliable	-10.1101
▁оригинальн	-10.1101
▁With	-10.1102
▁persistent	-10.1102
▁отделов	-10.1103
▁когнитивные	-10.1112
▁лучев	-10.1117
▁эмоциональн	-10.1119
▁резекция	-10.1121
▁способ	-10.1121
▁До	-10.1124
▁вклад	-10.113
▁become	-10.114
медицинских	-10.1141
резонансн	-10.1143
▁мужчины	-10.1147
oma	-10.115
▁dynamic	-10.1154
▁эффективно	-10.1156
▁регресс	-10.1187
▁character	-10.1189
▁спинно	-10.119
▁fat	-10.1201
▁Surgical	-10.1201
▁tolerability	-10.1201
▁практики	-10.1202
▁stable	-10.1202
▁компонентов	-10.1205
▁увеличения	-10.1211
▁class	-10.1217
ск	-10.1217
сть	-10.1221
intracranial	-10.1222
▁внутренней	-10.1226
МС	-10.1227
min	-10.1228
atic	-10.1237
▁вмешательство	-10.1238
▁department	-10.1247
ology	-10.1249
AD	-10.125
▁нами	-10.125
▁группой	-10.1261
▁побочны	-10.1265
▁пазух	-10.1266
pro	-10.1267
▁chemical	-10.1271
▁require	-10.1279
▁experts	-10.1286
ение	-10.129
▁КТ	-10.1292
▁восстановление	-10.1301
▁neuroimaging	-10.1302
▁Одним	-10.1302
▁взаимодействия	-10.1302
▁технологии	-10.1302
▁diabetic	-10.1303
▁Postoperative	-10.1303
▁применению	-10.1303
▁интенсивности	-10.1305
▁другие	-10.1307
▁2013	-10.1307
▁specificity	-10.1309
▁glucose	-10.1311
▁назначения	-10.1315
▁production	-10.1318
▁критериям	-10.1319
▁defined	-10.1325
▁pituitary	-10.133
▁optic	-10.133
▁ways	-10.1342
▁marker	-10.135
specific	-10.1359
ability	-10.1379
▁receptor	-10.138
▁74	-10.1381
▁речев	-10.1387
▁психо	-10.139
▁длительность	-10.1393
▁Чере	-10.1394
▁later	-10.14
ба	-10.1404
цереброваскулярн	-10.1405
▁enamel	-10.1405
▁pancreatitis	-10.1405
▁клиническую	-10.1405
▁contribution	-10.1405
▁adaptation	-10.1406
▁существующи	-10.1406
▁correlated	-10.1407
▁сустава	-10.1408
▁летальн	-10.1414
▁социальной	-10.1415
▁статус	-10.1416
▁contrast	-10.1416
▁оказывает	-10.1416
▁обнаружено	-10.1419
4,	-10.1422
зависим	-10.1425
▁частоте	-10.1427
▁adrenal	-10.1434
ok	-10.144
▁последующим	-10.1447
▁point	-10.145
▁отмеча	-10.1451
▁б	-10.1451
▁recurrence	-10.1452
▁zone	-10.1453
osis	-10.1456
▁основным	-10.1469
патологического	-10.1477
ирование	-10.1478
di	-10.1488
мл	-10.1493
AS	-10.1494
личие	-10.1503
▁conduct	-10.1503
▁осуществля	-10.1504
▁Health	-10.1508
▁cataract	-10.1508
▁neck	-10.1508
▁динамику	-10.1508
▁guidelines	-10.1508
▁ремиссии	-10.1508
▁личности	-10.1508
▁скорости	-10.1508
▁mixed	-10.1508
▁target	-10.151
▁эпителия	-10.151
▁материалов	-10.1511
▁вариант	-10.1518
жа	-10.1526
18	-10.153
▁epileptic	-10.1531
▁АД	-10.1533
▁59	-10.1538
▁этапах	-10.1543
ви	-10.1544
функционирования	-10.1555
▁200	-10.1555
▁conclusion	-10.1557
▁проблема	-10.1557
ич	-10.1557
нии	-10.1558
▁морфологических	-10.1561
▁физически	-10.1566
▁вызванн	-10.1576
▁изучени	-10.1579
уд	-10.1581
сахарного	-10.1586
▁кислот	-10.1591
RS	-10.1592
▁take	-10.1603
▁желудочно	-10.1604
▁enrolled	-10.1612
▁extent	-10.1612
▁knowledge	-10.1612
▁взаимосвязи	-10.1612
▁госпитализации	-10.1612
▁Федерации	-10.1614
▁females	-10.1616
▁prospects	-10.1616
▁создания	-10.1618
▁Currently	-10.1618
▁реализации	-10.1619
▁наблюдали	-10.1621
ating	-10.1622
▁подготовки	-10.1622
▁66	-10.1629
stroke	-10.1639
▁MMSE	-10.1644
▁интерес	-10.1648
▁viral	-10.1654
▁vs	-10.1656
▁occur	-10.1662
▁epithelial	-10.1662
▁protocol	-10.1662
,8%)	-10.1669
▁внутри	-10.1675
▁reviewed	-10.1681
ик	-10.1686
.6%)	-10.1702
ad	-10.1703
▁опухоль	-10.1704
▁6-	-10.1709
▁2)	-10.1709
ющая	-10.1717
▁информации	-10.1717
▁проводить	-10.1717
▁полиморфн	-10.1717
▁oxidative	-10.1717
▁together	-10.1717
▁ENT	-10.1718
▁seen	-10.1719
▁лиш	-10.1723
▁comorbidity	-10.173
▁grade	-10.1731
▁миров	-10.1733
▁формами	-10.1734
▁склероза	-10.1735
▁optical	-10.1738
▁MMP	-10.1747
▁дифференциальн	-10.1748
тов	-10.1752
▁тяжелых	-10.1755
▁острых	-10.176
▁COPD	-10.1762
▁either	-10.1769
▁personal	-10.1776
▁68	-10.1779
▁раздел	-10.1779
▁canal	-10.1783
са	-10.1786
▁когнитивн	-10.1789
▁сегмента	-10.1794
бр	-10.1796
▁Отмечен	-10.1802
▁тяжел	-10.1813
▁collagen	-10.1815
еще	-10.1815
▁толст	-10.1823
▁immunity	-10.1823
▁обучения	-10.1824
▁synthesis	-10.1824
▁носов	-10.1824
▁черепно	-10.1824
▁Center	-10.1824
три	-10.1829
▁старши	-10.1832
▁intoxication	-10.1832
▁Pro	-10.1833
▁Neuro	-10.1842
ml	-10.1844
▁antidepressants	-10.1846
▁ex	-10.1853
traumatic	-10.1855
▁показало	-10.1857
▁medications	-10.1863
ctal	-10.1864
active	-10.1869
▁отдаленны	-10.187
▁инсульт	-10.1874
▁interaction	-10.1877
▁services	-10.1877
нных	-10.1883
.3%)	-10.1904
▁высоко	-10.1909
▁receptors	-10.1914
▁males	-10.1919
сп	-10.1921
▁практику	-10.1922
mortem	-10.1931
▁domestic	-10.1931
▁phenomenon	-10.1931
▁cohort	-10.1931
▁fibrosis	-10.1931
▁biochemical	-10.1931
▁tactics	-10.1931
▁недостаточно	-10.1931
▁сво	-10.1931
▁immunological	-10.1932
▁bacterial	-10.1932
▁конечности	-10.1933
▁механизм	-10.1933
▁встречается	-10.1933
▁дефектов	-10.1935
▁отмечается	-10.1935
▁костей	-10.1935
▁молодого	-10.1938
▁определены	-10.1938
▁atypical	-10.1938
▁иммунитета	-10.194
▁98	-10.1944
БП	-10.1954
▁radiation	-10.1955
▁situation	-10.1955
▁min	-10.1956
-9	-10.1958
▁Про	-10.1961
лицев	-10.1963
ting	-10.1967
▁substances	-10.1968
▁эндогенн	-10.1969
▁положительно	-10.197
24	-10.1985
▁злокачественных	-10.1989
▁тест	-10.1994
▁service	-10.1998
▁научно	-10.2008
кор	-10.2021
▁balance	-10.2022
▁реабилитационн	-10.2023
▁lateral	-10.2028
no	-10.2032
▁модель	-10.2038
▁vivo	-10.204
▁тканях	-10.204
▁рекомендаций	-10.204
▁предоперационн	-10.204
▁generalized	-10.2041
▁обзора	-10.2043
▁стресс	-10.2046
▁исследован	-10.2047
фи	-10.2048
▁inferior	-10.2051
▁изучены	-10.2051
▁back	-10.2055
▁matrix	-10.2057
▁способа	-10.2058
▁(95%	-10.2058
▁studying	-10.2058
▁частотой	-10.2069
логи	-10.207
мер	-10.2073
▁gastric	-10.2075
▁плазме	-10.2078
▁клиническими	-10.2079
▁des	-10.208
▁мал	-10.2081
▁мере	-10.2089
▁отмечены	-10.209
▁большинства	-10.2101
80	-10.2107
21	-10.2112
▁значительн	-10.2125
▁maintain	-10.2132
▁повышает	-10.2144
▁brief	-10.215
▁comparable	-10.215
▁emergency	-10.215
▁global	-10.215
▁proportion	-10.215
▁Оценить	-10.215
▁динамике	-10.215
▁informative	-10.215
▁planning	-10.215
▁летальности	-10.2153
▁strategies	-10.2153
▁prolonged	-10.2153
▁патологически	-10.2157
▁один	-10.2161
▁зуба	-10.2162
даже	-10.2165
-1,	-10.2165
▁синдромов	-10.2169
▁инсультом	-10.2171
IV	-10.2177
▁влияни	-10.2184
▁дня	-10.2193
▁влияющи	-10.2195
▁состава	-10.2197
▁использован	-10.22
▁four	-10.2213
▁группами	-10.2214
yl	-10.2232
▁достоверн	-10.2243
▁реальн	-10.2244
▁examine	-10.2246
▁poly	-10.2255
▁Among	-10.2261
▁woman	-10.2261
▁клиническая	-10.2261
▁tuberculosis	-10.2261
▁гипертензии	-10.2262
▁служит	-10.2263
▁тестов	-10.2274
▁тракта	-10.2274
▁ритма	-10.2289
▁cytokines	-10.229
▁локальн	-10.2297
▁genotype	-10.2305
▁эндотелиальн	-10.2307
ОН	-10.2312
▁активно	-10.2315
▁injections	-10.2318
ap	-10.2321
▁вены	-10.2328
44	-10.2342
▁включал	-10.2345
ated	-10.2347
▁своевременно	-10.2351
▁toxic	-10.2352
▁layer	-10.2361
▁хирургическом	-10.2361
▁full	-10.2367
▁ensure	-10.2371
▁Republic	-10.2373
▁встречаемости	-10.2373
▁decline	-10.2373
▁larynx	-10.2373
▁residual	-10.2373
ера	-10.2373
▁minutes	-10.2373
▁новообразований	-10.2373
▁country	-10.2373
▁secretion	-10.2374
▁памяти	-10.2374
▁sinuses	-10.2378
▁значимость	-10.2379
69	-10.2382
▁education	-10.2384
▁перспективы	-10.2386
▁сравнительный	-10.2387
-17	-10.2391
▁widely	-10.2393
5)	-10.2407
▁препаратом	-10.2408
▁Частот	-10.241
сут	-10.2411
▁reasons	-10.2411
▁deal	-10.2415
▁отечественной	-10.2417
▁судебной	-10.242
▁свойства	-10.2425
▁bones	-10.243
▁geriatric	-10.2431
▁question	-10.2432
▁occurs	-10.2432
▁ИЛ	-10.2434
овых	-10.2436
ост	-10.2437
27	-10.2442
▁рецепторов	-10.2445
ровень	-10.2455
▁преобладание	-10.2457
,2%)	-10.2461
▁органа	-10.2471
▁передне	-10.2473
▁AF	-10.2474
ist	-10.2474
▁2010	-10.2476
ox	-10.2476
▁latter	-10.2487
▁инвалидизации	-10.2487
▁очередь	-10.2487
▁профилактике	-10.249
▁обследованных	-10.2491
▁150	-10.2491
▁указанн	-10.2493
ация	-10.2498
▁доби	-10.2498
▁organism	-10.2499
▁hemorrhagic	-10.2503
чен	-10.2504
=1	-10.251
▁laryngeal	-10.2511
про	-10.252
2).	-10.2523
▁этапа	-10.2524
22	-10.2525
OS	-10.2526
▁вероятность	-10.2529
▁clinic	-10.2531
31	-10.2531
ide	-10.2537
▁выполнены	-10.2541
▁кон	-10.2543
▁fact	-10.2543
▁outpatient	-10.2547
▁doses	-10.255
ируются	-10.2554
▁дает	-10.2554
▁78	-10.2556
ющееся	-10.2562
▁economic	-10.2564
▁данными	-10.258
▁бы	-10.2586
учить	-10.2587
▁лазерной	-10.2589
▁зависимость	-10.2589
▁wounds	-10.259
▁slow	-10.2599
▁asthma	-10.26
▁purulent	-10.2602
▁Альцгеймера	-10.2602
▁urgent	-10.2602
▁framework	-10.2602
▁шеи	-10.2602
▁microscopy	-10.2602
▁few	-10.2602
▁нервов	-10.2604
▁должны	-10.2604
▁глаукомы	-10.2606
▁endo	-10.2606
▁2012	-10.2607
▁гемостаза	-10.2608
▁генетических	-10.2609
▁доли	-10.2611
▁новой	-10.2613
рон	-10.2616
▁учитывать	-10.2619
ung	-10.2619
ER	-10.2623
▁верхни	-10.2626
▁photo	-10.2628
▁compris	-10.2634
▁варианта	-10.2635
▁design	-10.2637
БА	-10.2637
▁технически	-10.2638
▁доступ	-10.264
lu	-10.2643
▁focus	-10.2648
▁операция	-10.265
▁cross	-10.2655
and	-10.266
cell	-10.2662
рез	-10.2662
▁84	-10.2662
▁минимально	-10.2671
▁дис	-10.2683
▁мембран	-10.2687
ге	-10.2688
.1%	-10.2691
▁79	-10.2697
▁нескольки	-10.2699
▁осложненн	-10.2707
q	-10.2714
▁Surgery	-10.2718
▁destruction	-10.2718
▁modified	-10.2718
▁resonance	-10.2718
▁сегодняшн	-10.2718
▁favorable	-10.2718
▁сочетания	-10.2718
▁carry	-10.2719
▁трудности	-10.2719
▁кровотечения	-10.272
▁define	-10.2722
▁registered	-10.2723
▁взаимосвязь	-10.2723
нию	-10.2729
14	-10.2732
▁previously	-10.2733
iv	-10.274
34	-10.2745
▁2020	-10.2747
▁score	-10.2748
▁сердечной	-10.2763
▁операционн	-10.2764
▁inhibitors	-10.2766
▁морфологические	-10.2776
ax	-10.2776
▁определени	-10.2777
▁почечн	-10.2784
ального	-10.2785
▁научной	-10.2787
об	-10.2788
▁заболеванием	-10.2788
▁cost	-10.2793
▁длин	-10.2795
▁специальн	-10.2799
▁выполняли	-10.2807
▁методике	-10.2811
▁эффекты	-10.2814
6)	-10.2816
99	-10.2817
мозгов	-10.282
therapeutic	-10.2822
▁(17	-10.2831
▁analyzes	-10.2832
▁освещен	-10.2834
▁vertigo	-10.2836
▁skull	-10.2836
▁childhood	-10.2836
▁Therefore	-10.2836
▁общ	-10.2841
▁pathologies	-10.2843
▁essential	-10.2845
▁стадиях	-10.285
▁оперированных	-10.2852
▁активации	-10.2854
▁отношения	-10.2855
con	-10.286
ton	-10.2862
kg	-10.2867
▁stent	-10.287
▁конкретн	-10.287
▁био	-10.2872
cl	-10.288
▁ocular	-10.288
ке	-10.2881
челюстно	-10.2884
▁relation	-10.2885
▁опросника	-10.2885
free	-10.289
▁яви	-10.2891
▁device	-10.2899
▁pattern	-10.29
▁parts	-10.2905
▁injection	-10.2908
▁mutation	-10.2914
акже	-10.292
▁progress	-10.2921
▁поли	-10.2931
▁уменьшени	-10.2935
ogenic	-10.2941
▁умеренн	-10.2942
▁гипофиза	-10.2943
▁neuron	-10.2949
▁Данн	-10.295
▁term	-10.2951
▁Results	-10.2955
▁herein	-10.2955
▁выживаемости	-10.2955
▁ходьбы	-10.2955
▁usual	-10.2955
▁national	-10.2955
▁selection	-10.2955
▁neuroprotective	-10.2956
▁полностью	-10.2956
▁обеспечения	-10.2956
▁образцов	-10.2957
▁administered	-10.2959
▁концепции	-10.2962
▁melatonin	-10.2962
▁Europe	-10.2965
▁pathogenic	-10.2966
▁insomnia	-10.2967
▁статьи	-10.2973
▁МКБ	-10.2981
▁около	-10.2984
gen	-10.2996
▁стационаре	-10.3003
▁making	-10.3005
tin	-10.3009
<0,01)	-10.3012
focal	-10.3013
▁предложенн	-10.3017
▁схем	-10.3017
▁rupture	-10.3019
8±	-10.3023
▁обои	-10.3029
▁курс	-10.3034
▁дефицит	-10.3045
▁проблемой	-10.3056
▁Эти	-10.3062
▁clear	-10.3062
▁эпидемиологи	-10.3064
▁(13	-10.3065
▁retina	-10.3071
▁повседневн	-10.3075
▁future	-10.3075
▁how	-10.3075
▁complaints	-10.3075
▁Лечение	-10.3075
▁critical	-10.3076
▁Mean	-10.3076
▁фибробластов	-10.3076
огда	-10.3076
▁фактор	-10.3076
▁начальн	-10.3076
▁улучшению	-10.3078
▁нормализаци	-10.3079
25	-10.3079
▁нового	-10.3081
rd	-10.3082
▁Больные	-10.3082
▁способов	-10.3084
▁различн	-10.3085
▁сосудистых	-10.3087
▁(9	-10.3092
▁мутации	-10.3095
▁technology	-10.3097
▁involv	-10.3097
,9%)	-10.3107
▁Th	-10.3108
АГ	-10.3116
▁корреляционн	-10.3117
AP	-10.312
per	-10.3123
▁83	-10.3132
▁форма	-10.3134
▁Прив	-10.3138
▁либо	-10.3147
▁правой	-10.3161
▁preparations	-10.3164
▁редкое	-10.3167
▁(14	-10.3169
rom	-10.3176
▁лекарственны	-10.3178
▁внедрени	-10.318
by	-10.3183
▁балла	-10.3185
▁диагностически	-10.3188
▁apoptosis	-10.3197
▁bowel	-10.3197
▁pandemic	-10.3197
▁dissection	-10.3197
▁continuous	-10.3198
▁pediatric	-10.3198
▁ЛОР	-10.3198
▁работников	-10.3198
▁показаний	-10.3199
▁vary	-10.3199
уже	-10.3204
▁differentiation	-10.3205
▁техники	-10.3209
form	-10.3222
▁госпитализ	-10.3222
▁inclusion	-10.3223
сосудистого	-10.3231
▁разработк	-10.3236
▁ото	-10.3237
-67	-10.3242
▁73	-10.3245
▁раны	-10.3249
▁физической	-10.3252
ши	-10.3257
from	-10.3263
▁ulcer	-10.3272
▁низким	-10.3285
ического	-10.3286
▁SP	-10.3304
▁гипо	-10.3305
фор	-10.3306
▁depends	-10.331
▁полов	-10.3319
▁нежелательны	-10.3319
▁трахеи	-10.332
▁satisfactory	-10.3321
▁Эффективность	-10.3321
▁hospitalization	-10.3323
▁тенденция	-10.3325
fer	-10.3325
▁воздействие	-10.3325
▁клетках	-10.3326
▁lymphoma	-10.3328
клеточн	-10.3328
▁ventricul	-10.3333
▁macula	-10.3333
▁базе	-10.3333
▁актуальной	-10.3334
левого	-10.3339
▁режиме	-10.3342
=2	-10.3342
▁pai	-10.3352
▁значимые	-10.3353
ник	-10.3362
▁appropriate	-10.3366
▁витамина	-10.3371
.2%)	-10.3375
▁ключев	-10.3377
100	-10.338
▁regional	-10.3385
ES	-10.3386
23	-10.3388
▁school	-10.3411
одятся	-10.3414
od	-10.3425
▁подробно	-10.344
▁З	-10.3443
▁epithelium	-10.3445
▁routine	-10.3445
▁головы	-10.3445
▁огнестрельн	-10.3445
▁turn	-10.3446
▁Analysis	-10.3446
▁choos	-10.3446
▁ишемией	-10.3446
▁compression	-10.3446
▁symptomatic	-10.3446
▁легкого	-10.345
▁произведен	-10.3452
▁пищевода	-10.3452
▁увеличению	-10.3452
ского	-10.3454
сс	-10.3456
▁atrial	-10.3461
▁прогнозировани	-10.3464
▁тревожно	-10.3464
▁cochlear	-10.3465
▁суб	-10.3475
▁интенсивн	-10.3483
старых	-10.35
▁посвященны	-10.3506
CA	-10.3507
▁исход	-10.351
▁составе	-10.352
-2,	-10.3525
▁последне	-10.3528
▁пред	-10.3528
▁максимально	-10.3534
▁меж	-10.3544
▁20%	-10.3548
▁best	-10.3551
▁environment	-10.3551
че	-10.3552
▁успешно	-10.3557
альная	-10.3567
▁отсутствии	-10.3572
▁diffuse	-10.3572
▁healing	-10.3572
▁provision	-10.3572
▁фиксации	-10.3572
▁variet	-10.3572
▁защиты	-10.3572
▁degeneration	-10.3572
▁selected	-10.3575
▁reflux	-10.3583
ilateral	-10.3584
▁500	-10.3586
▁infants	-10.359
ита	-10.3593
▁power	-10.3597
▁отечественных	-10.3597
▁urine	-10.3603
▁МС	-10.3604
▁связаны	-10.3613
▁Выполнен	-10.3615
▁Средни	-10.3616
▁induced	-10.3616
▁обобщен	-10.3616
▁зоне	-10.3617
▁правило	-10.3624
бо	-10.3624
▁образование	-10.3625
▁височной	-10.3628
▁25%	-10.3628
-5	-10.3629
▁nerves	-10.3631
▁density	-10.3638
▁portion	-10.3645
▁movement	-10.3645
▁decreases	-10.3657
8%	-10.3663
VI	-10.3665
nal	-10.3674
▁appear	-10.3683
▁морфо	-10.3684
▁ф	-10.3689
▁('	-10.3695
▁video	-10.3699
▁Present	-10.37
▁orthodontic	-10.37
▁policy	-10.37
двенадцатиперстн	-10.37
▁pylori	-10.37
▁deterioration	-10.37
▁stability	-10.37
▁specialized	-10.3703
▁Выделен	-10.3704
▁включает	-10.3709
▁вопросов	-10.3711
▁bi	-10.3715
ус	-10.3737
▁radio	-10.3747
▁показателя	-10.3753
▁bed	-10.3756
▁внутренне	-10.3759
▁auto	-10.376
тра	-10.3763
▁сравнение	-10.3767
3)	-10.3768
month	-10.3777
кг	-10.3788
▁organic	-10.3788
при	-10.3788
▁недостаточность	-10.379
▁St	-10.3791
49	-10.3791
▁характеристика	-10.3799
▁постановк	-10.3799
▁Автор	-10.38
мин	-10.3807
▁man	-10.3808
▁раствора	-10.3813
▁дан	-10.3818
▁удаление	-10.382
59	-10.382
▁metastases	-10.383
▁головокружения	-10.383
▁переносимости	-10.383
▁сопутствующе	-10.383
▁пребывания	-10.383
▁extensive	-10.383
▁series	-10.383
▁reconstructive	-10.3831
▁appearance	-10.3831
▁странах	-10.3832
▁responsibl	-10.3834
▁наблюдалось	-10.3834
▁макулярн	-10.3839
▁repeated	-10.3839
▁cardio	-10.384
▁states	-10.3841
▁скорость	-10.3845
▁Использовали	-10.3848
▁рецидив	-10.385
▁врожденной	-10.3852
▁общи	-10.3853
▁обнаружены	-10.3854
▁87	-10.3856
скольк	-10.3861
▁prosthetic	-10.3863
CC	-10.3864
▁сонных	-10.3866
▁активностью	-10.3871
▁видео	-10.3876
▁Основным	-10.3879
▁выполнение	-10.3881
▁изучи	-10.3882
▁pharmacotherapy	-10.3891
▁АГ	-10.3902
VEGF	-10.3908
▁оценк	-10.3911
▁условия	-10.3913
ической	-10.393
SD	-10.3945
▁create	-10.3949
▁обеспечивает	-10.3952
▁public	-10.3959
▁сопряжен	-10.3961
▁emphasis	-10.3962
▁tendency	-10.3962
▁эмали	-10.3962
▁duodenal	-10.3962
▁введение	-10.3962
▁мкм	-10.3962
io	-10.3962
▁earlier	-10.3963
▁пострадавших	-10.3963
▁временн	-10.3964
▁основания	-10.3965
▁почки	-10.3965
▁признаками	-10.3966
▁анестезии	-10.397
▁склерозом	-10.3971
▁86	-10.3972
plastic	-10.3974
▁tri	-10.3978
▁environmental	-10.3984
▁inhibitor	-10.3987
▁механизмах	-10.3987
▁acoustic	-10.3988
▁пери	-10.3992
▁necrosis	-10.3993
▁проявлениями	-10.3995
▁выявленны	-10.3996
▁80%	-10.4004
▁impairments	-10.4004
▁cysts	-10.4007
log	-10.4009
.9%)	-10.4011
▁мер	-10.4014
▁Под	-10.4016
▁потенциально	-10.4019
кин	-10.402
▁канала	-10.4025
ors	-10.4037
▁connection	-10.404
▁разработа	-10.4041
▁cycle	-10.4042
ag	-10.4044
▁treat	-10.4049
▁кист	-10.4051
▁уменьши	-10.4058
ием	-10.406
больших	-10.4064
▁ди	-10.4067
.8%)	-10.4076
43	-10.4086
▁edema	-10.409
▁oxygen	-10.4092
▁meta	-10.4095
▁serotonin	-10.4095
▁патология	-10.4095
▁последствий	-10.4095
▁exposure	-10.4095
▁идентификации	-10.4095
▁f	-10.4095
▁intraocular	-10.4095
▁extraction	-10.4097
▁calculated	-10.4097
▁basal	-10.4098
▁participants	-10.4099
▁желез	-10.4099
▁topical	-10.4106
▁стратегии	-10.411
▁epidemiological	-10.4112
▁Клинически	-10.4115
▁1000	-10.4116
▁Выявление	-10.4117
▁options	-10.4123
▁среды	-10.4124
▁эффективной	-10.4137
▁PANSS	-10.4147
▁By	-10.4149
▁система	-10.4155
35	-10.4157
ель	-10.417
▁69	-10.4171
▁jaw	-10.4175
tracheal	-10.4176
▁изложен	-10.4179
▁комплексно	-10.4188
▁space	-10.4188
ather	-10.4194
уч	-10.4202
74	-10.4207
▁разработанн	-10.4211
▁elucidate	-10.4218
▁socio	-10.4219
▁оперативных	-10.4226
▁week	-10.4228
▁стационара	-10.423
▁Cognitive	-10.423
▁species	-10.423
▁Подчеркивается	-10.423
▁клиническом	-10.423
▁когерентн	-10.423
▁нагрузки	-10.423
▁ситуации	-10.423
▁старении	-10.423
▁тугоухости	-10.423
▁клинике	-10.423
▁proliferation	-10.4232
▁оптимизации	-10.4233
▁every	-10.4233
▁accuracy	-10.4234
1</	-10.4235
▁клиническим	-10.4236
▁увеличивается	-10.4237
кишечного	-10.4237
AT	-10.4239
▁7-	-10.4242
▁наступления	-10.4243
▁diameter	-10.4244
▁визуализации	-10.4244
▁Послеоперационн	-10.4246
▁боль	-10.4247
▁российск	-10.4247
▁TM	-10.4249
▁biomarkers	-10.425
▁способствова	-10.4252
methyl	-10.4254
▁saliva	-10.4256
▁poisoning	-10.426
▁promote	-10.4261
▁stenting	-10.4263
▁intensive	-10.4263
▁корреляци	-10.4265
▁serve	-10.4269
▁каждой	-10.4273
CS	-10.4273
▁lymphocytes	-10.4286
SS	-10.4303
▁результатами	-10.432
▁ко	-10.4321
▁protective	-10.4323
▁пор	-10.4326
▁v	-10.4337
▁correspond	-10.4338
clonal	-10.4367
▁очень	-10.4367
▁abnormalities	-10.4367
▁accumulation	-10.4367
▁Исследовали	-10.4368
▁адаптации	-10.4368
▁tube	-10.4368
▁disadvantages	-10.4369
▁наше	-10.4369
▁широк	-10.4373
PS	-10.4374
▁arch	-10.4375
▁цифров	-10.4375
▁проживающих	-10.4375
▁revasculariz	-10.4378
▁subjected	-10.438
▁мульти	-10.4381
▁депрессивн	-10.4382
▁agent	-10.4395
шей	-10.4399
▁он	-10.4402
▁высокого	-10.4405
▁hepatic	-10.4405
▁эндопротез	-10.4406
▁диффузн	-10.4406
▁acids	-10.4408
ut	-10.4415
01	-10.4429
,4%)	-10.4446
BA	-10.4448
посттравматическ	-10.4449
▁18-	-10.445
▁рекомендован	-10.4452
▁direction	-10.4456
▁(1-	-10.4463
02	-10.4466
fold	-10.4475
▁свое	-10.4479
тической	-10.4482
▁задач	-10.4484
stage	-10.4492
▁эпилептически	-10.4494
▁люб	-10.4495
▁особ	-10.4499
▁context	-10.4501
▁acuity	-10.4506
▁chromatography	-10.4506
▁iodine	-10.4506
▁receiving	-10.4506
▁депрессией	-10.4506
▁мигрени	-10.4506
▁установить	-10.4506
▁дополнительно	-10.4506
▁fixed	-10.4506
▁случаи	-10.4506
▁микроскопии	-10.4506
▁monotherapy	-10.4507
▁тревожности	-10.4507
▁optimize	-10.4508
▁повышению	-10.4512
▁эндотелия	-10.4516
▁гормона	-10.4518
▁created	-10.4519
▁РА	-10.4526
▁медикаментозн	-10.4537
CI	-10.4538
▁мозге	-10.454
▁77	-10.4545
▁250	-10.4556
.4%)	-10.4565
▁сред	-10.4565
▁psychotic	-10.4569
ding	-10.457
▁вестибулярной	-10.4573
▁разработан	-10.4579
▁correlations	-10.458
▁рт	-10.4582
90	-10.4584
бл	-10.4587
-19.	-10.4589
0.0	-10.4592
▁exercise	-10.4592
▁detect	-10.4599
▁вызывает	-10.4601
na	-10.4602
▁median	-10.4604
stay	-10.4604
SC	-10.4613
32	-10.4615
▁vi	-10.4616
▁Ц	-10.4625
▁ведущи	-10.4632
▁way	-10.4634
time	-10.4634
▁предварительн	-10.4634
▁тяжесть	-10.4635
FA	-10.4638
▁strength	-10.4646
ты	-10.4646
▁Wistar	-10.4647
▁least	-10.4647
▁located	-10.4647
▁strong	-10.4647
▁Диагноз	-10.4647
▁final	-10.4647
▁connective	-10.4647
▁фармакотерапии	-10.4647
▁participation	-10.4648
▁psychometric	-10.4648
▁перенесенн	-10.4649
▁модифицированн	-10.4649
▁normalization	-10.4651
▁баллов	-10.4651
▁зарубежных	-10.4654
▁us	-10.4657
▁недостатки	-10.4658
▁значимости	-10.4658
▁болью	-10.466
▁реконструкции	-10.466
▁boys	-10.4662
low	-10.4666
▁аспекте	-10.4669
▁endocrine	-10.467
▁tool	-10.467
▁affects	-10.467
▁улучшает	-10.4674
▁products	-10.4675
IL	-10.4679
▁sensory	-10.468
▁схемы	-10.4683
EM	-10.4689
▁electron	-10.469
▁дифференцирован	-10.4694
oplasty	-10.4701
ach	-10.4703
▁стран	-10.4704
ведении	-10.4718
▁генеза	-10.4724
▁стимуляции	-10.4726
EP	-10.4726
▁car	-10.4729
▁средним	-10.4733
▁interval	-10.4735
▁relapse	-10.4735
ll	-10.4738
▁пример	-10.4744
▁подобн	-10.4753
spinal	-10.4755
▁proliferati	-10.4755
▁множественн	-10.4756
▁(18	-10.4759
▁accord	-10.4761
▁95	-10.4765
ант	-10.4766
▁полиморфизма	-10.477
▁five	-10.4773
тест	-10.4773
end	-10.4776
▁regular	-10.4776
▁contact	-10.4778
▁Так	-10.4781
▁генерализованн	-10.4781
▁показателям	-10.4786
▁enhance	-10.4789
▁Thirty	-10.479
▁capacity	-10.479
▁dizziness	-10.479
▁fixation	-10.479
▁widespread	-10.479
▁верхнечелюстн	-10.479
▁избыточн	-10.479
▁инвалидности	-10.479
▁психиатрии	-10.479
▁классификация	-10.479
▁картина	-10.479
▁каротидн	-10.479
ence	-10.479
▁поиска	-10.479
▁обострений	-10.4793
ological	-10.4795
▁systematic	-10.4796
▁Us	-10.4797
▁cortexin	-10.4797
-36	-10.4798
▁инсулина	-10.4802
▁стволовых	-10.4804
▁плазмы	-10.4805
disciplinary	-10.4806
▁физиологическ	-10.4807
▁диабетической	-10.4809
▁compliance	-10.481
▁анамнезе	-10.4811
▁опубликованны	-10.4815
ОР	-10.4816
▁кариеса	-10.4817
жит	-10.4821
▁направлен	-10.4826
▁ФП	-10.4827
▁liquid	-10.4829
▁doctors	-10.483
▁когда	-10.4833
▁acquire	-10.4834
▁regimens	-10.4834
▁нервн	-10.4842
ium	-10.4843
▁работа	-10.4844
om	-10.485
▁ЧМТ	-10.4853
logy	-10.4856
ev	-10.4857
▁терапевтических	-10.4862
ком	-10.4863
▁моно	-10.4873
воспалительных	-10.4874
рин	-10.4874
▁основном	-10.4878
▁Оценивали	-10.4878
▁trend	-10.488
▁enzyme	-10.4883
▁vertebral	-10.4883
▁представляют	-10.4886
▁стационар	-10.4894
▁наблюдениях	-10.49
▁71	-10.4902
▁ортодонтическ	-10.4907
▁первых	-10.4915
▁CP	-10.4916
▁прав	-10.4917
▁пародонта	-10.4923
▁12-	-10.4927
▁получени	-10.4927
▁82	-10.4928
▁слуховой	-10.4928
ak	-10.493
▁применяли	-10.4934
▁hybrid	-10.4934
▁Hospital	-10.4935
▁Подробно	-10.4935
▁себя	-10.4935
▁условий	-10.4935
▁absent	-10.4935
▁chemotherapy	-10.4935
▁percentage	-10.4935
▁placebo	-10.4935
ад	-10.4937
▁элементов	-10.4937
▁мутаций	-10.4938
▁employed	-10.4938
ful	-10.4938
▁visualization	-10.4939
▁протезов	-10.4941
▁extract	-10.4942
▁должн	-10.4942
▁introduced	-10.4943
▁хорошо	-10.4945
▁limited	-10.4947
▁полу	-10.4949
▁длительностью	-10.4953
▁следующие	-10.4954
▁доля	-10.4954
▁(16	-10.4962
▁adaptive	-10.4964
97	-10.4966
▁(30	-10.4969
▁ретроспективны	-10.497
▁ages	-10.4975
ата	-10.4979
▁differentiated	-10.498
▁следствие	-10.4988
▁международн	-10.5007
bo	-10.501
▁возникающи	-10.5011
▁очага	-10.5023
виду	-10.5024
▁нейропсихологи	-10.5028
▁ICD	-10.503
▁ли	-10.5033
▁duct	-10.5035
▁орган	-10.5037
▁RA	-10.5037
67	-10.504
большое	-10.5043
▁cortical	-10.5049
7)	-10.5059
▁алгоритма	-10.5061
84	-10.5065
фе	-10.5072
▁pneumonia	-10.5074
▁concepts	-10.508
▁intravenous	-10.5081
▁восстановительн	-10.5081
▁birth	-10.5082
▁sensori	-10.5082
▁ожирения	-10.5082
▁тканев	-10.5082
▁явлений	-10.5082
▁elevated	-10.5082
▁трансплантации	-10.5082
▁supra	-10.5082
▁carbohydrate	-10.5082
▁оценен	-10.5082
▁периоперационн	-10.5083
▁алкоголя	-10.5083
▁Sever	-10.5083
▁гибридн	-10.5083
▁artificial	-10.5084
▁students	-10.5087
цит	-10.509
▁intact	-10.5091
▁отделения	-10.5092
OD	-10.5096
static	-10.5101
▁типу	-10.5103
▁социального	-10.5104
▁контролем	-10.5104
▁особенностями	-10.5105
▁oto	-10.511
▁патогенез	-10.5118
▁Сан	-10.512
▁объективн	-10.5125
▁способы	-10.5127
▁generation	-10.513
▁представлено	-10.5135
ge	-10.5144
▁класса	-10.515
▁date	-10.5152
▁risks	-10.5156
▁CA	-10.5158
▁другой	-10.5158
▁друг	-10.5159
▁возрасту	-10.5172
▁task	-10.5177
▁symptom	-10.5183
▁reach	-10.5185
▁colore	-10.5186
ED	-10.5193
▁гормональн	-10.5194
▁желчн	-10.5194
▁medication	-10.5206
05	-10.5207
▁имеющие	-10.5208
▁снижает	-10.5223
2/	-10.5223
▁Centr	-10.5223
RT	-10.5223
emia	-10.5224
системного	-10.5227
оль	-10.5229
▁Significant	-10.5231
▁equal	-10.5231
▁half	-10.5231
▁historical	-10.5231
▁голосов	-10.5231
▁диагностику	-10.5231
▁плацебо	-10.5231
▁Контрольн	-10.5231
▁удалось	-10.5231
▁sodium	-10.5231
▁трупов	-10.5232
▁diet	-10.5232
▁второй	-10.5232
▁anastomosis	-10.5233
▁deaths	-10.5235
▁пожилом	-10.5235
▁pregnant	-10.5241
▁Работ	-10.5241
▁cerebrolysin	-10.5244
ед	-10.5249
▁angiography	-10.5249
SI	-10.525
41	-10.5251
▁собственно	-10.5253
▁face	-10.5256
▁victims	-10.5257
-6,	-10.5257
ул	-10.5261
apillary	-10.5262
▁суточн	-10.5263
▁air	-10.5265
▁adenomas	-10.5272
пол	-10.5274
▁этап	-10.5275
▁алкогольной	-10.5275
▁asthenic	-10.5276
▁клапана	-10.5293
▁version	-10.53
▁правого	-10.5301
infected	-10.5302
▁практическ	-10.5309
▁93	-10.5316
пор	-10.5317
▁патоморфологи	-10.5321
▁person	-10.5324
▁начина	-10.533
cal	-10.5331
▁диабет	-10.5336
дегенеративных	-10.5337
▁threshold	-10.5345
▁тяжелым	-10.5359
NS	-10.5366
▁Ре	-10.5372
peritoneal	-10.5382
▁применен	-10.5382
▁Three	-10.5382
▁extremities	-10.5382
▁fundamental	-10.5382
▁permanent	-10.5382
▁всегда	-10.5382
▁особенностях	-10.5382
▁показатель	-10.5382
▁probability	-10.5383
▁антибактериальн	-10.5383
▁coherence	-10.5383
▁окклюзии	-10.5383
▁cholesterol	-10.5383
▁Обзор	-10.5383
<0.001)	-10.5383
▁томография	-10.5383
▁находились	-10.5384
▁000	-10.5385
▁сложности	-10.5385
▁platelet	-10.5385
▁естественн	-10.5386
▁documented	-10.5387
0)	-10.5387
▁коморбидности	-10.5387
port	-10.5387
▁la	-10.5388
▁workers	-10.5388
▁useful	-10.5388
МП	-10.5389
▁размеров	-10.539
▁avoid	-10.539
▁определяется	-10.5392
▁temperature	-10.5393
▁стандартной	-10.5394
▁specimens	-10.5395
09	-10.5398
▁educational	-10.5403
▁destructive	-10.5405
▁АТ	-10.5408
=30)	-10.5412
▁компонента	-10.5413
▁зате	-10.5415
▁completely	-10.5418
▁длительного	-10.5421
ities	-10.5425
▁objects	-10.543
=4	-10.5434
▁surgeons	-10.5437
▁мониторинга	-10.544
logical	-10.5441
▁regarded	-10.5444
▁фаз	-10.5461
ических	-10.5469
eal	-10.5472
▁сочета	-10.5473
▁polymorphisms	-10.5481
▁hormones	-10.5483
ight	-10.5491
▁ассоциированных	-10.5497
▁жалоб	-10.5502
средством	-10.5504
▁интра	-10.5509
▁шкала	-10.551
79	-10.5511
пре	-10.5512
positive	-10.5513
▁paranas	-10.5517
▁атеросклеро	-10.552
▁resistant	-10.5525
▁геморрагическ	-10.553
тических	-10.5533
▁always	-10.5536
▁астении	-10.5536
▁ротовой	-10.5536
▁проксимальн	-10.5536
▁evoke	-10.5536
▁perforation	-10.5538
▁подтвержден	-10.5539
▁addiction	-10.5541
▁проспективно	-10.5547
▁прием	-10.5549
▁retro	-10.555
▁метаболизма	-10.5551
▁легкой	-10.5552
▁настоящем	-10.5553
▁нормы	-10.5554
▁соответству	-10.5555
▁над	-10.5558
▁мелатонина	-10.5562
▁нет	-10.5565
▁(25	-10.5566
therapy	-10.557
▁основную	-10.5576
39	-10.5581
альный	-10.5587
▁trends	-10.5595
▁острот	-10.5596
▁находящ	-10.56
▁позиции	-10.5607
86	-10.5609
▁separate	-10.5609
▁нейропротективн	-10.5617
▁enhanced	-10.5629
▁фармако	-10.563
▁processing	-10.5636
classical	-10.5639
▁glands	-10.564
▁Разработан	-10.5647
▁дальнейшем	-10.5653
▁д	-10.5655
▁ауто	-10.5663
▁find	-10.5663
▁shape	-10.5663
invasive	-10.5663
▁тромбоза	-10.5667
▁размер	-10.567
ика	-10.5671
▁рас	-10.5675
PI	-10.5676
▁atherosclerotic	-10.5693
▁breast	-10.5693
▁verified	-10.5693
▁спонтанн	-10.5693
▁hypothyroidism	-10.5693
▁distance	-10.5693
пуст	-10.5693
▁preliminary	-10.5693
▁контрольную	-10.5693
▁amplitude	-10.5694
вен	-10.5695
▁относятся	-10.5695
▁лимфатически	-10.5699
ПС	-10.5703
▁отделении	-10.5703
▁actual	-10.5704
▁службы	-10.5707
▁атеросклероза	-10.5708
▁aggressive	-10.5713
▁стеноза	-10.5716
▁двигательных	-10.5718
▁трудоспособн	-10.572
▁Be	-10.572
▁потенциала	-10.5723
▁88	-10.5726
▁именно	-10.573
man	-10.574
▁grafting	-10.5742
со	-10.5745
▁УЗИ	-10.5748
▁Получен	-10.5751
microcirculation	-10.5753
mucous	-10.5755
den	-10.5759
▁травм	-10.5766
вших	-10.577
▁адекватн	-10.5771
▁анастомоза	-10.5773
▁90%	-10.5774
▁disc	-10.5788
▁правильн	-10.579
till	-10.5791
▁degenerative	-10.5792
дер	-10.5794
▁chain	-10.5796
▁инфаркт	-10.5805
▁форме	-10.581
▁aspect	-10.581
RA	-10.5814
цию	-10.5816
▁прогностически	-10.5825
▁мало	-10.5826
abdominal	-10.5827
лучить	-10.5827
IgG	-10.5828
▁represent	-10.5831
▁relationships	-10.5838
▁определяет	-10.5845
▁доказательн	-10.5848
▁одна	-10.5851
▁When	-10.5851
▁heterogeneity	-10.5851
▁matter	-10.5851
▁qualitative	-10.5851
▁scanning	-10.5851
▁suicide	-10.5851
▁unfavorable	-10.5851
▁Групп	-10.5851
▁location	-10.5851
▁умерших	-10.5851
▁beginning	-10.5851
▁decompression	-10.5852
▁stomach	-10.5852
▁предположить	-10.5852
▁Minist	-10.5852
▁обследовании	-10.5852
▁способности	-10.5853
▁липидного	-10.5853
DA	-10.5854
▁hygiene	-10.5854
▁опухолями	-10.5855
▁discussion	-10.5855
▁hormonal	-10.5856
▁задней	-10.5857
чувствительность	-10.5858
▁где	-10.5861
▁принципы	-10.5862
▁расстройство	-10.5863
▁потенциальн	-10.5866
▁представляется	-10.5873
▁regulatory	-10.5875
▁курсов	-10.5875
▁allergic	-10.5876
▁вестибулярн	-10.5877
▁этапы	-10.5883
▁energy	-10.5884
екс	-10.5885
▁corpses	-10.5891
▁encephalopathy	-10.5892
кол	-10.5896
▁Of	-10.5902
▁experiments	-10.5902
▁force	-10.5903
▁первично	-10.5904
▁момента	-10.5907
▁структуру	-10.5909
side	-10.591
morphological	-10.5916
▁интервал	-10.5921
▁позволяющи	-10.5923
▁действием	-10.5924
▁назначен	-10.5924
▁тщательн	-10.5927
PA	-10.5937
бра	-10.5941
▁diagnose	-10.5944
▁reason	-10.5956
▁substance	-10.5958
▁cyst	-10.5962
▁views	-10.5962
ron	-10.5971
▁91	-10.5977
▁mineral	-10.5977
grade	-10.5992
including	-10.5992
▁сократи	-10.5995
▁lens	-10.601
▁нужда	-10.6011
▁Further	-10.6013
▁тверд	-10.6013
▁closure	-10.6013
▁fibrillation	-10.6013
▁overview	-10.6013
▁primarily	-10.6013
▁smoking	-10.6013
▁voice	-10.6013
▁volunteers	-10.6013
▁катаракты	-10.6013
▁обструктивн	-10.6013
▁отсутствия	-10.6013
▁тактика	-10.6013
29	-10.6013
▁elimination	-10.6013
▁глюкозы	-10.6013
▁integrated	-10.6013
▁gait	-10.6013
▁снижении	-10.6014
▁itself	-10.6014
▁распределения	-10.6014
hereditary	-10.6014
▁rise	-10.6015
must	-10.6015
▁отмечалось	-10.6015
▁гормонов	-10.6015
▁симптомами	-10.6018
▁89	-10.6018
▁psychiatry	-10.602
▁составляют	-10.602
▁Such	-10.6022
CP	-10.6023
▁функционально	-10.6023
▁проведены	-10.6027
AR	-10.6028
ST	-10.6035
▁истории	-10.6038
▁показана	-10.604
▁уменьшения	-10.6042
▁инструментальн	-10.6043
▁ХСН	-10.6048
▁fragments	-10.6053
▁WHO	-10.6054
▁вне	-10.6056
▁транс	-10.6059
▁систему	-10.6065
▁иммунной	-10.6065
ember	-10.6076
▁обнаружен	-10.6078
▁независимо	-10.608
▁94	-10.6084
▁tone	-10.6084
▁hospitals	-10.6087
▁редки	-10.6093
▁лимфоцитов	-10.61
▁разные	-10.6111
СТ	-10.6111
▁load	-10.6114
▁она	-10.6114
▁simple	-10.6117
▁opinion	-10.612
▁hernias	-10.6121
▁exacerbation	-10.6122
-18	-10.6123
ular	-10.6135
▁наблюдением	-10.6151
type	-10.6153
▁receive	-10.6164
▁патогенетическ	-10.6165
▁2000	-10.6169
▁dopamine	-10.6174
orensic	-10.6175
▁epidemiology	-10.6177
▁prosthesis	-10.6177
▁Препарат	-10.6177
▁липидов	-10.6177
▁околоносовы	-10.6177
▁серотонина	-10.6177
▁Region	-10.6177
▁interleukin	-10.6177
▁proximal	-10.6177
▁polymorphic	-10.6177
▁mathematical	-10.6177
▁regeneration	-10.6178
▁periodontitis	-10.6178
▁transition	-10.6178
▁обсуждается	-10.6178
▁зарегистрирован	-10.6181
▁авторами	-10.6183
▁ассоциации	-10.6183
▁analytical	-10.6185
56	-10.6185
▁авторы	-10.6188
▁delayed	-10.6189
▁esophageal	-10.6189
▁explore	-10.6191
▁контроль	-10.6192
▁drawn	-10.6197
47	-10.62
▁PubMed	-10.62
dominance	-10.6203
▁legal	-10.6205
▁nodes	-10.621
ПП	-10.621
▁enable	-10.6212
▁peptide	-10.6214
▁первую	-10.6223
бласт	-10.6226
▁коллагена	-10.6226
▁stay	-10.6227
▁зон	-10.6228
▁exacerbations	-10.6232
▁стабильн	-10.6235
▁возрастные	-10.6238
ted	-10.6239
▁pseudo	-10.6239
▁enzymes	-10.624
▁directions	-10.6242
▁расчет	-10.6244
ально	-10.6248
▁своевременн	-10.6254
ено	-10.6259
▁ассоциированн	-10.6261
▁замен	-10.6263
sided	-10.6264
▁ингибитор	-10.6264
▁сопоставимы	-10.627
▁controlled	-10.6276
▁decision	-10.6287
▁hemodynamic	-10.6288
▁indicator	-10.6289
▁язв	-10.6298
▁проанализирован	-10.6299
▁1.5	-10.6306
▁артериального	-10.6311
▁(22	-10.6311
функциональн	-10.6319
кой	-10.6325
social	-10.6328
▁разрыв	-10.6332
istic	-10.6332
▁приводящи	-10.6334
▁me	-10.6335
▁plan	-10.6339
▁много	-10.634
▁fast	-10.6341
▁shift	-10.6343
▁surgeries	-10.6343
▁инфекций	-10.6343
▁микроциркуляции	-10.6343
▁публикации	-10.6343
▁функцию	-10.6343
▁imbalance	-10.6343
▁связей	-10.6343
▁тромбоцитов	-10.6343
▁плотности	-10.6343
▁hemostasis	-10.6343
антидепрессантов	-10.6344
▁оказались	-10.6345
▁экспертов	-10.6345
ний	-10.6347
▁accurate	-10.6348
▁expressed	-10.6349
▁predominantly	-10.6351
▁протеза	-10.6351
▁prescribed	-10.6351
▁he	-10.6352
▁положения	-10.6354
▁внедрение	-10.6355
▁моделей	-10.6357
▁Micro	-10.636
AI	-10.636
▁эффективного	-10.6364
▁когнитивными	-10.6367
▁скрининга	-10.6368
▁расширени	-10.6372
▁focused	-10.6372
▁первом	-10.6373
▁суицидальн	-10.6376
▁changed	-10.6376
▁государственн	-10.6379
▁способом	-10.6379
▁норме	-10.6382
▁sources	-10.6384
▁tolerance	-10.6386
▁корреляции	-10.6386
▁(11	-10.6389
▁selective	-10.6396
целесообразность	-10.6396
▁131	-10.6401
▁110	-10.6401
▁постоянн	-10.6413
▁вопроса	-10.6416
LA	-10.6419
альных	-10.6425
▁само	-10.6426
недостаточностью	-10.6427
▁глубоки	-10.6428
▁30%	-10.6438
▁Du	-10.6438
▁measurement	-10.6458
▁резистентности	-10.646
BS	-10.6467
▁целесообразно	-10.6473
neural	-10.6474
3,	-10.6478
иков	-10.6483
▁способствовал	-10.6486
фа	-10.6489
▁unit	-10.6494
ric	-10.6498
esophageal	-10.65
dynamic	-10.65
▁electrical	-10.6506
▁vessel	-10.6511
▁Depression	-10.6513
▁category	-10.6513
▁community	-10.6513
▁сделан	-10.6513
▁expectancy	-10.6513
▁cholesteatoma	-10.6513
▁consciousness	-10.6513
▁hard	-10.6513
▁репродуктивн	-10.6515
vocal	-10.6516
▁admitt	-10.6518
▁atrophy	-10.6519
▁asthenia	-10.6521
▁Введение	-10.6522
▁обусловлено	-10.6522
▁extended	-10.6525
чь	-10.6525
▁Наблюдали	-10.6526
▁estimation	-10.6528
▁молочной	-10.6529
▁radiological	-10.653
▁girls	-10.6533
▁уровн	-10.6541
▁существенны	-10.6541
▁Проанализирован	-10.6542
▁images	-10.6543
▁синтеза	-10.6548
▁Ear	-10.6549
▁alveol	-10.655
3%	-10.6552
▁white	-10.6556
tra	-10.6556
▁determines	-10.6557
▁прове	-10.6562
▁inner	-10.6563
▁одновременно	-10.6565
цин	-10.6565
▁сложных	-10.6567
▁рациональн	-10.6572
▁кратки	-10.6577
▁alcoholic	-10.6577
▁NIHSS	-10.6579
нга	-10.6582
▁шкалам	-10.6599
63	-10.66
▁0,1	-10.6601
▁NO	-10.6602
▁SF	-10.6605
▁услуг	-10.6613
▁цито	-10.6613
mer	-10.6614
▁experiment	-10.6615
▁line	-10.6615
▁смешанн	-10.6616
▁патофизиологи	-10.6619
all	-10.6619
▁perspective	-10.663
▁animal	-10.6631
▁flap	-10.6633
▁вопросам	-10.6638
▁cranial	-10.6644
▁ухудшение	-10.6646
▁пролиферативн	-10.6646
▁needs	-10.6649
▁spread	-10.6656
▁характеризует	-10.6663
ному	-10.6663
▁recommend	-10.6665
▁базальн	-10.6666
▁гнойн	-10.6669
▁центра	-10.6676
▁увеличивает	-10.6677
▁интенсивность	-10.6677
▁insufficient	-10.668
▁prior	-10.6683
▁efficient	-10.6685
▁excess	-10.6685
▁fatigue	-10.6685
▁Обсуждается	-10.6685
▁требуют	-10.6685
▁novel	-10.6685
▁otorhi	-10.6685
▁admission	-10.6685
▁sepsis	-10.6685
▁образований	-10.6685
▁height	-10.6686
▁избежать	-10.6686
▁therefore	-10.6686
▁уделяется	-10.6687
▁Forty	-10.6687
психоэмоциональн	-10.6688
▁поражений	-10.6689
▁чтобы	-10.6691
▁пандемии	-10.6691
▁ствола	-10.6694
ажность	-10.6694
▁экс	-10.6695
▁онкологических	-10.6698
▁трупа	-10.6699
▁встреча	-10.6703
▁sexual	-10.6708
▁nosological	-10.6708
▁статистическ	-10.6708
▁этапом	-10.6709
-12	-10.671
42	-10.6716
vi	-10.672
▁adhesive	-10.6723
▁decades	-10.6724
▁gas	-10.6725
▁поле	-10.6728
▁attacks	-10.6731
▁CNS	-10.6735
FS	-10.6736
▁bronchi	-10.6739
▁социальных	-10.6739
TE	-10.674
▁particularly	-10.6742
▁provid	-10.6743
for	-10.6749
▁физическ	-10.6751
kin	-10.6757
▁Мы	-10.6758
фл	-10.6758
54	-10.6765
ируется	-10.6772
▁общие	-10.6774
4%	-10.6776
▁медикаментозной	-10.6781
ован	-10.6788
▁ST	-10.6791
кон	-10.6797
▁object	-10.6799
▁протез	-10.68
▁Ch	-10.6803
▁commonly	-10.6805
▁disturbance	-10.6806
ила	-10.6807
▁искусственн	-10.6808
ДГ	-10.6818
▁основанны	-10.6823
▁остры	-10.6825
300	-10.6829
▁отношение	-10.6837
▁operat	-10.6842
▁regimen	-10.6844
ается	-10.6846
▁право	-10.6847
▁spontaneous	-10.6848
▁линейн	-10.6848
цией	-10.6849
▁важным	-10.6852
76	-10.6854
▁оказа	-10.6854
▁transplant	-10.6858
rhinolaryngology	-10.6861
▁Assessment	-10.6861
▁anatomy	-10.6861
▁giant	-10.6861
▁Изучали	-10.6861
▁внутриглазн	-10.6861
▁тактику	-10.6861
▁resort	-10.6861
▁волокон	-10.6861
▁принял	-10.6861
▁numerous	-10.6861
▁morphometric	-10.6861
▁bodies	-10.6861
▁optimization	-10.6861
▁объеме	-10.6861
▁protection	-10.6862
not	-10.6863
▁Some	-10.6865
▁рекомендовать	-10.6866
▁потенциалов	-10.6867
▁пораженн	-10.6867
▁2009	-10.6868
▁proven	-10.6869
▁базы	-10.687
46	-10.6873
▁минимальн	-10.6874
ати	-10.6881
▁трансформации	-10.6886
▁негативно	-10.6888
ПР	-10.6891
▁Длительн	-10.6893
▁perfusion	-10.6893
▁characterize	-10.6896
▁структура	-10.6896
▁терапией	-10.6899
▁выраженные	-10.69
▁physicians	-10.69
▁centers	-10.6901
▁96	-10.6904
▁подтверждают	-10.691
▁цикла	-10.6921
9%	-10.6924
▁color	-10.6935
AF	-10.6941
cellular	-10.6951
▁able	-10.6951
▁собственны	-10.6956
▁Its	-10.6964
▁абдоминальн	-10.6966
▁comp	-10.6976
лок	-10.6981
▁hemorrhage	-10.6983
▁call	-10.6984
▁attitude	-10.6984
▁site	-10.6984
▁element	-10.6984
▁publication	-10.6988
▁неспецифическ	-10.699
▁конечн	-10.6991
▁antibiotic	-10.6992
▁значительной	-10.6997
▁век	-10.6997
▁дост	-10.6999
mous	-10.7009
36	-10.7017
▁профилактическ	-10.7022
▁полно	-10.7033
▁High	-10.7036
▁success	-10.7039
▁unique	-10.7039
▁постинсультн	-10.7039
▁предсердий	-10.7039
▁существует	-10.7039
▁medium	-10.7039
▁gestation	-10.7039
▁idiopathic	-10.7039
▁натрия	-10.7039
▁Установили	-10.7039
▁пределах	-10.704
▁сознания	-10.704
▁дентальн	-10.704
▁sinusitis	-10.7041
▁digital	-10.7041
▁реже	-10.7041
▁использованию	-10.7041
▁эритроцитов	-10.7041
▁продуктов	-10.7041
▁соединительной	-10.7041
▁площади	-10.7043
▁neuropathy	-10.7043
▁непосредственны	-10.7044
▁абсолютн	-10.7044
▁researchers	-10.7045
▁появления	-10.7046
▁идиопатическ	-10.7048
came	-10.7048
▁известн	-10.7051
▁маркеры	-10.7053
▁условно	-10.7054
▁поэтому	-10.7055
овершенствование	-10.7055
▁описания	-10.7055
▁97	-10.7062
▁выявили	-10.7062
▁беременных	-10.7063
▁отличие	-10.7064
▁errors	-10.7065
▁выделены	-10.7068
▁down	-10.7069
lytic	-10.7069
▁лицевого	-10.7072
▁соматически	-10.7072
45	-10.7073
▁BP	-10.7075
▁growing	-10.7077
воспалительной	-10.7079
▁самостоятельн	-10.7081
ющие	-10.7083
▁40%	-10.7084
▁материале	-10.709
▁(0,	-10.7092
▁peptides	-10.7099
▁резекци	-10.7105
▁falls	-10.7112
MP	-10.7116
▁коронарных	-10.712
▁критическ	-10.7121
▁практической	-10.7135
▁PC	-10.7143
▁subject	-10.7148
▁orbital	-10.7151
НС	-10.7155
aged	-10.716
RD	-10.7163
▁fall	-10.7166
▁воспалительного	-10.7169
▁метаболически	-10.717
кан	-10.7171
▁fraction	-10.7177
▁block	-10.7178
▁экстренн	-10.7181
▁0,5	-10.7183
▁организме	-10.7188
▁обширн	-10.719
▁24-	-10.719
изации	-10.7191
▁размера	-10.7201
▁разви	-10.7205
▁potentials	-10.7213
▁взгляд	-10.7213
▁моче	-10.7216
▁положительны	-10.7217
▁генетически	-10.7217
благодар	-10.7221
▁Twenty	-10.7221
▁adhesion	-10.7221
▁dysplasia	-10.7221
▁phenomena	-10.7221
▁reproductive	-10.7221
▁sudden	-10.7221
▁гликемии	-10.7221
▁жителей	-10.7221
▁лучше	-10.7221
▁микроорганизмов	-10.7221
▁наблюдении	-10.7221
▁питания	-10.7221
▁стадий	-10.7221
▁Data	-10.7221
▁движений	-10.7221
▁холестерина	-10.7221
▁клиники	-10.7221
▁действий	-10.7221
▁имплантатов	-10.7222
▁поздних	-10.7222
▁moment	-10.7223
▁encountered	-10.7224
▁слоя	-10.7224
▁эксперименте	-10.7226
▁likely	-10.7226
▁restore	-10.7229
ани	-10.7229
▁emphasized	-10.7232
▁lumbar	-10.7233
=0.00	-10.7237
▁institutions	-10.7239
▁надпочечников	-10.7241
▁нейрофизиологи	-10.7243
▁общества	-10.7244
▁Тем	-10.7246
▁corresponding	-10.7247
▁проблему	-10.7247
▁ideas	-10.7249
▁ВОЗ	-10.7252
▁(15	-10.7253
▁PA	-10.7254
▁placed	-10.7254
▁имплантата	-10.7257
▁концентрация	-10.7262
>-	-10.7262
▁malformations	-10.7266
▁физического	-10.7281
▁92	-10.7284
▁системно	-10.7285
▁depth	-10.7285
▁математическ	-10.729
▁ПЖ	-10.7291
▁лабораторн	-10.7297
▁концентраци	-10.7298
▁изолированн	-10.7302
▁15%	-10.7302
ичь	-10.7306
art	-10.7308
▁прост	-10.7308
▁исследуем	-10.7309
ten	-10.7309
▁questions	-10.731
▁CHD	-10.7311
▁травмой	-10.7311
КС	-10.7313
▁составлял	-10.7313
▁гемо	-10.7314
▁interactions	-10.7315
▁необходимы	-10.7316
▁расширение	-10.732
ize	-10.7324
▁linear	-10.7331
▁works	-10.7332
▁последовательн	-10.7333
ept	-10.7338
8)	-10.7341
▁широки	-10.7342
нной	-10.7344
▁indirect	-10.7345
▁my	-10.7347
▁редкой	-10.7348
▁больными	-10.7349
▁scheme	-10.735
▁ПП	-10.7352
control	-10.7354
▁жив	-10.7362
▁(2-	-10.7363
▁ишемическим	-10.7364
▁представи	-10.7371
ons	-10.7377
тельной	-10.7379
▁прогрессирующе	-10.7383
▁300	-10.7386
▁discharge	-10.7394
▁apparent	-10.7394
▁goiter	-10.7406
▁mandible	-10.7406
▁prescription	-10.7406
▁superior	-10.7406
▁suppurati	-10.7406
▁анатомии	-10.7406
▁медицине	-10.7406
▁русла	-10.7406
▁человеческ	-10.7406
▁посмертн	-10.7406
▁нередко	-10.7406
▁движения	-10.7406
▁consumption	-10.7406
▁advisable	-10.7406
▁прежде	-10.7406
▁mice	-10.7407
▁новый	-10.7407
▁демонстрирует	-10.7407
▁строения	-10.7408
▁актуальность	-10.7408
point	-10.7409
▁absolute	-10.7411
dermal	-10.7411
ясь	-10.7412
▁желудочка	-10.7414
▁психическим	-10.7414
▁cartilage	-10.7416
психопатологи	-10.7416
▁nose	-10.7417
▁рецидивов	-10.7417
▁medicines	-10.742
▁ожирением	-10.7421
▁общественн	-10.7421
▁печеночн	-10.7422
▁тяжестью	-10.7423
▁включения	-10.7424
▁анамнеза	-10.7426
▁аффективн	-10.7426
66	-10.7427
▁госпитальн	-10.7429
отря	-10.7431
▁апоптоза	-10.7433
▁структурных	-10.7435
▁кг	-10.7436
▁выраженное	-10.7438
▁него	-10.744
▁recently	-10.745
▁calcium	-10.745
лу	-10.7451
▁маркера	-10.7451
ческом	-10.7459
тон	-10.746
ог	-10.7461
▁анатомических	-10.7462
▁Распространенн	-10.7465
▁органах	-10.7472
▁стр	-10.7472
▁формах	-10.7473
▁generally	-10.7473
▁макро	-10.7473
▁TBI	-10.7474
▁beta	-10.7476
▁exercises	-10.7479
▁tools	-10.748
▁Nation	-10.748
▁эндо	-10.7481
ированной	-10.7481
▁movements	-10.7486
OL	-10.7497
▁rarely	-10.7502
нного	-10.7503
▁стойк	-10.7509
▁способны	-10.751
▁CGI	-10.7511
test	-10.7517
78	-10.752
▁превыша	-10.7524
▁гериатрическ	-10.7529
▁выделен	-10.753
▁характерно	-10.7534
▁rect	-10.7535
▁региона	-10.7535
▁tested	-10.7536
▁отражен	-10.7542
▁start	-10.7549
▁рак	-10.755
▁объективны	-10.7552
жировой	-10.7555
▁депрессия	-10.7568
емых	-10.7569
▁Пациент	-10.7575
▁standards	-10.7575
▁направленны	-10.7579
▁достигнут	-10.7581
▁исследовали	-10.7589
▁аналогичн	-10.759
▁respect	-10.7593
▁gunshot	-10.7595
▁spleen	-10.7595
▁отмены	-10.7595
▁дисфункция	-10.7595
▁concurrent	-10.7595
▁peroxidation	-10.7595
▁vitreous	-10.7595
▁окклюзионн	-10.7595
▁дермы	-10.7595
▁relief	-10.7595
▁exert	-10.7595
▁sound	-10.7595
▁polymer	-10.7595
▁mesh	-10.7595
▁calculation	-10.7596
▁углеводного	-10.7596
▁isolation	-10.7596
▁spasticity	-10.7596
part	-10.7597
▁объектов	-10.7597
▁назначение	-10.7597
ome	-10.7598
▁autopsy	-10.7599
▁весь	-10.7599
▁мочев	-10.76
▁methodological	-10.76
▁двум	-10.7602
▁наблюдались	-10.7602
▁skills	-10.7603
▁Как	-10.7603
▁recognized	-10.7604
органов	-10.7606
▁resources	-10.7606
▁others	-10.7609
▁удаленн	-10.761
реваскуляризации	-10.761
▁история	-10.7613
▁represented	-10.7615
▁Candida	-10.7618
▁appeared	-10.762
▁шкалу	-10.7621
▁сравнительно	-10.7623
ну	-10.7624
5,	-10.7626
▁ПК	-10.7637
▁30-	-10.7639
▁pathways	-10.7643
▁комплексном	-10.7644
▁понимание	-10.7646
▁sensitive	-10.765
▁инфаркта	-10.7652
▁раке	-10.7655
5;	-10.766
tom	-10.7663
▁demographic	-10.7672
dicated	-10.7675
▁установлена	-10.7678
ily	-10.7681
▁requir	-10.7684
ана	-10.7684
▁граждан	-10.7689
▁трансплантата	-10.7691
▁neurotrophi	-10.7698
▁contains	-10.7701
ческая	-10.7708
▁develops	-10.7712
▁ventr	-10.7714
▁hip	-10.7719
VA	-10.7723
▁депрессивных	-10.7725
▁He	-10.7726
1.0	-10.7728
▁выборе	-10.7731
▁доступн	-10.7738
▁нормальным	-10.7738
res	-10.7743
▁неинвазивн	-10.7746
▁процедур	-10.7752
▁75%	-10.7753
▁allele	-10.7757
▁Le	-10.7765
▁семейн	-10.7774
▁реакция	-10.7777
▁актив	-10.7777
КН	-10.7778
▁urin	-10.7779
dimensional	-10.7784
▁Исследован	-10.7784
▁attribut	-10.7784
▁situ	-10.7784
▁Co	-10.7785
▁осмотр	-10.7786
ольшинство	-10.7787
▁Doppler	-10.7787
▁First	-10.7787
▁creation	-10.7787
▁diagnosing	-10.7787
▁задержк	-10.7787
▁коррекция	-10.7787
▁теории	-10.7787
▁dermis	-10.7787
▁universal	-10.7787
▁магистральн	-10.7787
▁ортопедическ	-10.7787
▁Нарушени	-10.7787
▁endarterectomy	-10.7787
▁месяцев	-10.7787
▁шунтирования	-10.7787
▁нейрохирургии	-10.7788
▁propose	-10.7788
▁ограничения	-10.7789
▁asymptomatic	-10.7792
▁методам	-10.7793
▁предикторов	-10.7793
▁adenocarcinoma	-10.7793
stimulating	-10.7793
▁используемы	-10.7795
▁spp	-10.7795
▁опросник	-10.7796
▁целев	-10.7797
call	-10.7798
▁fully	-10.7799
analysis	-10.7799
▁prove	-10.7799
▁Ma	-10.7801
▁SD	-10.7801
▁reserve	-10.7803
▁neural	-10.7803
▁Хирургическ	-10.7803
▁what	-10.7807
men	-10.7808
▁обработки	-10.7809
▁epi	-10.781
▁крупных	-10.7811
▁отека	-10.7818
com	-10.7836
▁Боле	-10.784
AG	-10.7844
▁20-	-10.785
▁некроза	-10.785
▁искусственного	-10.785
▁actions	-10.7858
▁отечественн	-10.7867
▁термин	-10.7873
нные	-10.7874
▁0.2	-10.7881
ДС	-10.7889
▁17-	-10.7889
▁находи	-10.789
▁0.5	-10.7896
04	-10.7896
▁большинство	-10.7905
ющей	-10.7909
ировать	-10.7911
▁(40	-10.7913
▁изученны	-10.7914
▁аденом	-10.7921
▁combinations	-10.7923
▁circulat	-10.7925
▁doctor	-10.7928
▁her	-10.7936
▁феномен	-10.7939
lar	-10.7941
▁fracture	-10.7941
▁открыт	-10.7943
▁lympho	-10.7947
▁стент	-10.7959
if	-10.7959
▁Al	-10.7961
ition	-10.7967
▁специфичность	-10.797
▁Current	-10.7971
▁рентгенологи	-10.7972
▁pharmaco	-10.7974
▁эксперимента	-10.7975
▁CC	-10.7977
▁Over	-10.7983
▁apparatus	-10.7983
▁inflicted	-10.7983
▁perception	-10.7983
▁premature	-10.7983
▁Развитие	-10.7983
▁артериовенозн	-10.7983
▁глотки	-10.7983
▁дисфункцией	-10.7983
▁показывают	-10.7983
▁intestine	-10.7983
▁окисления	-10.7983
▁limitations	-10.7983
▁матки	-10.7983
▁Index	-10.7983
▁глобальн	-10.7983
▁зубочелюстн	-10.7983
▁относится	-10.7983
▁определенны	-10.7983
▁myopia	-10.7983
▁yet	-10.7984
▁interpretation	-10.7984
versus	-10.7984
▁биомаркеров	-10.7985
▁вентральн	-10.7986
▁myocardium	-10.7986
▁профиль	-10.7987
иеся	-10.7988
▁монотерапии	-10.7988
▁источников	-10.7989
▁секреции	-10.7989
▁следов	-10.7989
▁задачей	-10.7991
▁микрофлоры	-10.7993
▁инфекционных	-10.7993
▁walking	-10.7993
▁порогов	-10.7996
resistant	-10.7998
▁концепция	-10.7998
▁проявлением	-10.7999
▁2005	-10.7999
go	-10.8
▁стенозом	-10.8002
▁метаболического	-10.8003
▁fungal	-10.8004
▁гемодинамически	-10.8008
▁расширенн	-10.8009
effects	-10.8012
ПН	-10.8012
▁cultural	-10.8015
▁5%	-10.8017
▁perforat	-10.8019
ju	-10.8028
▁плане	-10.8029
▁episodes	-10.803
thrombotic	-10.8031
▁sections	-10.8031
▁задачи	-10.8032
6%)	-10.8036
▁step	-10.8037
▁тех	-10.8037
▁расстройством	-10.8038
▁неврологической	-10.8041
▁собственных	-10.8041
▁coagulation	-10.8042
threaten	-10.805
▁создание	-10.8054
ью	-10.8056
▁tasks	-10.8056
▁считать	-10.8057
▁фон	-10.806
▁имплантаци	-10.8061
ler	-10.8065
воспалительные	-10.8067
.1%)	-10.8071
▁контролируем	-10.8074
▁лимфо	-10.8076
▁мышцы	-10.8081
▁сохраня	-10.8082
SP	-10.8083
<0,001)	-10.8083
▁squa	-10.809
▁остео	-10.8094
▁MD	-10.8095
ций	-10.8098
арк	-10.8101
▁прижизненн	-10.8101
▁непосредственно	-10.8106
▁(26	-10.8108
▁лечением	-10.8108
▁пластики	-10.8109
▁rhythm	-10.8123
▁facilitate	-10.8126
▁102	-10.8128
▁donor	-10.8128
▁surgeon	-10.8128
▁пато	-10.8129
▁прогресс	-10.8139
▁ме	-10.814
otomy	-10.8142
▁коре	-10.8153
▁2011	-10.8153
▁перспективным	-10.8154
▁осложнение	-10.8155
▁повреждение	-10.8157
▁GD	-10.8158
▁(38	-10.8168
▁emphasize	-10.8171
▁способность	-10.8172
82	-10.8173
▁adenoma	-10.8176
▁выраженным	-10.8178
IR	-10.8181
▁abnormal	-10.8182
▁barrier	-10.8183
▁cosmetic	-10.8183
▁paroxysmal	-10.8183
▁smooth	-10.8183
▁trunk	-10.8183
▁vertical	-10.8183
▁Москвы	-10.8183
▁выдели	-10.8183
▁интоксикации	-10.8183
▁отражает	-10.8183
▁приобретенн	-10.8183
▁autism	-10.8183
▁comparing	-10.8183
▁sulfate	-10.8183
▁изучаем	-10.8183
▁потери	-10.8183
▁руб	-10.8183
▁morphology	-10.8183
▁registration	-10.8184
▁силы	-10.8184
▁применяемы	-10.8184
▁измерения	-10.8184
▁Vari	-10.8185
▁proper	-10.8185
▁justified	-10.8185
▁suspected	-10.8185
▁устойчивости	-10.8186
▁изучали	-10.8186
OP	-10.8186
▁значительны	-10.8187
▁availability	-10.8187
▁переломов	-10.8187
▁accepted	-10.8187
▁направлений	-10.8188
▁выявлении	-10.8188
стало	-10.8189
▁тенденции	-10.819
▁now	-10.8192
▁функция	-10.8194
▁хирургов	-10.8194
▁another	-10.8195
▁психогенн	-10.8198
▁психиатрической	-10.8199
▁removed	-10.8199
▁fields	-10.82
▁обусловлена	-10.8202
▁большим	-10.8203
МРТ	-10.8204
▁CM	-10.8204
functional	-10.8207
лип	-10.8209
▁ферментов	-10.8209
▁tension	-10.8212
▁дозы	-10.8214
▁протока	-10.8214
▁longer	-10.8215
▁suicidal	-10.8216
ris	-10.8219
▁theoretical	-10.8219
▁характеризова	-10.8219
▁методику	-10.822
▁фазы	-10.8224
33	-10.8226
▁2-3	-10.8245
▁measurements	-10.8249
▁осложнениями	-10.8252
▁CS	-10.8253
26	-10.8254
нятия	-10.8255
▁expos	-10.8255
▁несм	-10.8261
▁cover	-10.8263
▁(31	-10.8265
▁шунта	-10.827
▁(36	-10.8273
-13	-10.8275
OM	-10.8279
72	-10.828
▁сопоставим	-10.8281
стер	-10.8283
▁conclusions	-10.829
HT	-10.8291
▁анализу	-10.8292
▁поля	-10.8301
▁angle	-10.8304
cular	-10.8304
ори	-10.8305
▁2006	-10.8309
▁проб	-10.8311
4%)	-10.8314
ца	-10.8317
▁характерные	-10.832
EC	-10.8331
▁accident	-10.8332
▁cytokine	-10.8333
▁доз	-10.8333
▁синтез	-10.8334
▁event	-10.8337
▁60%	-10.8337
▁articles	-10.8341
▁Ex	-10.8346
АР	-10.8349
▁последствия	-10.8351
▁возможным	-10.8353
▁metal	-10.8354
max	-10.8356
▁карт	-10.8358
▁(23	-10.8358
ированного	-10.8363
▁rational	-10.8365
▁коррелиру	-10.8365
MD	-10.8369
▁explain	-10.837
ПК	-10.8371
bi	-10.8375
▁Больн	-10.8376
,1%)	-10.8376
ID	-10.8376
▁грыж	-10.8376
▁2008	-10.8377
ИМ	-10.8379
микроциркуляторн	-10.8387
▁Anxiety	-10.8387
▁Federal	-10.8387
▁asymmetry	-10.8387
▁aureus	-10.8387
▁dystonia	-10.8387
▁foci	-10.8387
▁hypothesis	-10.8387
▁rhinitis	-10.8387
▁rhinosinusitis	-10.8387
▁systolic	-10.8387
▁themselves	-10.8387
▁варикозн	-10.8387
▁рубцов	-10.8387
▁сделать	-10.8387
▁Children	-10.8387
▁distinct	-10.8387
▁картине	-10.8387
▁microbiota	-10.8387
▁assistance	-10.8388
▁society	-10.8388
▁opportunities	-10.8388
▁ligation	-10.8388
▁unknown	-10.8388
▁выборке	-10.8388
▁initiation	-10.8388
▁spectral	-10.8388
▁(«	-10.8388
▁inhibition	-10.8389
▁новорожденных	-10.8389
▁каналов	-10.8393
▁понимания	-10.8394
▁хроническ	-10.8394
▁methodology	-10.8396
▁таким	-10.8396
▁остр	-10.8396
▁varicos	-10.8397
▁microorganisms	-10.8399
кар	-10.84
▁dimensions	-10.8403
▁раствор	-10.8403
▁younger	-10.8404
ками	-10.8405
▁throughout	-10.8408
▁мужского	-10.8409
фактор	-10.841
▁antipsychotics	-10.8418
▁tympanic	-10.8419
▁указанны	-10.8419
лин	-10.842
▁limit	-10.8424
▁исследуемых	-10.8431
▁release	-10.8433
МК	-10.8435
▁104	-10.8441
▁сердечн	-10.8444
▁частично	-10.8447
▁hemodynamics	-10.8455
▁Ca	-10.846
▁синдроме	-10.846
▁closed	-10.8468
▁muscular	-10.8471
▁опор	-10.8471
▁эндоваскулярны	-10.8471
▁первичных	-10.8473
▁атипичн	-10.8473
mainly	-10.8475
▁ulcers	-10.8479
▁генотип	-10.8481
ue	-10.8482
ternational	-10.8483
▁sp	-10.8487
-90	-10.849
▁protocols	-10.8495
▁двойн	-10.8497
▁99	-10.8497
▁кохлеарн	-10.8499
ческими	-10.85
▁2,5	-10.8501
синдром	-10.8507
▁глубок	-10.8511
CL	-10.8512
▁ce	-10.8513
▁материал	-10.8514
▁involve	-10.8515
▁возникл	-10.8516
▁8-	-10.8517
▁six	-10.8529
ru	-10.8537
▁attack	-10.8541
▁редким	-10.8544
▁мониторинг	-10.8554
ator	-10.8558
skeletal	-10.8562
▁personalize	-10.8568
▁исходно	-10.8569
нос	-10.8571
▁(52	-10.8574
овершенствования	-10.8579
▁gain	-10.8581
▁би	-10.8584
▁главн	-10.8586
▁considering	-10.859
▁morpho	-10.8592
медиана	-10.8592
▁project	-10.8594
▁prostate	-10.8595
▁clarify	-10.8596
▁delivery	-10.8596
▁invasion	-10.8596
▁principal	-10.8596
▁statistics	-10.8596
▁областях	-10.8596
▁опухолевого	-10.8596
▁intake	-10.8596
▁область	-10.8596
▁специальностей	-10.8596
▁гипертензией	-10.8596
▁peritonitis	-10.8596
▁variable	-10.8596
▁суставов	-10.8596
▁Одно	-10.8597
▁arteriovenous	-10.8597
▁Причин	-10.8597
▁происхождения	-10.8597
азы	-10.8598
▁аспектов	-10.86
▁моноклональн	-10.8601
▁периодах	-10.8601
СС	-10.8603
▁coli	-10.8604
▁Показатели	-10.8605
▁жевательн	-10.8606
▁вероятности	-10.8606
щи	-10.8608
▁прогрессировани	-10.861
▁регистрации	-10.8614
▁гемодинамики	-10.8615
▁theory	-10.8616
▁Saint	-10.8617
▁травма	-10.8618
▁correlates	-10.8618
▁дозах	-10.8619
▁fibers	-10.8619
▁толщины	-10.862
изм	-10.8621
with	-10.8621
▁стоматологии	-10.8621
▁преимуществ	-10.8628
▁офтальмологи	-10.8631
▁году	-10.8635
five	-10.8635
▁bili	-10.8647
▁установление	-10.8648
▁alpha	-10.8649
▁эпидемиологии	-10.8656
▁met	-10.8659
чат	-10.8661
▁l	-10.8661
▁PCR	-10.8667
▁бо	-10.8668
▁хирургическ	-10.8672
▁ВМД	-10.8673
<0,001).	-10.8675
ТС	-10.8675
▁relapses	-10.8677
94	-10.8678
▁AMD	-10.8683
ПГ	-10.8685
▁анатомическ	-10.8686
▁подтверждает	-10.8689
▁пространственн	-10.869
▁аутоиммунн	-10.8692
85	-10.8692
ber	-10.8692
▁позици	-10.8695
▁выполнени	-10.8696
▁указывает	-10.8703
лев	-10.8703
qui	-10.8705
▁сер	-10.8707
cognitive	-10.8708
▁3)	-10.8709
азработка	-10.8711
ND	-10.8715
▁wave	-10.8718
▁факт	-10.8721
ализ	-10.8723
0.1	-10.8729
natal	-10.873
▁ранние	-10.873
▁оказал	-10.8736
▁via	-10.8738
▁segments	-10.8741
PE	-10.8746
каза	-10.8753
▁tumour	-10.8753
▁Age	-10.8757
она	-10.8778
▁нарушен	-10.878
▁обрати	-10.878
▁отделах	-10.8781
▁Прове	-10.8786
▁2007	-10.8787
▁экстра	-10.8787
1/	-10.8791
38	-10.8791
▁operative	-10.8794
▁обострения	-10.8801
▁костно	-10.8803
▁электронн	-10.8805
her	-10.8806
dominant	-10.8807
▁акад	-10.8808
▁analgesic	-10.8808
▁microflora	-10.8808
▁osteoarthritis	-10.8808
▁remodeling	-10.8808
▁shock	-10.8808
▁supply	-10.8808
▁Проблем	-10.8808
▁барабанн	-10.8808
▁внезапн	-10.8808
▁двусторонне	-10.8808
▁ободочн	-10.8808
▁падений	-10.8808
▁поколения	-10.8808
▁constant	-10.8808
▁entire	-10.8808
▁genome	-10.8808
▁inadequate	-10.8808
▁thermal	-10.8808
▁колоректальн	-10.8808
▁учебн	-10.8808
▁выражен	-10.8809
▁tonsillitis	-10.8809
▁subcutaneous	-10.8809
▁occurring	-10.8809
▁груди	-10.8809
▁зарубежной	-10.8809
▁боков	-10.8809
▁прошл	-10.881
▁psychotherapy	-10.8811
▁обеспечи	-10.8811
▁чего	-10.8811
▁endothelium	-10.8812
▁etiological	-10.8813
▁psychogenic	-10.8813
▁разрыва	-10.8813
генетических	-10.8814
▁механизма	-10.8814
▁criterion	-10.8815
▁preserved	-10.8815
▁положение	-10.8817
▁используются	-10.8817
▁capsule	-10.8819
▁развивается	-10.8821
▁breathing	-10.8822
▁гигиены	-10.8822
otherapy	-10.8827
▁pelvi	-10.8827
▁complexity	-10.8827
изация	-10.8829
ско	-10.8829
BP	-10.883
терапия	-10.8831
▁края	-10.8831
▁активной	-10.8833
▁соотношения	-10.8838
▁researches	-10.8839
▁complexes	-10.8843
▁генотипа	-10.8844
▁laparotomy	-10.8847
>=	-10.8849
▁отита	-10.8851
▁Обследование	-10.8851
раз	-10.8854
▁страны	-10.8854
▁сложн	-10.8858
▁IOL	-10.8858
▁занимает	-10.8859
▁респираторн	-10.886
▁фа	-10.8862
▁уровней	-10.8864
▁вид	-10.8866
AC	-10.8869
летне	-10.8874
3).	-10.8875
ющим	-10.8885
тин	-10.8886
▁селективн	-10.8894
▁br	-10.8896
▁сложной	-10.8901
val	-10.8908
▁costs	-10.8909
▁открытой	-10.8912
▁безопасным	-10.8913
▁(62	-10.8913
▁негативн	-10.8915
чно	-10.8918
реактивн	-10.8923
ists	-10.8925
индром	-10.8928
▁мини	-10.893
ОП	-10.8932
▁адекватной	-10.8933
ассистированн	-10.8934
red	-10.8939
▁CCI	-10.894
▁Обнаружен	-10.894
▁пара	-10.8943
▁вовлечение	-10.8946
▁потенциал	-10.8953
OH	-10.8954
ts	-10.8956
АТ	-10.8962
▁attempt	-10.897
▁fragment	-10.8971
▁подвздошн	-10.8971
▁стеноз	-10.8973
▁включение	-10.8977
ack	-10.8978
ируют	-10.8984
▁применяем	-10.8985
▁pathway	-10.8985
az	-10.8985
▁тромбоэмболи	-10.8991
-8	-10.8994
52	-10.8996
▁transport	-10.9001
риноларингологии	-10.9002
▁морфометрически	-10.9007
▁exceed	-10.9009
▁должно	-10.901
вис	-10.9011
▁решение	-10.9012
▁помощь	-10.9013
МА	-10.9015
зии	-10.9015
▁АК	-10.9015
LS	-10.9017
вали	-10.9023
▁истори	-10.9024
▁synthe	-10.9026
▁Inventory	-10.9026
▁facilities	-10.9026
▁hepatitis	-10.9026
▁pancreas	-10.9026
▁relevance	-10.9026
▁undertaken	-10.9026
▁Учитывая	-10.9026
▁вертикальн	-10.9026
▁моделирования	-10.9026
▁субтотальн	-10.9026
▁dosage	-10.9026
▁бронхиальн	-10.9026
▁mobility	-10.9026
▁balloon	-10.9026
▁preced	-10.9026
▁hypoxia	-10.9026
▁learning	-10.9026
▁волны	-10.9026
▁requirements	-10.9026
▁резко	-10.9026
▁strains	-10.9026
▁lacrima	-10.9026
▁буде	-10.9027
▁психической	-10.9027
ирующего	-10.9027
▁delay	-10.9028
▁особо	-10.9028
▁отсроченн	-10.9028
▁hospitalized	-10.9029
▁отличается	-10.9029
▁mature	-10.9031
▁использовались	-10.9032
▁prediction	-10.9032
▁иммуноферментн	-10.9032
▁substantiated	-10.9032
▁территории	-10.9033
▁deficits	-10.9033
▁sessions	-10.9035
▁этапов	-10.9037
▁называем	-10.9038
▁records	-10.904
▁double	-10.904
гиб	-10.9042
endonasal	-10.9045
▁alterations	-10.9047
▁образовательн	-10.9049
ирующих	-10.9049
▁(27	-10.905
▁integr	-10.9052
▁аортальн	-10.9052
▁существенн	-10.9055
▁вероятно	-10.9055
▁минеральн	-10.9058
▁пробы	-10.906
▁кардио	-10.9061
▁дефицитом	-10.9064
▁ранев	-10.9064
▁скринингов	-10.9071
▁(21	-10.9072
КТ	-10.9074
▁изменени	-10.9074
▁меры	-10.9077
AM	-10.9078
nasal	-10.9078
▁нозологическ	-10.9082
▁позволяющих	-10.9082
▁многочисленны	-10.9082
▁длины	-10.9083
▁мембраны	-10.9083
томатологических	-10.9088
ometry	-10.9089
▁представлений	-10.9098
нюю	-10.9099
SARS	-10.9102
▁века	-10.9102
▁свидетельствова	-10.9102
ологии	-10.9105
▁травме	-10.9107
▁suit	-10.9111
-7	-10.9113
▁морфологическ	-10.9115
▁former	-10.9115
=0,01	-10.912
metric	-10.9121
▁различным	-10.9121
toxic	-10.9131
▁установлени	-10.9133
▁400	-10.9133
land	-10.9133
▁преобладал	-10.9136
окси	-10.9137
▁situations	-10.9138
▁кариес	-10.915
solving	-10.915
▁эффектом	-10.9152
летнего	-10.9154
ub	-10.916
▁дефект	-10.9164
1;	-10.9165
▁глубин	-10.9174
▁представителе	-10.9177
▁оказывают	-10.9178
▁периоды	-10.9178
BI	-10.9179
▁важных	-10.9186
▁degrees	-10.9187
▁Psycho	-10.9188
чных	-10.919
▁definition	-10.9192
▁OCT	-10.9193
▁goal	-10.9193
-16	-10.9193
▁malformation	-10.9193
▁source	-10.9193
▁corpse	-10.9193
▁consequence	-10.9193
син	-10.9194
▁купировани	-10.9195
▁predictor	-10.9202
▁Man	-10.9206
▁СА	-10.9206
▁осуществляли	-10.9209
▁От	-10.9212
mm	-10.9213
DS	-10.9213
▁особенностям	-10.9213
MT	-10.9216
LI	-10.9219
▁отношени	-10.9222
ba	-10.9222
neu	-10.9224
▁De	-10.923
ГП	-10.9231
следственн	-10.9235
hronic	-10.9241
▁появление	-10.9245
▁glomerul	-10.9246
morbid	-10.9247
▁предста	-10.9248
▁arthritis	-10.9248
▁equipment	-10.9248
▁feasibility	-10.9248
▁heterogeneous	-10.9248
▁knee	-10.9248
▁twice	-10.9248
▁verification	-10.9248
▁корня	-10.9248
▁полимеразн	-10.9248
▁событий	-10.9248
▁слюнн	-10.9248
▁эндоназальн	-10.9248
▁adherence	-10.9248
▁homeostasis	-10.9248
▁кр	-10.9248
▁опухолевых	-10.9248
▁Moder	-10.9249
▁мальчиков	-10.9249
▁нестероидны	-10.9249
▁abuse	-10.9251
▁robot	-10.9251
▁Определяли	-10.9252
▁preferred	-10.9252
▁lungs	-10.9253
нижнечелюстн	-10.9254
▁природы	-10.9254
▁far	-10.9254
▁экспрессия	-10.9256
▁протокол	-10.9258
▁внутривенно	-10.926
▁отитом	-10.9266
▁рассматриваем	-10.9266
▁explained	-10.9266
▁являлись	-10.9267
мод	-10.9268
▁Anti	-10.927
opathy	-10.927
▁accelerated	-10.9273
▁малоинвазивн	-10.9276
4).	-10.9277
▁mis	-10.9278
▁изучена	-10.928
▁вируса	-10.9281
▁цепн	-10.9283
ell	-10.9286
рыв	-10.9291
frequency	-10.9291
shape	-10.9291
▁результата	-10.9291
лед	-10.9292
▁достоверные	-10.9299
▁Con	-10.93
▁Statistical	-10.93
▁воды	-10.9307
>=1	-10.9307
▁ИОЛ	-10.9309
<0.01)	-10.931
▁связанн	-10.9313
▁авторск	-10.9314
▁обусловливает	-10.932
▁HADS	-10.9322
▁%)	-10.9324
▁изучении	-10.9324
▁red	-10.9329
▁профилактически	-10.9334
▁свободн	-10.9339
▁стране	-10.9341
▁section	-10.9351
rin	-10.9351
amine	-10.9356
directly	-10.9356
▁стать	-10.9362
СП	-10.9362
57	-10.9364
▁Сред	-10.9367
вирусом	-10.9368
окса	-10.9369
вшие	-10.9369
=3	-10.9384
▁тотальн	-10.9386
▁Перв	-10.9388
летни	-10.9391
ением	-10.9394
▁ba	-10.9394
АД	-10.9395
▁ограниченн	-10.94
▁1,3	-10.9401
▁вод	-10.9408
▁планов	-10.9416
▁наследственн	-10.9417
83	-10.942
▁edge	-10.942
▁limbs	-10.9423
▁ночн	-10.9424
tous	-10.9427
камен	-10.9427
▁obtain	-10.943
▁основание	-10.943
ейся	-10.9433
▁эпи	-10.9439
▁бактериальн	-10.944
▁кафедр	-10.9445
96	-10.9448
▁свои	-10.9452
▁мексидол	-10.9453
▁состоянием	-10.9453
▁снижен	-10.946
▁solve	-10.9462
▁коротки	-10.9464
Ч	-10.9469
тического	-10.9471
уль	-10.9474
ification	-10.9475
▁Trans	-10.9475
дисциплинарн	-10.9475
derived	-10.9475
▁antibacterial	-10.9475
▁believe	-10.9475
▁capabilities	-10.9475
▁decreasing	-10.9475
▁foot	-10.9475
▁stiffness	-10.9475
▁velocity	-10.9475
▁кровопотери	-10.9475
▁операцией	-10.9475
▁fail	-10.9475
▁плоскоклеточн	-10.9475
▁поверхностн	-10.9475
▁рода	-10.9475
▁stabilization	-10.9475
▁равн	-10.9475
▁Diagnosis	-10.9475
▁trigeminal	-10.9475
▁Sixty	-10.9476
▁хроматографии	-10.9476
▁prophylaxis	-10.9476
▁communication	-10.9476
▁гипертензия	-10.9477
▁postural	-10.9477
▁families	-10.9477
▁перегородки	-10.9477
▁тиреоидн	-10.9478
▁возникает	-10.9478
▁staining	-10.9479
▁massive	-10.9482
▁walls	-10.9486
▁окружающе	-10.9486
▁viscer	-10.9486
▁альвеолярн	-10.9487
▁модификации	-10.9488
▁деформации	-10.9488
▁реконструктивны	-10.949
▁баланса	-10.9492
▁21-	-10.9492
▁орбиты	-10.9493
▁complement	-10.9495
oral	-10.9495
▁полиморфизм	-10.9497
▁первым	-10.9498
▁тыс	-10.9501
выраженный	-10.9501
▁0,2	-10.9501
▁начало	-10.9503
▁используем	-10.9503
▁quit	-10.9503
▁transmission	-10.9504
▁иммунн	-10.9504
▁du	-10.9504
▁кафедры	-10.9506
▁недостаточн	-10.9506
▁simultaneously	-10.9506
▁цитофлавина	-10.9511
▁современном	-10.9512
▁исходом	-10.9513
ФС	-10.9516
izing	-10.9517
▁культурн	-10.9518
lymphatic	-10.9518
клон	-10.9519
▁частыми	-10.9522
▁dent	-10.9524
level	-10.9524
▁аутоиммунны	-10.9524
▁одном	-10.9527
▁назальн	-10.9533
▁osteo	-10.9536
▁GC	-10.9538
ish	-10.9538
▁105	-10.9544
NT	-10.9545
▁sites	-10.9546
▁установлены	-10.9549
▁описано	-10.9551
▁BDNF	-10.9551
▁пазухи	-10.9554
ring	-10.9555
▁эпителиальн	-10.9561
▁обладающи	-10.9562
ДА	-10.9562
▁верифицирован	-10.9563
▁эмоциональных	-10.9564
▁plastic	-10.9566
▁ход	-10.9566
▁ХИМ	-10.9569
son	-10.957
3</	-10.9574
▁височн	-10.9575
▁активаци	-10.9579
▁0.3	-10.9579
▁выполн	-10.959
▁thoraco	-10.9594
3-	-10.9609
pect	-10.9623
▁местно	-10.9633
пластика	-10.9634
▁resections	-10.9638
cha	-10.9642
ировали	-10.9643
▁eight	-10.9644
ants	-10.9644
▁caus	-10.9648
▁eyelid	-10.9652
▁feature	-10.9653
ключение	-10.9655
СК	-10.9658
▁science	-10.9663
▁coefficient	-10.9663
▁episode	-10.9664
▁70%	-10.9667
tal	-10.9671
▁научн	-10.9672
ses	-10.9672
,0%	-10.9674
onic	-10.9674
▁молекул	-10.9675
▁o	-10.9678
▁suffer	-10.9679
HI	-10.9679
mol	-10.9681
КП	-10.9686
▁включил	-10.9692
3),	-10.9695
▁list	-10.9696
▁явления	-10.9698
▁создан	-10.9703
▁современным	-10.9703
▁латентн	-10.9705
должен	-10.9706
▁repeat	-10.9707
▁produce	-10.9707
▁random	-10.9707
▁Control	-10.9708
▁brachiocephalic	-10.9708
▁esophagus	-10.9708
▁transient	-10.9708
▁вводили	-10.9708
▁девочек	-10.9708
▁стекловидно	-10.9708
▁lumen	-10.9708
▁pulp	-10.9708
▁cardiomyopathy	-10.9708
▁General	-10.9708
▁Повышен	-10.9708
▁суммарн	-10.9708
▁chest	-10.9708
▁instability	-10.9708
▁awareness	-10.9708
▁satisfaction	-10.9708
▁speed	-10.9708
▁augmentation	-10.9708
▁вариабельности	-10.9709
dy	-10.971
CoV	-10.971
▁gel	-10.9711
long	-10.9711
▁распределен	-10.9711
▁0,7	-10.9712
▁mitochondrial	-10.9712
▁Changes	-10.9712
▁предположение	-10.9712
▁экспрессию	-10.9713
психологическ	-10.9713
▁born	-10.9714
▁восстановлению	-10.9714
▁устранения	-10.9714
▁сети	-10.9715
▁apnea	-10.9715
▁инъекций	-10.9716
be	-10.9717
▁analysed	-10.9717
omas	-10.9717
▁гипертоническ	-10.9717
62	-10.9719
▁дегенерации	-10.9719
▁dentistry	-10.9719
▁гистологических	-10.972
▁alone	-10.9721
▁устойчив	-10.9721
▁сферы	-10.9721
▁contribut	-10.9722
▁производства	-10.9722
▁noise	-10.9723
▁стентирование	-10.9723
▁обоснование	-10.9724
▁обусловлены	-10.9724
ним	-10.9726
▁traits	-10.9727
▁вирусн	-10.9729
▁исходного	-10.973
▁unti	-10.9731
▁низкий	-10.9733
▁пасты	-10.9733
▁сфере	-10.9734
▁вариантами	-10.9736
▁фиброза	-10.9736
▁(50	-10.9737
▁требуется	-10.9739
48	-10.9741
▁contained	-10.9748
▁глазно	-10.9748
▁увеличени	-10.9751
▁TC	-10.9752
▁начале	-10.9754
proliferati	-10.9755
▁множество	-10.9758
cortical	-10.976
пролиферативн	-10.9761
▁AL	-10.9762
ography	-10.9762
▁аффективных	-10.9763
лов	-10.9771
▁литературны	-10.9772
▁негативных	-10.9774
▁rat	-10.9775
▁adapt	-10.9779
▁двигательной	-10.9785
▁изменен	-10.979
The	-10.9792
▁максимальн	-10.9796
▁нейрональн	-10.9803
▁процент	-10.9803
88	-10.9809
▁So	-10.9814
▁мозг	-10.9815
▁(100	-10.9816
▁самым	-10.9817
▁назначени	-10.9819
▁(56	-10.9821
▁обычно	-10.9821
ms	-10.9823
▁Статистически	-10.9829
targeted	-10.983
▁ОКТ	-10.9832
▁targets	-10.9833
▁гнойно	-10.9842
▁trophic	-10.9842
стоит	-10.9843
▁описана	-10.9844
nonspecific	-10.9845
7,	-10.9845
пр	-10.9858
▁структурно	-10.9862
▁spa	-10.9869
овые	-10.9877
чем	-10.9877
▁histo	-10.9877
PP	-10.9878
ство	-10.9879
▁ЛП	-10.988
▁вызыва	-10.9881
▁относительн	-10.9883
ME	-10.9885
▁lobe	-10.9889
▁database	-10.9891
▁выполня	-10.9894
±11	-10.9895
▁modeling	-10.9902
▁дыхательной	-10.9903
▁эффективностью	-10.9908
HA	-10.9912
жив	-10.9915
▁двигательн	-10.9916
▁головокружение	-10.9918
▁ш	-10.9919
reactive	-10.9922
▁questionnaires	-10.9926
▁implement	-10.9926
▁belong	-10.9928
МГ	-10.9933
▁ишемически	-10.9937
▁ICA	-10.9937
-8,	-10.9943
▁vital	-10.9945
▁достигает	-10.9945
uestionnaire	-10.9946
жизнедеятельност	-10.9946
▁ROC	-10.9946
▁pathophysiology	-10.9946
▁temporar	-10.9946
▁ventilation	-10.9946
▁борьб	-10.9946
▁мочи	-10.9946
▁ошибок	-10.9946
▁резидуальн	-10.9946
▁станови	-10.9946
kinetic	-10.9946
▁слезн	-10.9946
▁артериях	-10.9946
▁cholecystitis	-10.9946
▁compensatory	-10.9946
▁путь	-10.9946
▁давности	-10.9946
▁manual	-10.9946
▁Fifty	-10.9946
▁center	-10.9946
▁enhancement	-10.9947
▁dry	-10.9947
▁корнев	-10.9947
▁ложн	-10.9948
▁восприятия	-10.995
▁psychosis	-10.995
▁локализация	-10.9951
почти	-10.9953
▁популяционн	-10.9953
▁использу	-10.9953
cranial	-10.9954
▁molars	-10.9959
▁0.7	-10.996
▁шунтирование	-10.9962
▁aesthetic	-10.9963
▁отростка	-10.9963
▁тромбоз	-10.9963
▁уровню	-10.9964
▁pulse	-10.9965
▁Мексидол	-10.9966
▁постуральн	-10.9966
▁выявило	-10.9967
▁dentures	-10.9968
0,9	-10.9969
▁Пациентам	-10.9972
▁residents	-10.9974
ПО	-10.9977
▁позднем	-10.9977
▁polyps	-10.9979
▁шума	-10.998
ern	-10.998
▁материалы	-10.9981
▁туберкулеза	-10.9981
▁рук	-10.9982
▁процедуры	-10.9984
▁0,8	-10.9986
typ	-10.9988
▁конца	-10.9988
▁конц	-10.9989
▁HCV	-10.999
▁highlighted	-10.999
emic	-10.9995
▁выраженностью	-10.9996
▁stimulate	-10.9997
▁3%	-11.0001
two	-11.0002
енной	-11.0002
mandibula	-11.0004
pharmacological	-11.0008
▁мира	-11.0008
▁supported	-11.0013
▁0.1	-11.0027
▁(35	-11.0033
▁считают	-11.0036
▁аналогов	-11.0039
▁длительной	-11.004
▁КЖ	-11.0043
целесообразности	-11.0045
эктомии	-11.0046
▁Тр	-11.0046
MRI	-11.0055
0,8	-11.0055
▁позволя	-11.0056
plant	-11.0057
▁традиционным	-11.0063
▁хирургическим	-11.0064
▁получающи	-11.0069
ические	-11.0071
tral	-11.008
▁fistulas	-11.0081
продемонстрирова	-11.0085
▁психически	-11.0088
▁компонент	-11.0101
▁examples	-11.0102
чер	-11.0103
▁каждом	-11.0103
avi	-11.0104
▁genesis	-11.0105
▁Petersburg	-11.0108
альные	-11.0121
▁expertises	-11.0122
500	-11.0124
▁грибков	-11.0127
▁альтернативн	-11.0128
▁известны	-11.013
▁места	-11.0132
55	-11.0133
▁culture	-11.0134
▁network	-11.0134
▁decade	-11.0135
▁physician	-11.0135
▁setting	-11.0135
aid	-11.0139
▁trial	-11.0163
▁геном	-11.0164
▁2.5	-11.0165
▁distinguish	-11.0173
▁extend	-11.0173
▁деятельность	-11.0177
har	-11.0179
▁conclude	-11.0181
тора	-11.0181
▁уменьшает	-11.0181
▁актуальным	-11.0182
▁ним	-11.0184
▁миело	-11.0184
▁count	-11.0186
▁illness	-11.0188
металлопротеиназ	-11.019
▁Attention	-11.019
▁Medicine	-11.019
▁changing	-11.019
▁exhibit	-11.019
▁maintenance	-11.019
▁palsy	-11.019
▁polyneuropathy	-11.019
▁whether	-11.019
▁заболевании	-11.019
▁знаний	-11.019
▁коррелировал	-11.019
▁мнению	-11.019
▁отсутствуют	-11.019
▁сексуальн	-11.019
▁селезенки	-11.019
▁транзиторн	-11.019
▁учреждений	-11.019
▁бедра	-11.019
▁cholecystectomy	-11.019
▁irreversible	-11.019
▁coronavirus	-11.019
▁пузыря	-11.019
▁NMDA	-11.019
▁prominen	-11.019
▁пространства	-11.019
▁comorbidities	-11.0191
▁численности	-11.0191
▁immunosuppressi	-11.0191
▁мкг	-11.0191
▁локализацией	-11.0191
▁Particular	-11.0191
▁хрусталика	-11.0191
▁oncological	-11.0193
▁occupational	-11.0193
▁втором	-11.0193
▁тестирования	-11.0194
referred	-11.0194
▁Society	-11.0197
▁наибольше	-11.0198
▁защитн	-11.02
▁continued	-11.0201
▁medial	-11.0203
,9±	-11.0203
▁associations	-11.0204
▁discharged	-11.0206
▁Tak	-11.0207
acting	-11.0207
▁региональн	-11.0207
▁дуги	-11.0207
amp	-11.0209
▁minor	-11.0209
▁microscopic	-11.0211
▁placenta	-11.0212
▁регенерации	-11.0212
▁molecules	-11.0212
07	-11.0214
91	-11.0215
▁пароксизмальн	-11.0217
▁панкреатита	-11.0218
▁psychiatrists	-11.0219
▁0,6	-11.0221
▁размером	-11.0223
▁pathogens	-11.0225
▁работу	-11.0225
NA	-11.0227
▁presentation	-11.0229
▁дебюта	-11.0233
эндоваскулярного	-11.0234
▁(32	-11.0234
▁мексидола	-11.0235
▁собственного	-11.0236
▁эндоскопических	-11.0241
▁nuclear	-11.0242
▁соответствовал	-11.0244
лабораторн	-11.0247
ющийся	-11.0249
воспалительными	-11.0252
основная	-11.0253
):	-11.0253
drug	-11.0254
OCT	-11.0257
89	-11.0258
▁фото	-11.0259
▁Ин	-11.0262
▁постоянно	-11.0265
SO	-11.0267
▁analyses	-11.0269
fa	-11.0269
98	-11.0278
тическим	-11.0278
▁рецептора	-11.0284
▁методу	-11.0285
▁использована	-11.0286
МТ	-11.0289
▁балл	-11.0294
tive	-11.0309
пециализированн	-11.0317
▁femoral	-11.0323
▁капель	-11.0324
chi	-11.0328
ult	-11.0328
▁длительн	-11.0331
▁феномена	-11.0333
▁базисн	-11.0335
68	-11.0339
tri	-11.0345
▁normalize	-11.0355
вропейск	-11.036
±6	-11.0365
▁базов	-11.0365
ЛТ	-11.0373
ca	-11.0373
tech	-11.0374
▁программе	-11.0376
▁дел	-11.0378
▁deformation	-11.0384
phy	-11.0385
▁advantage	-11.0385
▁neoplasm	-11.0386
▁PS	-11.0388
▁соответствующе	-11.039
▁salivar	-11.0392
▁решени	-11.0394
PC	-11.0397
▁инсулино	-11.0405
▁address	-11.0413
▁Об	-11.0413
▁слаб	-11.0425
▁eliminate	-11.0427
▁4%	-11.0429
▁установленным	-11.0429
▁экономическ	-11.0429
▁semi	-11.0434
▁смертность	-11.0434
▁x	-11.0435
▁cranio	-11.044
▁stratifi	-11.044
▁Rankin	-11.044
▁anomalies	-11.044
▁delirium	-11.044
▁histories	-11.044
▁minimum	-11.044
▁Болезнь	-11.044
▁Обобщен	-11.044
▁голоса	-11.044
▁деменцией	-11.044
▁инвалидов	-11.044
▁опухолях	-11.044
▁состоял	-11.044
▁статей	-11.044
▁виртуальн	-11.044
▁apply	-11.044
▁topographic	-11.044
▁полноценн	-11.044
▁software	-11.044
▁закономерности	-11.044
▁iliac	-11.044
▁systematize	-11.044
▁уточнения	-11.044
▁iron	-11.044
▁отравления	-11.044
▁construction	-11.044
▁antiepileptic	-11.044
▁показан	-11.0441
▁pigment	-11.0441
▁Центральн	-11.0441
▁метастазов	-11.0441
▁healthcare	-11.0441
▁распространения	-11.0441
▁fetus	-11.0442
▁тройн	-11.0442
▁анализатора	-11.0442
▁выделения	-11.0443
▁направлении	-11.0443
▁заключается	-11.0443
▁done	-11.0445
▁consistent	-11.0445
hour	-11.0445
▁протека	-11.0445
▁личностн	-11.0445
энцефалографи	-11.0445
▁Пом	-11.0446
▁редк	-11.0446
hydroxy	-11.0446
7,5	-11.0446
botulinum	-11.0447
▁расположенн	-11.0449
▁крысах	-11.0449
▁верификации	-11.045
▁значимым	-11.045
▁нормальной	-11.0451
▁рассеянны	-11.0452
▁поперечн	-11.0452
▁keratoplasty	-11.0452
терапию	-11.0453
▁манифестации	-11.0454
ируем	-11.0454
▁точн	-11.0455
▁расстройствах	-11.0457
▁seems	-11.0462
▁relatives	-11.0463
▁neurologists	-11.0463
▁опухолью	-11.047
▁метаболическим	-11.0471
активных	-11.0472
▁резистентн	-11.0474
▁виды	-11.0478
▁(51	-11.0478
▁формировани	-11.0481
cobacter	-11.0484
▁IgA	-11.0485
▁язвы	-11.0486
▁лобной	-11.0486
▁topic	-11.0486
▁альтернативой	-11.0489
▁неблагоприятным	-11.0491
рат	-11.0491
▁железа	-11.0493
-74	-11.0494
▁contents	-11.0494
▁месте	-11.0497
▁воздействием	-11.0499
▁молекулярны	-11.0502
ero	-11.0503
социальной	-11.0503
▁NS	-11.0504
нести	-11.0505
▁отделе	-11.0506
▁sign	-11.0506
hospital	-11.051
ventricul	-11.0511
▁antibiotics	-11.0518
▁DR	-11.0523
▁латеральн	-11.0524
ПИ	-11.0526
▁полученн	-11.0526
▁ядра	-11.0532
▁содержащих	-11.054
мат	-11.0541
▁SI	-11.0543
▁необходим	-11.0544
▁пигментн	-11.0547
нный	-11.055
▁источник	-11.0558
-100	-11.0563
ред	-11.0566
▁первичным	-11.0566
являться	-11.057
erg	-11.0573
lysis	-11.0577
▁занимают	-11.0577
▁чувствительн	-11.0579
ющими	-11.0579
▁kg	-11.0584
OA	-11.0584
▁разработанной	-11.0589
ран	-11.0592
▁обнаружива	-11.0598
▁причина	-11.0602
-3-	-11.0608
▁сне	-11.0615
hy	-11.0619
офтальм	-11.0621
тепень	-11.0626
▁показаниям	-11.0628
▁своевременной	-11.0629
▁серьезн	-11.0635
▁se	-11.0639
▁option	-11.0642
▁массивн	-11.0645
cho	-11.0652
▁antidepressant	-11.0654
plex	-11.0656
метил	-11.0656
ko	-11.0657
▁развит	-11.0657
рак	-11.0659
▁протокола	-11.0661
▁предмет	-11.0664
life	-11.0664
▁миндалин	-11.0665
▁повышенным	-11.067
eight	-11.0672
прогрессирование	-11.0678
chia	-11.0682
▁virtual	-11.0685
▁(41	-11.069
▁норм	-11.069
▁аппарат	-11.0692
▁воспаление	-11.0696
▁autosomal	-11.0696
▁column	-11.0696
▁consensus	-11.0696
▁evaluating	-11.0696
▁ischaemia	-11.0696
▁marrow	-11.0696
▁reliability	-11.0696
▁trigger	-11.0696
▁Актуальность	-11.0696
▁Изложен	-11.0696
▁апноэ	-11.0696
▁внутричерепн	-11.0696
▁здоровье	-11.0696
▁лучши	-11.0696
▁моляров	-11.0696
▁моторных	-11.0696
▁симптоматика	-11.0696
▁тревожных	-11.0696
▁напряжения	-11.0696
▁умственн	-11.0696
▁accompany	-11.0696
▁ovarian	-11.0696
▁стенок	-11.0696
▁around	-11.0696
▁приводил	-11.0696
▁кислорода	-11.0696
▁expansion	-11.0696
▁respondents	-11.0696
▁смертельн	-11.0696
▁salt	-11.0697
▁оружия	-11.0697
▁соединений	-11.0697
▁шизофреническ	-11.0697
▁worldwide	-11.0697
▁sphere	-11.0697
▁отравлений	-11.0697
▁мышей	-11.0697
▁night	-11.0698
sacral	-11.0698
▁Исследования	-11.0699
▁пользу	-11.0699
▁varied	-11.07
▁биохимических	-11.07
▁лежащи	-11.0701
▁обезболивания	-11.0701
▁демонстрируют	-11.0701
▁НИИ	-11.0702
ie	-11.0702
▁ассоциация	-11.0703
▁viruses	-11.0704
▁Total	-11.0705
▁инъекции	-11.0706
▁внутриклеточн	-11.0706
аются	-11.0708
▁metabolites	-11.0708
▁produced	-11.071
▁снижается	-11.0711
▁Test	-11.0711
▁амплитуды	-11.0712
au	-11.0712
▁century	-11.0713
▁ophthalmic	-11.0713
▁стабилизации	-11.0716
▁кровотечением	-11.0716
▁университета	-11.0717
▁planned	-11.0718
▁representatives	-11.0723
▁ушн	-11.0724
▁algorithms	-11.0727
▁токсическ	-11.0729
▁неба	-11.0732
▁Ou	-11.0732
▁инфекция	-11.0733
▁лекарственного	-11.0733
▁делает	-11.0734
▁starting	-11.0736
▁началом	-11.0737
▁исторически	-11.0737
мед	-11.0741
цы	-11.0741
NP	-11.0744
▁баллонн	-11.0745
▁результатах	-11.0746
pre	-11.075
▁резекций	-11.0754
▁databases	-11.0756
▁vegetative	-11.0758
9%)	-11.076
nic	-11.0761
sk	-11.0763
▁редких	-11.0763
▁art	-11.0765
▁срединн	-11.0765
▁перспектив	-11.0766
ходят	-11.0767
37	-11.0769
▁выявляют	-11.077
oxy	-11.0773
▁порок	-11.0774
▁gl	-11.0777
▁н	-11.0779
virus	-11.0782
▁ВНЧС	-11.0782
▁научного	-11.0784
▁суд	-11.0784
▁New	-11.0786
▁клеточного	-11.0786
▁language	-11.0787
▁toxin	-11.0787
▁вызванны	-11.0789
▁требующи	-11.0791
ergic	-11.0792
▁использова	-11.0792
▁ТТГ	-11.0794
▁препаратам	-11.0795
-11	-11.0797
.0%	-11.0803
▁classifications	-11.0804
▁отдельн	-11.0807
ond	-11.0807
TM	-11.0816
tracellular	-11.0818
▁труда	-11.082
▁k	-11.0822
▁накопление	-11.0824
▁cava	-11.0825
▁канал	-11.0826
ПДР	-11.0829
▁алкогольн	-11.0833
08	-11.0834
▁подобны	-11.0835
preserv	-11.0835
▁zones	-11.0836
▁хирурга	-11.0837
тическая	-11.0839
▁числ	-11.084
▁созда	-11.084
▁непрерывн	-11.084
▁центр	-11.0851
▁(47	-11.0852
▁семей	-11.0854
LD	-11.0855
▁Un	-11.0856
инвазивных	-11.0858
▁courses	-11.0859
гла	-11.0863
▁методах	-11.0872
▁старческой	-11.0874
▁средних	-11.0875
▁organizations	-11.0875
ДК	-11.0878
▁ПР	-11.0884
этому	-11.089
4,5	-11.0897
chemical	-11.0899
SA	-11.09
▁modification	-11.0904
▁challenge	-11.0904
cute	-11.0908
трудоспособности	-11.091
▁цел	-11.0912
▁проведенно	-11.0917
▁предиктор	-11.0918
охранения	-11.0921
▁выполнять	-11.0924
ments	-11.0925
▁visit	-11.0927
=6	-11.0928
▁показателе	-11.0928
▁частичн	-11.0931
▁толщин	-11.0932
▁школьн	-11.0936
▁выступа	-11.0939
▁neurologic	-11.0942
▁advance	-11.0947
73	-11.0947
▁dentin	-11.0955
▁hepato	-11.0957
▁peculiar	-11.0957
фокальн	-11.0958
▁glutamate	-11.0959
▁акцент	-11.0959
parathyroidism	-11.0959
▁Academy	-11.0959
▁antimicrobial	-11.0959
▁circumstances	-11.0959
▁compensation	-11.0959
▁unconscious	-11.0959
▁аномалий	-11.0959
▁ближайши	-11.0959
▁гибели	-11.0959
▁мероприятия	-11.0959
▁непроходимости	-11.0959
▁отверстия	-11.0959
▁поступлении	-11.0959
▁рутинн	-11.0959
▁течении	-11.0959
▁ontogenesis	-11.0959
▁долгосрочн	-11.0959
▁одинаков	-11.0959
▁retinopathy	-11.0959
▁детьми	-11.0959
▁регионов	-11.0959
▁Летальн	-11.096
▁плотность	-11.096
▁emission	-11.096
▁theories	-11.096
▁если	-11.096
▁неврологии	-11.096
▁стандартную	-11.096
LT	-11.0961
▁law	-11.0961
▁папиллярн	-11.0961
▁фрагментов	-11.0962
▁сенсорн	-11.0962
▁bile	-11.0963
▁выявляется	-11.0963
оракоабдоминальн	-11.0963
▁исследователей	-11.0963
▁отек	-11.0965
▁относящ	-11.0967
genous	-11.0968
▁принят	-11.0968
▁обнаружили	-11.0968
▁проводились	-11.0969
▁иммунологически	-11.0969
▁сторону	-11.0969
▁мониторировани	-11.097
▁звена	-11.097
▁infusion	-11.0972
▁dys	-11.0973
▁тонуса	-11.0975
▁выявляли	-11.0975
mediated	-11.0976
▁пептидн	-11.0977
▁поддержки	-11.0978
▁сепсиса	-11.098
ша	-11.0981
▁распространение	-11.0983
▁dentists	-11.0985
▁миниинвазивн	-11.0986
▁navigation	-11.0987
▁зависимостью	-11.0989
▁установки	-11.0989
▁нарастание	-11.099
▁norm	-11.099
▁succinate	-11.0992
▁свойствами	-11.0993
/100	-11.0995
▁OA	-11.0995
▁odonto	-11.0997
2,5	-11.0998
psychopathologic	-11.0999
▁сосудисто	-11.1001
▁achievements	-11.1003
▁подверга	-11.1006
▁мио	-11.1007
▁актуальных	-11.1007
▁расшир	-11.1007
▁(29	-11.1011
▁axon	-11.1011
▁choroid	-11.1012
▁регионах	-11.1014
j	-11.1014
▁larger	-11.1017
▁ДЦП	-11.1017
▁CKD	-11.1019
▁актуальны	-11.1019
▁presentations	-11.1019
▁типом	-11.1021
▁обнаружена	-11.1028
▁spatial	-11.1032
▁ГЭРБ	-11.1032
▁выраженными	-11.1033
▁Возраст	-11.1035
▁одномоментно	-11.1037
▁nor	-11.1037
▁ОНМК	-11.1038
патия	-11.1042
контрольная	-11.1044
▁(45	-11.1044
▁consists	-11.1045
▁получа	-11.1047
cerebral	-11.1048
BF	-11.1052
▁морфологической	-11.1053
ere	-11.1053
▁ВСА	-11.1057
▁программа	-11.1058
65	-11.1059
ОТ	-11.106
CE	-11.1064
SM	-11.1066
six	-11.1066
▁содержанием	-11.1069
▁возникаю	-11.1072
▁железе	-11.1076
que	-11.1077
порт	-11.1078
резистентности	-11.1079
open	-11.1085
▁сложность	-11.1085
▁clinics	-11.1088
▁amyloid	-11.1088
▁пар	-11.1091
protective	-11.1092
▁фиксированн	-11.1095
▁источника	-11.1096
1%)	-11.1099
▁ст	-11.1099
кров	-11.1102
PV	-11.1102
▁подтверди	-11.1104
▁harm	-11.1105
ирует	-11.1107
0,5	-11.1107
▁когнитивно	-11.1108
▁коэффициента	-11.1112
образ	-11.1117
glycemic	-11.1117
▁Де	-11.1124
▁выявил	-11.1128
▁переход	-11.1129
тип	-11.1135
ents	-11.1139
▁forming	-11.1142
▁вызванной	-11.1148
▁Отсутств	-11.1163
81	-11.117
АС	-11.117
▁ventricle	-11.1173
▁ОА	-11.1173
▁цитофлавин	-11.1174
▁Science	-11.1174
▁plate	-11.1178
BCL	-11.1182
▁node	-11.1182
▁акустическ	-11.1183
▁influenc	-11.1185
вшего	-11.1186
биологических	-11.1195
ось	-11.1196
▁внешне	-11.1198
ерии	-11.1198
ON	-11.1198
▁границ	-11.1199
▁shunt	-11.12
▁Заболевани	-11.1208
▁carbon	-11.1208
нефр	-11.1211
пластических	-11.1211
▁leg	-11.1211
▁ДР	-11.1212
▁поведение	-11.1213
▁муко	-11.1214
▁переносимость	-11.1217
▁заболеваемость	-11.1218
▁predominant	-11.1219
▁предполагает	-11.1221
anti	-11.1228
▁врожденным	-11.1229
▁псевдо	-11.123
▁mesenter	-11.123
▁cytoplasm	-11.123
▁Study	-11.123
▁appendicitis	-11.123
▁assay	-11.123
▁categories	-11.123
▁contemporar	-11.123
▁danger	-11.123
▁excision	-11.123
▁fossa	-11.123
▁teaching	-11.123
▁зависел	-11.123
▁инсомнии	-11.123
▁клетками	-11.123
▁недоношенн	-11.123
▁пролиферации	-11.123
▁противоречивы	-11.123
▁слюны	-11.123
▁управления	-11.123
▁предрасположенн	-11.123
▁nephropathy	-11.123
▁conflict	-11.123
▁родственников	-11.123
▁epigenetic	-11.123
▁температуры	-11.123
▁vaccine	-11.123
▁multicenter	-11.123
▁percutaneous	-11.123
▁radiotherapy	-11.123
▁irradiation	-11.123
▁chromosome	-11.123
▁infiltration	-11.123
▁разнообразны	-11.1231
▁pharmaceutical	-11.1231
▁outflow	-11.1231
▁обращения	-11.1231
▁респондентов	-11.1231
▁extracellular	-11.1231
ungian	-11.1231
▁refraction	-11.1231
▁rheumato	-11.1232
▁декомпрессии	-11.1232
▁Подтвержден	-11.1232
▁HLA	-11.1232
▁поведенческих	-11.1232
▁заживления	-11.1232
▁Международн	-11.1233
liac	-11.1233
▁nodules	-11.1233
▁да	-11.1234
Петербурга	-11.1235
▁Oto	-11.1236
▁снизилась	-11.1237
▁2017.	-11.1237
▁центров	-11.1238
▁общепринят	-11.1238
▁лимфоидн	-11.124
▁предотвращения	-11.124
▁demonstrat	-11.124
▁Изменения	-11.1241
▁пом	-11.1241
▁поясничн	-11.1243
▁устройств	-11.1243
▁Sleep	-11.1243
ированы	-11.1245
▁аллеля	-11.1249
▁проведению	-11.1249
▁тестирование	-11.1252
▁отлича	-11.1252
▁родов	-11.1254
▁benefits	-11.1255
микро	-11.1255
▁статья	-11.1256
▁0,3	-11.1256
енных	-11.1257
=7	-11.126
preclinical	-11.1264
▁четырех	-11.1264
психическ	-11.1267
▁депрессивным	-11.1269
АК	-11.1275
▁хорошие	-11.1276
ированные	-11.1279
▁pH	-11.1283
▁размеры	-11.1283
стали	-11.1286
▁ИМТ	-11.1286
▁reflected	-11.129
▁общее	-11.1292
▁amino	-11.1293
▁хирургические	-11.1293
▁артери	-11.1294
▁fluorescence	-11.1295
cation	-11.1295
▁ХБП	-11.1296
▁индексов	-11.1297
▁1,2	-11.1302
▁MoCA	-11.1306
▁тесты	-11.1308
▁once	-11.131
▁трудов	-11.1314
ВП	-11.1318
контроль	-11.1319
двигательн	-11.132
▁ADHD	-11.132
Petersburg	-11.1321
▁neurotic	-11.1321
▁типы	-11.1322
trans	-11.1323
возраст	-11.1323
генетического	-11.1325
▁(28	-11.1327
▁aid	-11.1329
▁устранение	-11.1331
negative	-11.1332
▁разным	-11.1333
▁образ	-11.1333
▁протезирования	-11.1335
МИ	-11.1336
▁психологических	-11.1338
▁AT	-11.1342
▁NSAIDs	-11.1342
▁матриксн	-11.1347
press	-11.1349
▁стрессов	-11.1352
>/	-11.1357
▁Современны	-11.137
▁величин	-11.1372
▁mode	-11.1375
▁responses	-11.1376
tur	-11.1387
▁im	-11.139
▁физиологических	-11.1391
▁ethyl	-11.1392
тические	-11.1398
▁Bio	-11.1402
вает	-11.1403
▁поддержани	-11.1404
▁hypertensive	-11.1405
ОД	-11.1406
▁скрининг	-11.1407
ПМ	-11.1408
▁Endo	-11.1425
щей	-11.1431
сел	-11.1434
▁теле	-11.1436
остояние	-11.1437
▁наблюдаем	-11.1438
▁mandibula	-11.1441
GP	-11.1441
DR	-11.1448
▁phenotype	-11.1452
НК	-11.1453
▁product	-11.1455
▁signal	-11.1457
▁link	-11.1458
▁регуляторн	-11.1459
AH	-11.146
▁Se	-11.146
▁expand	-11.1461
▁коротк	-11.1463
▁кортексин	-11.1465
диагностического	-11.1465
▁ИК	-11.1468
▁pha	-11.147
▁анкет	-11.1472
▁fire	-11.1477
▁staff	-11.1478
▁(37	-11.1478
▁церебрального	-11.1478
▁паст	-11.1479
▁Обоснован	-11.1483
ПБ	-11.1485
ophag	-11.1489
▁сообществ	-11.149
-19,	-11.1491
nine	-11.1496
▁применять	-11.1499
▁пояснично	-11.1499
носят	-11.15
▁завися	-11.1504
▁частым	-11.1505
▁аутосомно	-11.1507
▁adipos	-11.1507
▁displacement	-11.1507
▁glutathione	-11.1507
▁laparoscopy	-11.1507
▁orthopedic	-11.1507
▁osteoporosis	-11.1507
▁septum	-11.1507
▁withdrawal	-11.1507
▁Определ	-11.1507
▁десятилетия	-11.1507
▁ошибки	-11.1507
▁работоспособно	-11.1507
▁сердце	-11.1507
▁спастичности	-11.1507
▁указывают	-11.1507
▁narrow	-11.1507
▁hyperglycemia	-11.1507
▁ресурсов	-11.1508
▁home	-11.1508
▁головк	-11.1508
▁потребность	-11.1508
▁Diagnostic	-11.1508
▁aggregation	-11.1508
▁верхнего	-11.1508
▁million	-11.1508
▁endoscopy	-11.1508
▁preservation	-11.1508
▁controversial	-11.1508
▁дренирование	-11.1509
▁промежуточн	-11.1509
▁stromal	-11.1509
▁второго	-11.1509
▁ascen	-11.151
▁branches	-11.151
▁dilatation	-11.1511
▁заднего	-11.1511
▁обнаружения	-11.1511
▁кровотечений	-11.1511
▁neurology	-11.1513
▁висцеральн	-11.1513
▁thereby	-11.1513
▁поражении	-11.1514
▁специальности	-11.1515
▁cap	-11.1515
▁забрюшинн	-11.1516
▁гл	-11.1516
▁применяться	-11.1516
▁14-	-11.1517
▁интерпретации	-11.1517
▁нейротрофическ	-11.1518
▁предлагаем	-11.1518
▁перфорации	-11.1519
▁Московск	-11.1521
▁adjuvant	-11.1521
▁Intra	-11.1523
▁Ч	-11.1527
▁latent	-11.1528
▁Dec	-11.1528
▁вторично	-11.1529
▁PE	-11.153
▁отрицательны	-11.1533
▁documents	-11.1533
нес	-11.1533
▁включают	-11.1536
▁свища	-11.1537
77	-11.1538
genetically	-11.1541
▁axial	-11.1542
▁месяца	-11.1543
▁parents	-11.1544
генетической	-11.1545
▁дефекты	-11.1546
молекулярных	-11.1546
▁thrombo	-11.1548
▁окислительного	-11.155
▁angio	-11.155
▁программу	-11.1554
▁многом	-11.1555
▁грыжи	-11.1555
▁compounds	-11.1557
▁subgroups	-11.1557
▁Post	-11.1561
▁высоких	-11.157
▁cystic	-11.157
▁CHF	-11.1573
▁первый	-11.1575
▁врожденных	-11.1577
lateral	-11.158
изма	-11.1581
▁такими	-11.1582
▁RF	-11.1583
▁КИ	-11.1585
▁фиброзн	-11.1588
▁электрическ	-11.159
▁IFN	-11.1595
▁units	-11.16
дневн	-11.1606
мерно	-11.1607
▁лабораторно	-11.1607
vertebral	-11.1608
инфекции	-11.1608
▁плазм	-11.1614
▁онкологическ	-11.1614
▁редкого	-11.1614
▁поражениями	-11.1614
▁речевых	-11.1615
▁смен	-11.1616
▁Endoscop	-11.1618
▁antigen	-11.1618
▁фонов	-11.1621
группа	-11.163
>=0.0	-11.1631
▁устройства	-11.1637
ick	-11.1643
ft	-11.1645
▁показала	-11.1666
5-	-11.1668
▁вес	-11.1675
▁Выявленны	-11.1677
2.5	-11.1682
▁прогрессирующим	-11.1683
▁комплексных	-11.1683
▁склероз	-11.1684
▁microcirculat	-11.169
▁протекал	-11.1691
▁populations	-11.1692
▁взросл	-11.1697
degenerative	-11.1699
▁признан	-11.1703
pathogenetically	-11.1704
▁типичн	-11.1721
▁дальнейшее	-11.1725
▁определяют	-11.1726
▁mother	-11.1737
▁trace	-11.1738
▁туберкулез	-11.1744
87	-11.1745
▁мозговых	-11.1748
▁апоптоз	-11.1751
роп	-11.1752
функциональных	-11.1755
▁drop	-11.1763
ward	-11.1767
▁membranes	-11.1768
tended	-11.1768
tu	-11.1768
▁способствующи	-11.177
MI	-11.177
стен	-11.177
▁провоспалительн	-11.1773
▁получавши	-11.178
▁rest	-11.178
▁ВА	-11.1781
los	-11.1782
▁регрессионн	-11.1782
▁четыре	-11.1783
ova	-11.1787
▁используют	-11.1787
вид	-11.1789
▁bacteria	-11.179
▁пневмо	-11.1791
▁addresse	-11.1792
▁exclude	-11.1793
interstitial	-11.1793
▁chamber	-11.1793
▁encephalitis	-11.1793
▁enough	-11.1793
▁hyperplasia	-11.1793
▁impossible	-11.1793
▁influenza	-11.1793
▁leptin	-11.1793
▁width	-11.1793
▁Оценен	-11.1793
▁аминокислот	-11.1793
▁бодрствования	-11.1793
▁яичников	-11.1793
▁EDSS	-11.1793
▁held	-11.1793
▁thorough	-11.1793
▁мнение	-11.1793
▁окраск	-11.1793
▁опухолевой	-11.1793
▁sometimes	-11.1793
▁мануальн	-11.1793
▁сигнальн	-11.1793
▁судорожн	-11.1793
▁latency	-11.1793
neurotransmitter	-11.1793
▁exudative	-11.1793
▁burden	-11.1793
▁anastomoses	-11.1793
▁team	-11.1793
▁излучения	-11.1793
polar	-11.1793
▁противовирусн	-11.1793
▁выписан	-11.1793
▁exclusion	-11.1793
▁share	-11.1793
▁Time	-11.1793
▁стромальн	-11.1793
▁elevation	-11.1794
lingual	-11.1794
▁amyloidosis	-11.1794
▁Possibl	-11.1794
▁labor	-11.1794
▁parathyroid	-11.1794
▁стентирования	-11.1794
▁белок	-11.1794
▁masticat	-11.1794
▁pass	-11.1794
▁existence	-11.1794
▁Laparoscopic	-11.1794
▁психотерапии	-11.1795
▁neurosurgery	-11.1795
▁ablation	-11.1795
▁РНК	-11.1795
▁студентов	-11.1796
▁исследованию	-11.1796
▁употребления	-11.1798
▁нормального	-11.1798
▁выборки	-11.1798
▁жалобами	-11.1799
▁мозжечка	-11.1799
▁concerned	-11.18
BM	-11.1801
▁площадь	-11.1801
▁влияют	-11.1801
▁adjacen	-11.1801
▁высокоэффективн	-11.1802
▁синтетически	-11.1804
▁генотипов	-11.1804
▁контексте	-11.1804
▁компенсации	-11.1804
▁namely	-11.1804
▁классов	-11.1805
▁участия	-11.1806
▁статистики	-11.1808
▁intellectual	-11.1808
hip	-11.181
income	-11.1811
▁приступы	-11.1812
▁энцефалопатии	-11.1812
▁SM	-11.1813
пластики	-11.1814
▁капсулы	-11.1814
▁считается	-11.1815
▁снижал	-11.1817
▁безопасн	-11.1822
▁restored	-11.1822
▁sequencing	-11.1823
ready	-11.1825
▁отмечали	-11.1826
РТ	-11.1826
▁врачами	-11.1826
месячных	-11.1831
▁variations	-11.1831
▁пациенту	-11.1833
▁повреждением	-11.1834
▁summarized	-11.1835
▁ММП	-11.1838
▁Multiple	-11.1839
▁взрослого	-11.1851
▁приступа	-11.1852
▁длительное	-11.1854
▁Сам	-11.1861
▁труд	-11.1863
▁Че	-11.1864
▁редукци	-11.1865
▁пла	-11.1867
▁modify	-11.1867
▁СДВГ	-11.1868
▁структурах	-11.1869
▁имеется	-11.187
▁ними	-11.1871
▁одномоментн	-11.1874
ility	-11.1874
▁пластин	-11.1874
▁спектральн	-11.1876
специфическ	-11.1878
▁обследован	-11.188
medical	-11.188
▁выделенн	-11.1882
▁международны	-11.1885
▁Проводили	-11.1886
▁ALS	-11.189
economic	-11.189
▁изучен	-11.189
▁par	-11.1894
hypertensive	-11.1901
known	-11.1901
▁нм	-11.1902
ФР	-11.1903
±12	-11.1906
▁диабете	-11.1906
▁регулярн	-11.1907
▁выраженная	-11.1908
уш	-11.1908
▁персон	-11.191
▁диск	-11.1911
▁класс	-11.1915
▁процессами	-11.1917
▁немедикаментозн	-11.1919
▁осуществлен	-11.1919
.0%)	-11.1926
rus	-11.1935
▁специализирова	-11.1936
▁гетерогенн	-11.1938
▁MCI	-11.1941
▁en	-11.1942
▁Данны	-11.1942
ФП	-11.1948
▁регистра	-11.1948
▁важнейши	-11.1949
емые	-11.1949
MF	-11.1952
▁departments	-11.1953
нная	-11.1955
ЭМ	-11.1962
▁организм	-11.1964
▁деструктивн	-11.1965
▁расчета	-11.1966
НИ	-11.1966
▁коэффициент	-11.1967
▁grafts	-11.1969
▁описанны	-11.1972
▁травматическ	-11.1978
▁частот	-11.1989
хороший	-11.1989
glial	-11.1992
▁коленн	-11.1992
▁масса	-11.1995
▁103	-11.1995
▁применяют	-11.1996
▁macro	-11.1997
▁чрескожн	-11.1998
▁выстрела	-11.2002
ГА	-11.2007
▁рецептор	-11.2009
RF	-11.2014
▁MR	-11.2017
ВР	-11.2019
▁granuloma	-11.2021
▁ежедневно	-11.2021
ают	-11.2022
10)	-11.2022
уса	-11.2025
-25	-11.2027
late	-11.203
vers	-11.2031
▁district	-11.2031
медицинская	-11.2033
▁et	-11.2035
▁комплексе	-11.2036
▁evolution	-11.2037
иль	-11.2041
genesis	-11.2045
zh	-11.2047
▁успех	-11.2052
▁analyz	-11.2057
▁achiev	-11.2057
▁гранулем	-11.2058
▁purposes	-11.2059
-2.	-11.2062
ascular	-11.2065
▁соотношение	-11.2068
▁органическ	-11.2071
do	-11.2074
▁ткань	-11.2074
▁динамическ	-11.208
▁гепато	-11.2085
▁те	-11.2085
▁Combin	-11.2087
anuary	-11.2087
опосредованн	-11.2087
▁embolism	-11.2087
▁false	-11.2087
▁frailty	-11.2087
▁obvious	-11.2087
▁terminology	-11.2087
▁информация	-11.2087
▁низкая	-11.2087
▁ноофен	-11.2087
▁преждевременн	-11.2087
▁пролечен	-11.2087
▁усталости	-11.2087
▁эпизодов	-11.2087
▁январ	-11.2087
▁ethanol	-11.2087
▁mouth	-11.2087
aerobic	-11.2087
▁members	-11.2087
▁audiometry	-11.2087
▁vaccination	-11.2087
▁понятие	-11.2087
▁terminal	-11.2087
▁thyrotoxicosis	-11.2087
▁систематизирова	-11.2087
▁гипертонии	-11.2087
▁дренирования	-11.2087
▁справа	-11.2087
▁citizens	-11.2087
▁морфологии	-11.2087
▁hematoma	-11.2088
▁плода	-11.2088
▁единичны	-11.2088
▁химиотерапии	-11.2088
▁neuroendocrine	-11.2088
▁weakness	-11.2088
▁восходяще	-11.2088
septic	-11.2089
▁пассивн	-11.2089
▁участников	-11.209
▁Four	-11.209
▁priority	-11.209
▁mandat	-11.2091
▁полость	-11.2091
▁участков	-11.2091
▁дна	-11.2092
▁More	-11.2092
▁шейного	-11.2092
▁изготовления	-11.2093
▁sufficient	-11.2095
▁approximate	-11.2095
▁превентивн	-11.2096
▁Диагностика	-11.2097
▁приходит	-11.2098
▁остаточн	-11.2098
▁миопии	-11.2098
профилактически	-11.21
▁ног	-11.2101
▁низки	-11.2102
▁дофаминов	-11.2103
экономическ	-11.2104
гидрокси	-11.2105
▁тр	-11.2105
Evaluation	-11.2106
▁структурные	-11.2107
▁anemia	-11.2109
▁периферического	-11.211
▁inpatient	-11.2111
produc	-11.2111
genetic	-11.2113
spe	-11.2113
▁рождения	-11.2114
▁учреждениях	-11.2115
▁глаукомой	-11.2115
▁последствиями	-11.2115
▁subtypes	-11.2116
▁ангио	-11.2116
▁рассматрива	-11.2117
▁androgen	-11.2119
lation	-11.2123
▁(24	-11.2123
▁refer	-11.2124
▁tablets	-11.2125
▁осложнением	-11.2129
ретин	-11.2129
▁психотерапевт	-11.2131
▁отказа	-11.2135
▁единственным	-11.2137
▁офтальмологии	-11.2138
▁четк	-11.2138
▁ухе	-11.2139
▁хирургическая	-11.2144
▁средствами	-11.2145
ассоциированной	-11.2148
▁Ro	-11.215
▁имела	-11.215
▁НМ	-11.2151
▁медиальн	-11.2156
▁позвоночн	-11.2157
▁poorly	-11.2158
▁РАС	-11.2158
▁108	-11.2159
▁PH	-11.2162
▁tumours	-11.2164
▁оказывал	-11.2169
месячн	-11.2169
▁прогнозом	-11.2169
▁обоснован	-11.2174
▁EG	-11.2175
▁план	-11.2175
▁Вмест	-11.2175
otic	-11.2176
▁значимой	-11.2177
▁IOP	-11.218
▁ан	-11.2186
▁2003	-11.219
GA	-11.219
rimary	-11.2194
▁нейроэндокринн	-11.2198
▁Указан	-11.22
▁ET	-11.22
ирован	-11.2201
инфекцией	-11.2202
emotional	-11.2204
▁трудно	-11.2205
component	-11.2206
▁процессах	-11.2206
three	-11.2206
РА	-11.2206
ЛК	-11.2207
рецепторов	-11.2208
▁ядерн	-11.2208
depressive	-11.2209
rehabilitation	-11.221
ICD	-11.2214
▁НПВП	-11.2221
▁12%	-11.2222
▁объективно	-11.2232
▁височно	-11.2236
▁позволяюще	-11.2239
▁диаметр	-11.2244
▁ведущ	-11.2245
▁располага	-11.2247
смотр	-11.2248
▁autolog	-11.225
noid	-11.2252
▁ГА	-11.2253
▁pharyngeal	-11.2254
▁возрастает	-11.2263
▁старческом	-11.2263
▁стационарно	-11.2263
▁ретроспективн	-11.2268
▁техника	-11.227
ГК	-11.2273
-67,	-11.2273
let	-11.2275
DF	-11.2275
проанализировать	-11.2278
▁programme	-11.228
▁достига	-11.228
▁AA	-11.2285
BD	-11.2292
▁кратк	-11.2295
РИ	-11.2296
метрии	-11.2298
▁аналитическ	-11.2305
троф	-11.2311
ированию	-11.2317
▁Ча	-11.2319
▁metastat	-11.2324
▁reactive	-11.2324
йровизуализации	-11.2325
▁Ab	-11.2327
ogenesis	-11.2327
IT	-11.2328
▁tim	-11.233
▁Cu	-11.2331
▁passage	-11.2334
▁violation	-11.2335
▁image	-11.2335
▁seizure	-11.2336
▁гисто	-11.2341
▁стадия	-11.2341
▁1,8	-11.2345
AK	-11.2345
▁тесно	-11.2348
9).	-11.2352
▁обработк	-11.2352
95	-11.2358
▁затрат	-11.236
▁наук	-11.2361
▁системой	-11.2364
▁1,4	-11.2368
▁nm	-11.2368
king	-11.237
▁бессимптомн	-11.2372
▁слов	-11.2373
▁Ka	-11.2373
▁protect	-11.2377
▁Recent	-11.2378
вес	-11.2383
coding	-11.2383
ский	-11.2383
▁ГБ	-11.2384
▁branch	-11.2387
▁reflex	-11.2388
▁gingival	-11.239
stead	-11.239
▁frame	-11.239
▁падения	-11.239
▁Examination	-11.239
▁Indications	-11.239
▁Kretschmer	-11.239
▁Mortality	-11.239
▁Organization	-11.239
▁carriers	-11.239
▁exchange	-11.239
▁indicating	-11.239
▁inguinal	-11.239
▁little	-11.239
▁maximal	-11.239
▁mixture	-11.239
▁mmHg	-11.239
▁modalities	-11.239
▁personnel	-11.239
▁retention	-11.239
▁testosterone	-11.239
▁tobacco	-11.239
▁understood	-11.239
▁Республике	-11.239
▁Республики	-11.239
▁депрессий	-11.239
▁инородн	-11.239
▁кадров	-11.239
▁кальция	-11.239
▁перекисно	-11.239
▁спине	-11.239
▁стадией	-11.239
▁тестостерона	-11.239
▁челюстей	-11.239
▁adopt	-11.239
▁considerably	-11.239
▁solid	-11.239
▁гипоксии	-11.239
▁живота	-11.239
▁Long	-11.239
▁коронавирусн	-11.239
▁принимали	-11.239
▁mesenchymal	-11.239
▁schizophrenic	-11.239
▁отобран	-11.239
▁происшествия	-11.239
▁целях	-11.239
▁колеб	-11.239
▁engage	-11.239
▁потеря	-11.239
▁взаимодействие	-11.2391
▁регионе	-11.2391
▁хотя	-11.2391
clavi	-11.2391
▁волос	-11.2391
▁восстанавлива	-11.2391
▁mood	-11.2391
▁gerontology	-11.2391
moya	-11.2392
▁fibrous	-11.2392
▁стандарта	-11.2392
▁Освещен	-11.2393
нтов	-11.2393
▁ограничений	-11.2393
▁microsurgical	-11.2394
▁интерлейкина	-11.2396
▁экзогенн	-11.2396
▁disabled	-11.2396
▁standardized	-11.2396
▁Эта	-11.2397
▁доступности	-11.2397
▁выработк	-11.2397
▁discovered	-11.2397
▁трубы	-11.2398
ней	-11.2399
оподобн	-11.2399
▁мягк	-11.2399
▁стопы	-11.2402
▁приступами	-11.2403
▁остальных	-11.2404
▁humans	-11.2404
▁осуществлять	-11.2406
визуализационных	-11.2406
▁шейк	-11.2406
▁основная	-11.2408
▁puncture	-11.2412
ировал	-11.2414
▁burn	-11.2417
▁orientation	-11.2417
▁тяжелое	-11.2418
3,7	-11.2418
▁женского	-11.242
▁новым	-11.2423
роз	-11.2425
▁ситуациях	-11.2426
▁эндартерэктомии	-11.2426
▁сосудах	-11.2426
▁деструкции	-11.2426
▁lethal	-11.2427
▁belonging	-11.2427
▁врожденного	-11.2429
▁0,4	-11.243
▁encod	-11.2432
▁цели	-11.2432
▁керато	-11.2432
▁thromboemboli	-11.2432
▁bring	-11.2432
▁MOG	-11.2434
▁спинальн	-11.2434
▁выражены	-11.2434
▁thin	-11.2435
равнение	-11.2436
ТК	-11.2437
▁перехода	-11.2438
▁СП	-11.2442
▁представление	-11.2442
▁Ни	-11.2442
▁сильн	-11.2444
▁патологическ	-11.2447
МЭ	-11.2448
til	-11.2453
кишечн	-11.2455
▁biomechanic	-11.2456
677	-11.2456
▁ХГП	-11.2458
BCA	-11.2459
phen	-11.246
sky	-11.2462
▁бедренно	-11.2466
протектор	-11.2471
▁биологически	-11.2482
ления	-11.2488
sectional	-11.2492
▁Нейро	-11.2493
▁catheter	-11.2493
ичного	-11.2495
▁сух	-11.2496
▁контраст	-11.2496
▁вариантах	-11.2498
▁ВГД	-11.2498
▁выявля	-11.2499
▁электронной	-11.2502
ene	-11.2503
▁стандартны	-11.2508
rea	-11.251
онных	-11.251
▁адекватного	-11.2512
seven	-11.2515
отомии	-11.2517
intensity	-11.2518
neurological	-11.2519
four	-11.2519
onset	-11.2519
▁гранулематоз	-11.252
▁эндотели	-11.2521
IP	-11.2525
мента	-11.2526
▁inhibit	-11.2527
▁AS	-11.2527
ard	-11.2528
▁minimize	-11.2528
либо	-11.2531
▁Ha	-11.2532
▁форму	-11.2532
▁(1)	-11.2533
ический	-11.2534
ющее	-11.2537
▁анализом	-11.2538
▁заключа	-11.2539
angle	-11.2539
▁нарастани	-11.2541
ГЭ	-11.2542
▁layers	-11.2542
бедренной	-11.2544
йти	-11.2544
▁установк	-11.2547
oL	-11.2556
▁обще	-11.256
▁стал	-11.2563
▁нормативн	-11.2563
▁Снижени	-11.2563
МО	-11.2566
▁высоки	-11.2569
▁CSF	-11.2569
3,3	-11.257
▁Выбор	-11.2572
▁антиген	-11.2573
genital	-11.2577
tosis	-11.2588
видетельствующие	-11.2591
патологической	-11.2593
▁ключевым	-11.2593
▁опорно	-11.2593
▁определять	-11.2597
▁вовлечени	-11.2598
▁генетические	-11.2599
▁fr	-11.26
5).	-11.2604
ual	-11.2605
▁(59	-11.2606
▁mi	-11.2609
-1)	-11.261
▁SE	-11.2612
ates	-11.2615
▁затрудня	-11.2616
ства	-11.2618
▁ФГБ	-11.2622
oli	-11.2622
клин	-11.2624
▁индивидуального	-11.2625
▁(80	-11.2626
▁Ph	-11.2626
CM	-11.2629
▁near	-11.2631
▁115	-11.2632
▁резерв	-11.2633
oster	-11.2635
=20)	-11.2639
ET	-11.264
▁valu	-11.2641
▁повторно	-11.2643
▁cadaver	-11.2646
▁toothpaste	-11.2647
▁suture	-11.2647
▁compound	-11.2648
▁victim	-11.2648
▁алло	-11.2651
▁крупн	-11.2651
▁subgroup	-11.2652
▁аневризмой	-11.2652
КБ	-11.2654
ethyl	-11.2656
▁легко	-11.2659
over	-11.2661
▁PT	-11.2667
▁ca	-11.2674
▁СТ	-11.268
сон	-11.2686
▁kidneys	-11.2687
▁thi	-11.2687
▁surviv	-11.2688
▁nutrition	-11.2688
▁broad	-11.2688
▁причинно	-11.269
▁хроническом	-11.2691
▁буду	-11.2692
▁вирус	-11.2693
▁name	-11.2694
▁criminal	-11.2695
▁трети	-11.2697
gun	-11.2697
▁hemisphere	-11.2698
▁Цитофлавин	-11.2699
▁participate	-11.2701
▁усиление	-11.2702
евой	-11.2702
orld	-11.2702
▁пищев	-11.2702
анатомо	-11.2703
coemulsification	-11.2703
evertheless	-11.2703
▁Bureau	-11.2703
▁Complex	-11.2703
▁benefic	-11.2703
▁ischaemic	-11.2703
▁malignancy	-11.2703
▁measuring	-11.2703
▁predisposition	-11.2703
▁territory	-11.2703
▁wakefulness	-11.2703
▁Подчеркнут	-11.2703
▁добровольцев	-11.2703
▁жирны	-11.2703
▁картину	-11.2703
▁юношеск	-11.2703
▁Consider	-11.2703
▁sharp	-11.2703
▁звенья	-11.2703
▁перфоративн	-11.2703
▁предполагаем	-11.2703
▁противоположн	-11.2703
▁допплеровск	-11.2703
▁мультиспиральн	-11.2703
▁Histological	-11.2703
▁equivalent	-11.2703
▁микробиоты	-11.2703
▁термическ	-11.2703
▁margin	-11.2703
▁axis	-11.2703
▁бета	-11.2703
▁пептидов	-11.2703
▁исключением	-11.2703
▁нейропатическ	-11.2703
▁теломер	-11.2703
▁междисциплинарн	-11.2703
▁таргетн	-11.2703
▁внутримышечно	-11.2703
▁reverse	-11.2703
▁intracerebral	-11.2704
▁Клиническая	-11.2704
▁подбор	-11.2704
▁intranasal	-11.2704
▁аномалиями	-11.2705
▁passive	-11.2705
▁встречались	-11.2706
▁Рэнкина	-11.2706
▁тенденцию	-11.2707
▁конструкции	-11.2707
▁сыворотки	-11.2707
▁manag	-11.2707
▁суток	-11.2707
▁документов	-11.2707
teen	-11.2708
▁регрессии	-11.2708
▁принципов	-11.2708
▁ineffective	-11.2709
▁физиотерапии	-11.2709
▁Main	-11.2709
▁fourth	-11.2709
▁эндокринной	-11.271
▁Hz	-11.271
▁кровоизлияния	-11.271
▁athletes	-11.2711
▁Oral	-11.2711
▁Sub	-11.2712
▁25(	-11.2713
▁статистический	-11.2713
▁act	-11.2715
жде	-11.2715
▁нарушению	-11.2716
▁establishment	-11.2717
ACS	-11.2718
▁организаций	-11.2718
▁КС	-11.272
▁arrhythmias	-11.2721
▁Доказано	-11.2721
пато	-11.2722
▁spastic	-11.2722
▁небны	-11.2723
▁gliomas	-11.2723
▁экономически	-11.2723
▁relapsing	-11.2724
▁опроснику	-11.2724
▁АС	-11.2725
▁implemented	-11.2725
▁herpes	-11.2727
▁холестеатомы	-11.2728
▁vena	-11.2728
▁Five	-11.2734
▁параметрами	-11.2737
▁контактн	-11.2737
▁теме	-11.2738
▁enter	-11.2739
▁науки	-11.2739
▁головокружением	-11.274
▁obtaining	-11.2743
2,4	-11.2744
невр	-11.2745
,0±	-11.2752
▁аденомы	-11.2752
▁TA	-11.2754
▁signaling	-11.2757
▁появи	-11.2761
▁участвующи	-11.2762
▁ЦСЖ	-11.2767
▁вариантом	-11.2767
▁challenges	-11.2769
▁соматической	-11.2773
▁кисты	-11.2776
▁GERD	-11.2778
▁нарушениям	-11.2778
▁риски	-11.2781
▁судебн	-11.2781
▁peak	-11.2784
▁heat	-11.2785
▁Особенность	-11.2786
▁attempts	-11.2789
▁свободного	-11.279
иммунного	-11.2793
▁(60	-11.2794
АО	-11.2799
▁CAD	-11.28
лем	-11.28
▁ограничен	-11.2802
▁инструмента	-11.2803
▁базисной	-11.2804
▁карцином	-11.2805
▁CVD	-11.2806
▁наш	-11.2807
дов	-11.2808
НП	-11.2816
▁доказательства	-11.2817
▁факторам	-11.2822
▁связанной	-11.2825
российских	-11.2826
нят	-11.2831
эндоваскулярн	-11.2834
▁обязательн	-11.2835
опросник	-11.2839
orbital	-11.284
▁199	-11.284
contain	-11.284
▁Пол	-11.2841
клеток	-11.2841
quality	-11.2841
high	-11.2842
0,6	-11.2842
organic	-11.2843
овая	-11.2845
pulmonary	-11.2845
▁ПА	-11.2847
▁высоком	-11.2851
▁180	-11.2852
▁вмешательствах	-11.2854
OX	-11.2855
ообразн	-11.2855
▁AC	-11.2856
are	-11.2865
томии	-11.2866
вит	-11.2874
▁адекватно	-11.2875
▁полезн	-11.2877
▁изменениям	-11.2879
▁opportunit	-11.288
▁подгрупп	-11.2885
Met	-11.2895
▁ЭТ	-11.2896
▁агрессивн	-11.2901
▁повышени	-11.2902
▁быстрое	-11.2906
▁Проводи	-11.2908
▁срока	-11.2908
-14	-11.2913
▁блок	-11.2924
▁иммунологическ	-11.2926
множественных	-11.2928
▁иници	-11.2931
ometric	-11.2935
gra	-11.2936
▁фермент	-11.294
limiting	-11.2942
▁плечево	-11.2943
▁GA	-11.2944
▁создает	-11.2945
arach	-11.2949
ДТ	-11.2955
▁damages	-11.2956
▁(200	-11.2963
см	-11.2964
▁pleura	-11.2969
▁ga	-11.297
▁localiz	-11.2975
5,4	-11.2977
▁allowing	-11.2982
stern	-11.2984
▁основы	-11.2987
▁преоблада	-11.2987
▁GP	-11.2989
▁матери	-11.2991
мор	-11.2993
меняются	-11.2995
зарегистрировано	-11.2996
дифференцированн	-11.2999
▁приводяще	-11.3001
ЭС	-11.3007
▁глутатион	-11.3008
ositive	-11.3012
1).	-11.3013
ow	-11.3013
peptide	-11.3015
▁hydro	-11.3017
▁careful	-11.3018
▁35%	-11.3022
▁abscess	-11.3023
▁Low	-11.3025
▁Siberia	-11.3025
▁anamnesis	-11.3025
▁cicatric	-11.3025
▁crucial	-11.3025
▁extremity	-11.3025
▁frequencies	-11.3025
▁ganglia	-11.3025
▁jaundice	-11.3025
▁juvenile	-11.3025
▁levodopa	-11.3025
▁manuscript	-11.3025
▁morning	-11.3025
▁nuclei	-11.3025
▁occlusal	-11.3025
▁pancreatectomy	-11.3025
▁reliably	-11.3025
▁return	-11.3025
▁sequential	-11.3025
▁sphincter	-11.3025
▁traffic	-11.3025
▁unclear	-11.3025
▁гестации	-11.3025
▁здоровью	-11.3025
▁кишке	-11.3025
▁коррекцию	-11.3025
▁оболочке	-11.3025
▁операцию	-11.3025
▁потребления	-11.3025
▁улитки	-11.3025
▁patent	-11.3025
▁соавт	-11.3025
▁anxiolytic	-11.3025
▁pineal	-11.3025
▁геронтологии	-11.3025
▁кортизола	-11.3025
▁defense	-11.3025
▁Classification	-11.3025
▁airway	-11.3026
▁микроРНК	-11.3026
▁пальцев	-11.3026
▁nasola	-11.3026
▁formulation	-11.3026
▁трехмерн	-11.3026
▁kind	-11.3026
ющий	-11.3026
▁Intraoperative	-11.3026
▁планирования	-11.3026
▁принадлежности	-11.3026
▁microbiological	-11.3026
▁rural	-11.3026
физиологических	-11.3026
▁дофаминергическ	-11.3026
▁отличия	-11.3026
▁ретинальн	-11.3027
▁antiviral	-11.3027
▁неинфекционн	-11.3027
▁overweight	-11.3027
▁соотношени	-11.3027
▁получала	-11.3028
▁навыков	-11.3028
formed	-11.3028
▁chose	-11.3028
▁alcoholism	-11.3028
▁алкоголем	-11.3029
▁двухэтапн	-11.3029
▁сегментов	-11.3029
▁есть	-11.3029
▁конструкций	-11.3029
▁(20%)	-11.3029
▁get	-11.3029
▁мышления	-11.3029
параноидной	-11.3029
▁квалификации	-11.3029
▁дополнение	-11.3029
▁integration	-11.303
conduction	-11.303
=0,02	-11.303
▁Was	-11.303
▁analyst	-11.3031
▁ценность	-11.3031
▁отсутствует	-11.3031
▁биопсии	-11.3032
▁accumulated	-11.3032
wake	-11.3032
▁Studie	-11.3032
▁ensur	-11.3032
▁Care	-11.3033
▁ремоделирования	-11.3033
▁prepared	-11.3033
▁болей	-11.3033
▁classes	-11.3035
▁единственно	-11.3036
▁независимы	-11.3038
озом	-11.3038
▁Общ	-11.304
reperfusion	-11.304
действии	-11.304
▁заместительн	-11.3041
CCI	-11.3041
▁lowest	-11.3042
▁стандартом	-11.3042
лево	-11.3042
▁ведет	-11.3045
▁embolization	-11.3047
▁mini	-11.3048
▁хряща	-11.3048
▁Hg	-11.3049
▁базах	-11.3051
▁сохранени	-11.3051
▁covered	-11.3053
▁interferon	-11.3053
▁market	-11.3053
▁определена	-11.3055
▁карциномы	-11.3057
▁распределение	-11.3058
▁затраты	-11.3058
▁величины	-11.3061
▁ультразвуковое	-11.3062
▁сокращения	-11.3062
vol	-11.3064
▁ускоренн	-11.3067
▁зрелого	-11.3068
▁решений	-11.3068
▁интракраниальн	-11.3069
▁неотложной	-11.307
▁сроках	-11.3072
поддержания	-11.3072
▁MTHFR	-11.3072
1,0	-11.3072
СГ	-11.3074
-6-	-11.3075
▁ЛАГ	-11.3075
▁просвета	-11.3077
▁причинами	-11.3078
▁CABG	-11.3078
▁отрицательно	-11.308
▁acts	-11.3083
▁сопоставление	-11.3084
▁инфекционно	-11.3085
ице	-11.3087
▁drops	-11.3088
▁initially	-11.3092
▁достигнута	-11.3098
▁БАС	-11.3099
▁анестезиологи	-11.3101
▁хорош	-11.3103
овидн	-11.3104
кроме	-11.3105
▁методически	-11.3107
▁orbit	-11.3108
▁ангиографии	-11.3109
Glu	-11.311
▁совместно	-11.3113
▁признака	-11.3114
▁темп	-11.3115
▁alleles	-11.312
▁робот	-11.3123
▁желудочков	-11.3123
<0,0001)	-11.3124
▁обоснова	-11.3129
▁TSH	-11.3131
▁осмотра	-11.3134
▁акустически	-11.3135
▁метаболические	-11.3136
ana	-11.3138
>0,05).	-11.3141
▁inpatients	-11.3142
▁positional	-11.3144
ших	-11.3144
▁пока	-11.3145
▁CE	-11.3146
▁исследова	-11.3153
кус	-11.3153
воспалительного	-11.3155
показанием	-11.3159
▁характеристикам	-11.316
лучшение	-11.3164
мышечн	-11.3165
mentioned	-11.3169
част	-11.3172
▁устойчивость	-11.3172
стимуляции	-11.3173
step	-11.3173
thyroid	-11.3174
лучев	-11.3174
▁ингибитора	-11.3174
blood	-11.3175
▁devices	-11.3178
▁лицев	-11.3178
▁relations	-11.3179
ума	-11.3179
CSF	-11.3179
▁foundation	-11.3183
ati	-11.3185
иммунологических	-11.3185
▁схеме	-11.3186
▁parenchyma	-11.3188
▁genotypes	-11.3188
▁объекта	-11.3192
><0,05)	-11.3195
▁улучша	-11.3205
▁образу	-11.3206
▁вестибуло	-11.3211
▁эмоционально	-11.3214
под	-11.3214
▁распространен	-11.3216
оцен	-11.3223
▁объективной	-11.3228
▁воздействи	-11.3232
ируемых	-11.3233
▁flu	-11.3233
▁дают	-11.3237
=0.03	-11.3241
▁arise	-11.3242
▁рассеянном	-11.3245
▁генетического	-11.3248
▁значительным	-11.3253
▁нарушени	-11.3256
▁positions	-11.3258
▁24%	-11.3262
▁she	-11.3262
▁СК	-11.3263
▁ряду	-11.3264
trophic	-11.3271
-40	-11.3271
клад	-11.3277
▁125	-11.3278
▁фенотип	-11.3287
▁ранне	-11.3291
▁opening	-11.3291
▁hemi	-11.3297
atin	-11.3299
состоятельности	-11.3301
▁усовершенствова	-11.3302
▁solutions	-11.3303
▁tear	-11.3304
▁глазах	-11.3306
▁achievement	-11.3306
▁просвет	-11.3307
±0,1	-11.3311
link	-11.3317
▁ситуация	-11.332
▁обществ	-11.3321
ultidisciplinary	-11.3321
▁rule	-11.3322
▁hemo	-11.3323
ural	-11.3325
▁незначительно	-11.3325
▁школ	-11.3327
мени	-11.3327
▁служб	-11.3328
ритм	-11.333
▁CO	-11.3331
▁weak	-11.3334
арди	-11.3335
▁гидро	-11.3336
анализ	-11.3343
▁артрит	-11.3346
▁gradual	-11.3346
altered	-11.3347
▁SR	-11.3347
зу	-11.3347
▁РН	-11.3351
▁anatomic	-11.3352
▁fibro	-11.3353
▁Different	-11.3354
▁надежн	-11.3354
ников	-11.3358
▁System	-11.3358
angi	-11.3359
▁Blood	-11.3359
▁Cochrane	-11.3359
▁Objective	-11.3359
▁RUMatrix	-11.3359
▁antibody	-11.3359
▁melanoma	-11.3359
▁passenger	-11.3359
▁prophylactic	-11.3359
▁titanium	-11.3359
▁Медиа	-11.3359
▁нагрузкой	-11.3359
▁патологий	-11.3359
▁предсердия	-11.3359
▁прошедши	-11.3359
▁технология	-11.3359
▁шанс	-11.3359
▁экстракции	-11.3359
Dindo	-11.3359
▁collective	-11.3359
▁longitudinal	-11.3359
▁tremor	-11.3359
▁Создан	-11.3359
▁многоцентров	-11.3359
▁пролонгированн	-11.3359
ЭРГ	-11.3359
▁половины	-11.3359
▁сенсоневральн	-11.3359
ГМУ	-11.3359
▁картиной	-11.3359
▁окклюзией	-11.3359
▁loop	-11.3359
▁метаболитов	-11.3359
▁лейкоцитов	-11.3359
▁HIF	-11.3359
▁транскраниальн	-11.3359
▁exogenous	-11.3359
▁microscope	-11.3359
▁colitis	-11.3359
▁планировании	-11.3359
▁thinking	-11.3359
▁cooperation	-11.3359
▁food	-11.3359
▁emergence	-11.3359
▁conversion	-11.3359
phenyl	-11.3359
▁round	-11.3359
▁ранений	-11.3359
▁Cytoflavin	-11.3359
▁flowmetry	-11.3359
▁микробн	-11.3359
▁педиатрическ	-11.336
▁прогнозировать	-11.336
print	-11.336
▁patency	-11.336
▁unified	-11.336
▁North	-11.336
▁film	-11.336
▁гастроэзофаге	-11.336
нального	-11.3361
▁коже	-11.3361
▁инструментов	-11.3361
▁округа	-11.3362
▁поведенческие	-11.3363
▁наблюдался	-11.3364
▁направление	-11.3364
▁недостатков	-11.3365
▁млн	-11.3366
▁UV	-11.3367
▁оттока	-11.3367
▁контроле	-11.3367
▁корней	-11.3367
▁мигренью	-11.3367
uterine	-11.3367
▁пяти	-11.3367
▁закон	-11.3368
▁substantially	-11.3368
▁мутациями	-11.3368
▁гипотензивн	-11.3369
▁оперированы	-11.337
▁hair	-11.337
scan	-11.337
▁supplemented	-11.3371
самцах	-11.3372
▁ПД	-11.3372
▁Первичн	-11.3373
▁гомеостаза	-11.3374
▁измерение	-11.3374
▁билиарн	-11.3374
▁hemoglobin	-11.3375
▁матрикса	-11.3376
▁интерстициальн	-11.3376
▁rabbits	-11.3379
▁приоритетн	-11.3379
cial	-11.3379
▁стратегий	-11.338
▁маркерами	-11.338
▁высоты	-11.3381
▁42%	-11.3381
▁круга	-11.3381
▁фибро	-11.3384
▁Immuno	-11.3385
▁элементы	-11.3385
▁режим	-11.3386
▁изучено	-11.3387
▁transcription	-11.3388
▁сосуда	-11.3389
ИЦ	-11.3389
▁инъекционн	-11.339
ологов	-11.3391
paranoid	-11.3394
▁сохран	-11.3396
ae	-11.3397
▁mid	-11.3398
▁rationale	-11.3398
▁mind	-11.34
▁предпосылк	-11.3401
eth	-11.3401
TR	-11.3402
▁обеспечение	-11.3402
▁компрессии	-11.3403
▁гнойным	-11.3404
▁длительно	-11.3404
▁penetrat	-11.3405
▁users	-11.3405
▁anticoagulants	-11.3411
▁continues	-11.3411
▁достигнуто	-11.3412
pharyngeal	-11.3413
▁временны	-11.3413
▁ELISA	-11.3413
▁НАЖБП	-11.3413
▁delusion	-11.3415
▁продукци	-11.3415
▁Наибольше	-11.3418
>=0,0	-11.3418
▁differed	-11.3421
▁traces	-11.3424
распространенным	-11.3425
▁Staphylococcus	-11.3426
▁redo	-11.3428
▁склерозе	-11.3428
BT	-11.3429
▁visits	-11.343
▁дополнительные	-11.343
▁психоактивны	-11.3433
▁обозначен	-11.3433
▁мест	-11.3435
▁обмен	-11.3437
рентгенологическ	-11.3437
▁государственных	-11.3438
4,9	-11.3439
▁помо	-11.344
▁рисков	-11.3441
химических	-11.3442
▁сложным	-11.3445
▁перфузии	-11.3446
▁sarcoma	-11.3446
▁Tr	-11.3447
казывается	-11.3452
▁красн	-11.3452
echocardiography	-11.3454
uality	-11.346
▁необходима	-11.3461
физиологические	-11.3463
▁диапазоне	-11.3465
▁BMI	-11.3468
▁МР	-11.3468
uro	-11.3469
▁Pre	-11.3469
▁ME	-11.347
▁например	-11.3471
▁автора	-11.3472
▁ortho	-11.3479
lin	-11.348
▁Cr	-11.3483
▁имело	-11.3485
▁0.8	-11.3493
▁ago	-11.35
▁0,9	-11.3504
ear	-11.3504
▁112	-11.3507
▁сетчат	-11.3508
tomy	-11.3509
▁психотическ	-11.3511
▁диапазон	-11.3512
ТГ	-11.3515
wave	-11.3517
femoral	-11.3517
controlled	-11.3518
лимфоцитов	-11.3518
protein	-11.3519
biological	-11.3519
▁вегетативных	-11.352
▁дневн	-11.3522
▁внутривенн	-11.3529
ностью	-11.3529
▁Ко	-11.353
aw	-11.353
range	-11.353
6;	-11.353
▁имел	-11.3536
емии	-11.3537
ontraindications	-11.3538
▁годов	-11.3539
▁формул	-11.3544
▁rights	-11.3545
ическая	-11.355
▁trachea	-11.3551
▁анастомоз	-11.3567
▁психофармако	-11.3567
генеза	-11.3568
ВС	-11.3569
ii	-11.3569
стимул	-11.3572
▁вызывают	-11.3573
ody	-11.3573
КК	-11.3582
▁доклиническ	-11.3583
▁1-2	-11.3583
▁116	-11.3588
▁оп	-11.3589
▁попытка	-11.359
▁3,5	-11.3592
=0,03	-11.3593
пептид	-11.3594
▁сравн	-11.3595
▁положительным	-11.3599
▁сторон	-11.3601
▁лазер	-11.3605
▁Li	-11.3609
▁induce	-11.3611
▁ПС	-11.3619
oper	-11.362
▁индуцированн	-11.362
▁образа	-11.3624
▁схема	-11.3626
ya	-11.3626
ФК	-11.3628
сульфат	-11.3633
▁сформулирован	-11.3634
61	-11.3636
▁measure	-11.3637
▁постепенно	-11.3643
▁sequence	-11.3647
▁stand	-11.3651
свет	-11.3662
▁fluids	-11.3665
▁Существу	-11.3666
▁ключевы	-11.3669
▁respond	-11.3676
▁elaborat	-11.3678
стандартного	-11.3682
▁worsen	-11.3684
▁SS	-11.3684
сипиридина	-11.3684
▁соматическ	-11.369
▁возникновение	-11.369
use	-11.3691
▁2%	-11.3692
▁worse	-11.3695
▁ранения	-11.3695
▁оксида	-11.3696
▁рефлюкс	-11.3697
остей	-11.3698
▁fla	-11.37
omplications	-11.3701
▁ethnic	-11.3702
▁MI	-11.3702
iterature	-11.3703
▁Име	-11.3703
▁рекомендует	-11.3704
доминантн	-11.3704
▁аутистическ	-11.3704
remitting	-11.3704
ысокотехнологичн	-11.3704
▁Correlation	-11.3704
▁Follow	-11.3704
▁Visual	-11.3704
▁aphasia	-11.3704
▁cluster	-11.3704
▁examining	-11.3704
▁excellent	-11.3704
▁federal	-11.3704
▁ganglion	-11.3704
▁keratitis	-11.3704
▁malignancies	-11.3704
▁myasthenia	-11.3704
▁next	-11.3704
▁retardation	-11.3704
▁Минздрава	-11.3704
▁асимметрии	-11.3704
▁ведению	-11.3704
▁ветвей	-11.3704
▁возникновении	-11.3704
▁демиелинизирующ	-11.3704
▁митохондриальн	-11.3704
▁ожогов	-11.3704
▁онтогенеза	-11.3704
▁постнатально	-11.3704
▁приобрета	-11.3704
▁симптоматикой	-11.3704
▁слюне	-11.3704
▁содержит	-11.3704
▁устрани	-11.3704
▁штаммов	-11.3704
▁эпизода	-11.3704
▁clinicians	-11.3704
▁антропометри	-11.3704
▁карбо	-11.3704
▁кластер	-11.3704
▁растет	-11.3704
▁rank	-11.3704
▁тазов	-11.3704
▁интраокулярн	-11.3704
▁sedation	-11.3704
▁Minimal	-11.3704
▁disabilities	-11.3704
▁physiotherapy	-11.3704
▁attract	-11.3704
▁microbial	-11.3704
▁курения	-11.3704
▁обоснованны	-11.3704
▁prevalent	-11.3704
▁music	-11.3704
▁слепо	-11.3704
▁intermediate	-11.3704
▁дерме	-11.3704
▁paralysis	-11.3704
▁preferable	-11.3705
▁служа	-11.3705
▁сахарном	-11.3705
▁(25%)	-11.3705
▁daytime	-11.3707
dopaminergic	-11.3708
sparing	-11.371
▁feeling	-11.371
▁angiogenesis	-11.371
▁тугоухостью	-11.371
▁ears	-11.3712
▁slightly	-11.3713
▁позднего	-11.3713
▁ophthalmology	-11.3714
▁подкожн	-11.3714
▁политики	-11.3714
▁аффективными	-11.3714
емой	-11.3716
▁компрессионн	-11.3717
▁врачебн	-11.372
▁Mexidol	-11.372
▁permeability	-11.372
▁таковой	-11.372
▁nutritional	-11.372
ologists	-11.3722
▁ИМ	-11.3723
ther	-11.3724
▁channel	-11.3724
▁атрофии	-11.3725
▁дисплазии	-11.3726
▁аудиологическ	-11.3727
▁бактерий	-11.3728
▁introduce	-11.373
▁gained	-11.3732
▁сохранением	-11.3734
▁направлением	-11.3734
▁кожны	-11.3734
▁тромбозом	-11.3734
▁световой	-11.3734
▁института	-11.3739
▁clearly	-11.374
▁rhino	-11.374
▁ground	-11.374
▁интеллектуальн	-11.374
эк	-11.3741
▁сканирования	-11.3741
▁AED	-11.3741
▁тяжелые	-11.3743
▁антибиотико	-11.3746
▁humoral	-11.3747
▁компоненты	-11.3748
tein	-11.3751
mia	-11.3752
ella	-11.3754
ОГ	-11.3755
▁обл	-11.3759
▁Ac	-11.3759
▁сокращени	-11.376
otropic	-11.376
▁значениями	-11.3761
1,2	-11.3762
▁количественные	-11.3763
▁FAS	-11.3765
=0,7	-11.3765
▁респираторных	-11.3766
▁онко	-11.3768
▁техник	-11.3769
кло	-11.3772
AL	-11.3773
▁links	-11.3774
▁enzym	-11.3776
▁remove	-11.3776
▁бес	-11.3776
crim	-11.3777
▁введением	-11.3779
▁170	-11.3781
▁пациентом	-11.3782
▁центре	-11.3783
▁lip	-11.3783
▁религиозн	-11.3786
▁Pr	-11.379
sen	-11.379
▁ростом	-11.3791
скопическ	-11.3791
пут	-11.3791
глу	-11.3792
▁road	-11.3792
bra	-11.3793
▁illustrate	-11.3794
▁необходимым	-11.3795
демонстрировали	-11.3797
ИЛ	-11.3798
▁подтверждена	-11.3798
band	-11.3799
▁completed	-11.3799
▁donors	-11.38
ЛП	-11.3809
▁гастро	-11.3813
▁107	-11.3814
▁наследственной	-11.3815
▁2004	-11.3817
▁15-	-11.382
▁рабоче	-11.382
альным	-11.382
▁ген	-11.3821
▁Необходимо	-11.3824
инвазивн	-11.383
▁превышал	-11.3835
▁правильно	-11.3836
ходятся	-11.3837
▁обраща	-11.384
5.3	-11.3843
криминалистическ	-11.3845
▁HC	-11.3847
=15)	-11.3847
нальной	-11.3847
рная	-11.3852
▁гепатита	-11.3855
альн	-11.3856
▁Multi	-11.3856
▁ASD	-11.3857
iven	-11.3859
жение	-11.386
ОА	-11.3861
▁CRP	-11.3864
▁негативны	-11.3865
▁myo	-11.3866
ocytic	-11.3868
▁(44	-11.3869
продукции	-11.387
▁амбулаторно	-11.3873
secret	-11.3873
▁фундаментальн	-11.3875
неврологическое	-11.3875
venous	-11.3875
▁outpatients	-11.3875
ИБС	-11.3876
вирус	-11.3876
▁тромбо	-11.3876
▁принципиально	-11.3877
density	-11.3877
ОКТ	-11.3878
▁1,0	-11.3878
brain	-11.388
гер	-11.3882
▁симптоматическ	-11.3885
▁шунт	-11.3885
▁низко	-11.3886
▁изменя	-11.3887
▁Sch	-11.3887
▁Na	-11.3888
-55	-11.3897
▁исследованием	-11.3899
10<	-11.39
▁постоянной	-11.3902
▁3-4	-11.3903
▁ultrason	-11.3904
bility	-11.3907
▁чрезвычайно	-11.3911
▁выводы	-11.3912
аци	-11.393
▁меди	-11.3932
▁PI	-11.3933
ВН	-11.3934
▁полным	-11.3934
становления	-11.3936
вари	-11.3938
58	-11.3946
▁преимущество	-11.3949
▁МТ	-11.3953
▁заболеваниям	-11.3954
GFR	-11.3955
ских	-11.3962
▁благоприятным	-11.3965
овать	-11.3969
▁дела	-11.3969
graphic	-11.3973
1,5	-11.3977
position	-11.398
▁эндоскопически	-11.3981
луча	-11.3982
▁нашем	-11.3983
▁стандартным	-11.3987
базилярн	-11.3989
рмо	-11.399
▁реконструкци	-11.399
▁continue	-11.3995
▁обо	-11.3995
▁подготовк	-11.4005
▁anticoagulant	-11.4006
▁indication	-11.4006
▁parameter	-11.4007
▁описывает	-11.4009
tumor	-11.4013
▁нарушениях	-11.4014
КА	-11.4016
ложения	-11.4018
PH	-11.402
▁занима	-11.4021
анн	-11.4022
▁erythrocyte	-11.4023
инструментальных	-11.4026
▁idea	-11.4031
▁черт	-11.4031
▁understand	-11.4032
▁протезирование	-11.4033
▁член	-11.4034
▁психоза	-11.4034
▁ожирение	-11.4035
efore	-11.4036
ДР	-11.4037
тар	-11.4038
▁0.6	-11.4039
▁патологоанатом	-11.4042
▁Но	-11.4043
1%	-11.4044
▁prescrib	-11.4044
эпилептически	-11.4046
▁проявление	-11.4047
▁вариабельность	-11.4049
▁famili	-11.4054
▁шум	-11.4055
▁которыми	-11.4055
▁Актив	-11.4061
▁yield	-11.4061
▁дивертикул	-11.4061
фосфат	-11.4061
▁Association	-11.4061
▁answer	-11.4061
▁calcification	-11.4061
▁concre	-11.4061
▁detachment	-11.4061
▁hippocampus	-11.4061
▁hydrocephalus	-11.4061
▁irrigation	-11.4061
▁parallel	-11.4061
▁popular	-11.4061
▁psychosomatic	-11.4061
▁senior	-11.4061
▁specialties	-11.4061
▁Спилбергера	-11.4061
▁Увеличени	-11.4061
▁аномалии	-11.4061
▁ассоцииру	-11.4061
▁варьировал	-11.4061
▁вместе	-11.4061
▁детям	-11.4061
▁дренаж	-11.4061
▁многопрофильн	-11.4061
▁тиреотоксикоза	-11.4061
▁толерантности	-11.4061
hydroxypyridine	-11.4061
▁внутриутробн	-11.4061
▁потребности	-11.4061
▁применяется	-11.4061
▁складок	-11.4061
nolaryngologic	-11.4061
▁meningitis	-11.4061
▁Поиск	-11.4061
▁логистическ	-11.4061
▁русскоязычн	-11.4061
▁palate	-11.4061
▁Pain	-11.4061
▁season	-11.4061
▁sarcoidosis	-11.4061
▁культи	-11.4061
▁ангиогенеза	-11.4061
▁endoprosthetic	-11.4061
▁room	-11.4061
▁соединения	-11.4061
▁employment	-11.4061
▁подкорков	-11.4061
▁eosinophilic	-11.4062
▁Other	-11.4062
▁usage	-11.4062
▁decompensation	-11.4062
▁эндоваскулярной	-11.4062
▁psychoemotional	-11.4063
▁compos	-11.4063
▁phenotypic	-11.4064
▁placement	-11.4064
▁отличаются	-11.4064
▁зонах	-11.4065
▁psychology	-11.4065
>0.05)	-11.4065
▁cellex	-11.4067
▁извлечения	-11.4067
▁гемоглобина	-11.4068
▁Гц	-11.4068
▁thought	-11.4069
▁накопления	-11.407
▁поряд	-11.407
▁дофамина	-11.4071
▁intelligence	-11.4071
▁тромбозов	-11.4072
антигипертензивн	-11.4072
▁обследуемых	-11.4073
▁уменьшается	-11.4073
gon	-11.4074
▁диспансерн	-11.4074
▁оказании	-11.4076
▁свищами	-11.4076
▁перевод	-11.4077
▁пограничн	-11.4078
▁digestive	-11.4078
▁mobile	-11.4078
▁spectrophotomet	-11.4079
▁достоверности	-11.408
▁shorter	-11.408
▁аневризмами	-11.4081
▁masses	-11.4081
▁pneumoniae	-11.4081
▁лабораторные	-11.4084
▁хорошей	-11.4085
▁dual	-11.4085
▁ухудшает	-11.4086
▁kerato	-11.4089
▁профил	-11.4089
▁окислительн	-11.4091
▁определяем	-11.4093
▁коллагенов	-11.4093
▁Heli	-11.4093
▁мутация	-11.4093
▁city	-11.4095
▁Stage	-11.4097
▁newborns	-11.4098
▁йода	-11.4098
iotic	-11.4098
gan	-11.4099
▁Обнаружено	-11.4101
▁аденокарциномы	-11.4101
вяз	-11.4101
▁осложненным	-11.4101
▁сохранение	-11.4102
,0%)	-11.4103
▁composite	-11.4106
▁Интраоперационн	-11.4106
rib	-11.4107
▁накоплен	-11.4107
▁cone	-11.4109
optic	-11.4111
АЗ	-11.4111
▁указан	-11.4111
▁отношений	-11.4112
▁verbal	-11.4112
▁cortisol	-11.4112
▁аллель	-11.4113
▁мышечно	-11.4116
▁ретроспективно	-11.4117
▁neonat	-11.4124
▁меньш	-11.4124
ening	-11.4126
▁(61	-11.4128
▁нейродегенера	-11.4133
▁VEGFR	-11.4134
носителей	-11.4136
▁rehabilitati	-11.4136
▁modifications	-11.4137
▁0.9	-11.4138
▁ng	-11.4139
▁топическ	-11.4141
фтор	-11.4145
weight	-11.4145
▁ПОУГ	-11.4147
▁исходы	-11.4149
динамического	-11.4155
▁подтвержденным	-11.4159
▁HbA	-11.4161
-50	-11.4163
AE	-11.4163
▁тяжелыми	-11.4164
neuro	-11.4165
тем	-11.4167
▁dependent	-11.4168
▁терапевтические	-11.4173
▁производи	-11.4175
морфологического	-11.4178
анатомическ	-11.4179
ающих	-11.4179
▁находит	-11.418
med	-11.4189
ишемических	-11.4195
=0,02)	-11.4195
▁аспект	-11.4197
30%	-11.4201
▁ПЦР	-11.4203
▁конце	-11.4203
▁гр	-11.4205
▁исследовательск	-11.421
▁sac	-11.4211
CAP	-11.4218
химическ	-11.4219
вшей	-11.4219
протеин	-11.4219
▁damaged	-11.422
±10	-11.4224
▁(55	-11.4227
our	-11.4229
▁лазера	-11.4234
▁Non	-11.4235
▁гистологическом	-11.4243
▁VAS	-11.4244
▁гетерозиготн	-11.4245
ЭЭГ	-11.4246
infection	-11.4246
temporal	-11.4246
enhanced	-11.4248
▁secret	-11.425
ze	-11.425
gram	-11.4251
ЛС	-11.4254
▁легочных	-11.4255
▁НС	-11.4256
▁наибольши	-11.4259
▁инсульте	-11.4262
MSC	-11.4265
6,5%	-11.4265
▁максимальной	-11.4267
дис	-11.4269
▁потенциальны	-11.427
▁фиброз	-11.4271
КГ	-11.4272
tory	-11.4272
▁улучшением	-11.4272
NO	-11.4274
either	-11.4278
▁(48	-11.428
steroid	-11.4282
▁su	-11.4285
▁СГ	-11.4286
▁неврологически	-11.429
▁точно	-11.4296
▁эта	-11.4299
ГБ	-11.43
0,05)	-11.4301
▁эн	-11.4301
hr	-11.4305
льной	-11.4305
▁joints	-11.4307
▁внедрен	-11.4316
анти	-11.4321
эндогенных	-11.4322
▁венозного	-11.4324
vir	-11.4324
псих	-11.4333
ируя	-11.434
▁скелетн	-11.4346
ирующей	-11.4347
▁гипотиреоз	-11.435
▁140	-11.4352
▁nitr	-11.4353
▁слизист	-11.4354
PK	-11.4354
0,7	-11.4356
▁sizes	-11.4357
▁язык	-11.4357
одержание	-11.4361
parative	-11.4364
▁панкреатит	-11.4368
▁подходах	-11.4372
▁dream	-11.4375
▁shot	-11.4375
▁error	-11.4376
▁biomarker	-11.4376
▁153	-11.4379
▁отказ	-11.4379
imp	-11.4386
▁Анализиру	-11.4387
▁построен	-11.4387
▁рефлекс	-11.4388
▁антитела	-11.4388
▁интактн	-11.4391
▁правов	-11.4392
▁(54	-11.4392
▁психолог	-11.4394
▁участвовал	-11.4394
▁меньшим	-11.4395
▁(58	-11.4396
▁кислота	-11.4399
▁глиом	-11.44
▁Количеств	-11.4402
▁стента	-11.4403
▁кровотечение	-11.4413
▁точность	-11.4423
▁ultra	-11.4429
▁Material	-11.4431
▁battery	-11.4431
▁candidate	-11.4431
▁creating	-11.4431
▁dermatoglyphic	-11.4431
▁gallbladder	-11.4431
▁metastasis	-11.4431
▁nucleus	-11.4431
▁sensation	-11.4431
▁Отдельно	-11.4431
▁делирия	-11.4431
▁десятилетие	-11.4431
▁десятилетий	-11.4431
▁довольн	-11.4431
▁доказана	-11.4431
▁закономерностей	-11.4431
▁объясняет	-11.4431
▁полушария	-11.4431
▁происходил	-11.4431
▁психосоматическ	-11.4431
▁реабилитация	-11.4431
▁семьи	-11.4431
▁специфик	-11.4431
▁спины	-11.4431
▁эндодонтическ	-11.4431
▁academic	-11.4431
▁mutual	-11.4431
▁антипсихотическ	-11.4431
▁уточни	-11.4431
нейромиографи	-11.4431
▁nano	-11.4431
▁cirrhosis	-11.4431
▁себе	-11.4431
▁Срок	-11.4431
▁musculoskeletal	-11.4431
▁recombinant	-11.4431
▁торакоскопическ	-11.4431
▁pneumati	-11.4431
▁адгезивн	-11.4431
▁кровоснабжения	-11.4431
▁collected	-11.4431
▁версии	-11.4431
▁logistic	-11.4431
▁outline	-11.4431
▁минимизирова	-11.4431
▁nucleotide	-11.4431
▁исключения	-11.4431
▁hypotensive	-11.4431
▁subtotal	-11.4431
▁neoplasia	-11.4431
▁disruption	-11.4432
▁blindness	-11.4432
▁formula	-11.4432
▁hypoglycemic	-11.4432
▁palm	-11.4432
▁эозинофильн	-11.4432
▁clot	-11.4432
▁validity	-11.4432
новая	-11.4433
тивной	-11.4433
▁развился	-11.4433
▁колит	-11.4433
▁фокальной	-11.4433
▁ботулинотерапии	-11.4433
▁построения	-11.4433
▁political	-11.4434
▁surrounding	-11.4434
▁диафрагмы	-11.4434
хлор	-11.4434
▁дифференциально	-11.4434
▁Eighty	-11.4435
▁свищей	-11.4435
7,8	-11.4437
▁язвенн	-11.4437
▁окончания	-11.4437
▁истинн	-11.4438
▁освоения	-11.4438
usta	-11.4438
apan	-11.4439
▁полном	-11.4439
▁projection	-11.444
▁кардиомиопатии	-11.444
▁проспективны	-11.444
▁переломами	-11.4442
▁put	-11.4444
▁проекции	-11.4444
▁односторонней	-11.4444
▁prerequisites	-11.4445
▁передних	-11.4446
▁самооценки	-11.4446
целе	-11.4448
амилоида	-11.4448
▁плевральн	-11.4449
▁normative	-11.445
▁CG	-11.445
▁substantia	-11.445
▁нозологически	-11.4451
▁категорий	-11.4455
▁Программ	-11.4455
▁перспективные	-11.4455
▁демографическ	-11.4456
▁аденокарцином	-11.4456
▁дуоденальн	-11.4457
▁стационарного	-11.4458
▁кардиоэмболи	-11.4459
▁получили	-11.446
▁опасн	-11.4461
▁1.4	-11.4462
морф	-11.4463
▁покров	-11.4463
▁instruments	-11.4464
▁компонентом	-11.4464
▁started	-11.4465
0.8	-11.4466
гипофизарно	-11.4466
▁воздействий	-11.4467
sellar	-11.4468
▁details	-11.447
▁Self	-11.447
spi	-11.4471
▁понятия	-11.4474
▁газов	-11.4477
▁исключительно	-11.4483
▁лоскута	-11.4483
▁arm	-11.4484
MM	-11.4484
▁2001	-11.4486
▁играю	-11.4487
▁операциям	-11.4487
▁нерв	-11.4488
▁возбудителя	-11.45
открытое	-11.4504
▁специфической	-11.4504
▁ДППГ	-11.4506
▁USA	-11.4507
▁диска	-11.4509
▁detecting	-11.4509
▁ранним	-11.4511
▁информативны	-11.4512
▁оказыва	-11.4512
▁motivation	-11.4513
ips	-11.4515
▁influences	-11.4515
ulin	-11.4517
▁диагностировать	-11.4518
▁Describe	-11.4519
▁психические	-11.4523
▁2010-201	-11.4524
▁Po	-11.4524
▁ПЭП	-11.4526
▁POAG	-11.4528
▁показывает	-11.4529
▁ring	-11.4531
▁значимыми	-11.4531
▁observational	-11.4532
▁результатом	-11.4532
▁accidents	-11.4533
▁SH	-11.4534
▁situational	-11.4539
ению	-11.454
СЗ	-11.454
ср	-11.4541
▁maxilla	-11.4543
▁стар	-11.4544
▁детально	-11.4548
▁зрительной	-11.455
atory	-11.4552
индуцированн	-11.4552
техническ	-11.4555
▁необходимостью	-11.4556
▁жиров	-11.4557
▁DRD	-11.4572
▁ВЧ	-11.4577
50%	-11.4577
▁locally	-11.4577
▁intervals	-11.4578
▁приеме	-11.4578
8;	-11.4579
za	-11.458
▁сформированн	-11.4585
MCI	-11.4586
иммуносупрессивн	-11.4586
▁диаметра	-11.4586
LE	-11.4587
epithelial	-11.4588
▁(87	-11.4596
▁процессом	-11.4597
▁последующем	-11.4602
▁кровеносны	-11.4605
являются	-11.4605
▁действующи	-11.4606
▁традиционно	-11.4606
▁молекулярной	-11.461
ophthalmological	-11.4611
ставлен	-11.4612
evelopment	-11.4616
▁самостоятельно	-11.4616
ХТ	-11.4618
▁гетерогенность	-11.4619
▁ten	-11.462
▁неизвестн	-11.4621
▁MP	-11.4621
▁блока	-11.4622
matched	-11.4627
препарат	-11.4628
amyloid	-11.4629
CHD	-11.463
frontal	-11.4631
according	-11.4631
micro	-11.4632
amide	-11.4632
▁доза	-11.4633
MSCT	-11.4633
median	-11.4634
доступ	-11.4635
▁неврологическ	-11.4636
ERG	-11.4636
acute	-11.4637
ischemic	-11.4638
VAS	-11.4639
uric	-11.464
▁(46	-11.4642
5,3	-11.4645
hysiotherapeutic	-11.4649
БК	-11.4651
▁(34	-11.4656
ологических	-11.4657
КИ	-11.4657
нтной	-11.4664
▁зача	-11.4667
▁выраж	-11.4669
▁санаторно	-11.4673
▁shoulder	-11.4674
▁орбит	-11.4675
ографии	-11.4676
▁супер	-11.4678
3,6	-11.4678
being	-11.4679
▁neuropath	-11.468
▁кур	-11.4682
▁обстоятельств	-11.4684
0.5	-11.4691
▁1%	-11.4695
▁термина	-11.4695
▁одновременн	-11.4696
1.3	-11.4702
фаз	-11.471
дегенеративного	-11.4712
▁достоверной	-11.4715
▁remov	-11.4715
=0,01)	-11.4717
▁дифференцирова	-11.4721
20%	-11.4722
▁главным	-11.4724
▁маркер	-11.4732
▁Depend	-11.4735
▁изолированно	-11.4738
льных	-11.4739
ВА	-11.4739
▁стойки	-11.474
ner	-11.4742
▁продолжа	-11.4745
токси	-11.4745
ивания	-11.4748
▁введен	-11.475
▁проф	-11.4751
▁pathogen	-11.4756
▁носит	-11.4756
4,2	-11.4757
▁infant	-11.4761
▁Patient	-11.4761
ание	-11.4762
бы	-11.4766
ole	-11.4768
воспалительный	-11.4771
tactic	-11.4772
▁characteriz	-11.4773
▁дисбаланс	-11.4773
▁Ni	-11.4775
▁analogue	-11.4776
▁адаптивн	-11.4776
▁кровоток	-11.4777
▁Clinic	-11.4777
токсикологическ	-11.4778
▁элемент	-11.4779
▁принадлеж	-11.478
▁регенераци	-11.4781
ван	-11.4782
▁отбор	-11.4785
▁холестеатом	-11.4785
▁лекарств	-11.4786
-10)	-11.4787
ования	-11.4787
▁другим	-11.4788
▁мен	-11.479
ographic	-11.4799
▁register	-11.4799
adren	-11.48
▁Me	-11.4802
▁annual	-11.4803
▁update	-11.4804
PL	-11.4805
▁когнитивным	-11.4811
▁медленно	-11.4811
пуска	-11.4811
енного	-11.4811
▁аорто	-11.4812
▁протяженн	-11.4813
тимпан	-11.4813
▁Пред	-11.4814
▁stoma	-11.4815
terview	-11.4815
▁participat	-11.4816
▁diastol	-11.4816
прежнему	-11.4816
▁Bleuler	-11.4816
▁Expertise	-11.4816
▁aggression	-11.4816
▁appointment	-11.4816
▁arrest	-11.4816
▁challenging	-11.4816
▁compartment	-11.4816
▁corpus	-11.4816
▁gastroduodenal	-11.4816
▁heterozygous	-11.4816
▁identity	-11.4816
▁immunoassay	-11.4816
▁innovative	-11.4816
▁junction	-11.4816
▁palatine	-11.4816
▁precise	-11.4816
▁Благодар	-11.4816
▁Высказан	-11.4816
▁биоэлектрическ	-11.4816
▁десны	-11.4816
▁диастолическ	-11.4816
▁дуплексно	-11.4816
▁клубочков	-11.4816
▁митохондрий	-11.4816
▁нейтрофилов	-11.4816
▁реабилитацию	-11.4816
▁сенсомоторн	-11.4816
▁триглицеридов	-11.4816
▁lumbo	-11.4816
▁nigra	-11.4816
▁областей	-11.4816
▁репаративн	-11.4816
▁нагрузка	-11.4816
▁Morphological	-11.4816
▁срезах	-11.4816
▁санации	-11.4816
▁exemplifie	-11.4816
▁Леви	-11.4816
▁комплемента	-11.4816
▁клинику	-11.4816
▁audiological	-11.4816
▁steady	-11.4816
▁врачу	-11.4816
▁изображений	-11.4816
▁носоглотки	-11.4816
▁hypertrophy	-11.4816
▁спортивн	-11.4816
▁терминологии	-11.4816
▁томографию	-11.4816
▁cough	-11.4816
▁lost	-11.4816
▁Overall	-11.4816
▁superficial	-11.4816
▁separation	-11.4816
▁rejection	-11.4816
▁ремиссия	-11.4816
▁слева	-11.4816
▁открытоугольн	-11.4816
▁migration	-11.4816
▁дети	-11.4816
▁подвергш	-11.4816
itation	-11.4817
▁тел	-11.4817
▁adjustment	-11.4817
▁маз	-11.4817
▁discontinuation	-11.4817
▁сохранить	-11.4818
▁отличались	-11.4818
▁miR	-11.4818
▁HSP	-11.4819
▁изображения	-11.4819
▁eating	-11.4819
▁discovery	-11.4819
▁germin	-11.4819
0-	-11.482
▁demyelinati	-11.482
▁природу	-11.482
▁назначали	-11.482
▁точности	-11.4821
▁пародонтитом	-11.4821
▁захвата	-11.4822
▁analog	-11.4822
▁возникши	-11.4823
▁обязательным	-11.4824
▁ГХ	-11.4824
amil	-11.4824
▁Although	-11.4825
ertain	-11.4826
▁пародонтита	-11.4827
▁применялись	-11.4827
▁confidence	-11.4827
PN	-11.4828
▁deposits	-11.4828
▁connected	-11.4828
▁обструкции	-11.4828
▁recording	-11.4829
▁протоколов	-11.4829
1.2	-11.4829
▁мета	-11.4829
▁КО	-11.483
▁hemorrhoids	-11.483
▁sports	-11.483
▁ассоциаций	-11.483
▁донорск	-11.483
▁amplification	-11.4832
▁weapons	-11.4832
противопоказания	-11.4832
▁уникальн	-11.4833
▁атеросклерозом	-11.4833
▁составляющих	-11.4838
iform	-11.4838
▁линзы	-11.4838
▁объективизаци	-11.4838
▁природн	-11.484
▁зоба	-11.484
▁Sechenov	-11.4842
▁cerebellar	-11.4842
▁сбор	-11.4843
▁смещение	-11.4843
▁радио	-11.4845
▁одному	-11.4845
▁внешних	-11.4845
▁отит	-11.4849
▁язычн	-11.4849
=0,5	-11.4849
▁первичном	-11.485
▁организация	-11.4854
▁последнего	-11.4854
▁незначительн	-11.4856
eu	-11.486
РПЭ	-11.4861
▁If	-11.4864
фил	-11.4865
▁алгоритмов	-11.4865
▁retrospectively	-11.4866
▁tonsils	-11.4866
▁морфологическим	-11.487
▁церебральным	-11.4871
▁белого	-11.4871
КМ	-11.4874
▁СКФ	-11.4879
▁социальные	-11.4879
▁PAH	-11.4881
▁обследовали	-11.4882
▁прямо	-11.4887
▁доступом	-11.489
Th	-11.4893
▁MFI	-11.4895
▁ТК	-11.4896
спир	-11.4897
▁энергетическ	-11.4902
демографических	-11.4902
▁settings	-11.4904
▁ART	-11.4908
классической	-11.491
▁additionally	-11.491
▁типах	-11.4912
▁лекарственным	-11.4912
▁аналитической	-11.4913
MH	-11.4914
70%	-11.4914
▁пародонтальн	-11.4922
Продемонстрирова	-11.4922
▁обеспечивающи	-11.4924
опатии	-11.4924
tropic	-11.4928
pathic	-11.4928
▁физиотерапевт	-11.4929
▁ориентирован	-11.4933
родолжительность	-11.4937
▁УЗ	-11.4938
ified	-11.4938
▁метастатическ	-11.4946
▁PCNA	-11.4947
▁ПН	-11.4948
▁реабилитационны	-11.4948
row	-11.4949
><	-11.4955
▁соблюдени	-11.4955
▁Раз	-11.4957
▁steroid	-11.4957
▁этиологически	-11.4958
▁13-	-11.4968
1.7	-11.4969
▁офтальмо	-11.497
▁(91	-11.4971
▁mel	-11.4977
beam	-11.4979
▁excit	-11.4981
морфологическ	-11.4984
-65	-11.4988
ttal	-11.4989
▁комплексный	-11.4994
ral	-11.4996
▁протекающи	-11.4999
▁биомеханически	-11.5006
3.3%	-11.5008
▁астеническ	-11.5009
2,2	-11.501
▁оперативно	-11.5016
▁отдельно	-11.5017
▁1.3	-11.5017
▁неврологическим	-11.5017
▁симптома	-11.5018
панкреатического	-11.5019
ИК	-11.5024
метаболическ	-11.5024
кардиальн	-11.5026
▁теоретически	-11.5027
cross	-11.5031
EEG	-11.5031
pharmacotherapy	-11.5032
psychiatric	-11.5032
factor	-11.5034
СА	-11.5035
▁Ment	-11.5035
1.6	-11.5036
▁типичны	-11.5042
▁помога	-11.5044
version	-11.5045
▁текуще	-11.5048
▁тракт	-11.5051
▁prolactin	-11.5052
▁seven	-11.5053
▁специфическ	-11.5057
шк	-11.5057
лоб	-11.5058
рд	-11.5059
▁трупн	-11.5063
▁недостаточной	-11.5064
▁triple	-11.5067
ометрии	-11.5072
▁панкреатодуоде	-11.5075
▁перелом	-11.5078
▁becom	-11.508
▁универсальн	-11.5081
органическ	-11.5082
▁ill	-11.5085
оше	-11.5085
одну	-11.5086
▁узла	-11.5086
▁экспресс	-11.5087
▁Mi	-11.5089
▁meaning	-11.5092
▁follows	-11.5092
▁КГ	-11.5094
бор	-11.5097
standing	-11.5101
cidence	-11.5103
TS	-11.511
uria	-11.511
▁анамнез	-11.5115
=0,04	-11.5117
▁рефрактерн	-11.5118
недрение	-11.5119
4,2%	-11.5122
▁мир	-11.5124
corticosteroids	-11.5125
▁гендерн	-11.5131
▁режима	-11.5135
▁необратим	-11.5137
цитов	-11.5138
ирующим	-11.5145
▁син	-11.5152
120	-11.5154
ker	-11.5155
▁scar	-11.5159
▁ГК	-11.5162
▁воспалительн	-11.5162
▁antipsychotic	-11.5163
▁АО	-11.5165
▁коллективн	-11.5165
нутри	-11.5167
nodular	-11.5171
▁fet	-11.5172
▁перестройк	-11.518
▁grow	-11.5186
▁происходя	-11.5188
▁describ	-11.5188
▁meet	-11.5188
-3,	-11.5189
▁предпочтительн	-11.5189
генетически	-11.5189
▁Доказан	-11.5192
▁activ	-11.5194
▁1,1	-11.5196
▁initiat	-11.5197
▁открытым	-11.5198
fibr	-11.5201
▁количестве	-11.5202
▁поверхность	-11.5202
▁polyp	-11.5203
▁эпифиза	-11.5205
агонист	-11.5206
lthough	-11.5206
▁мужчина	-11.5207
▁индикатор	-11.5208
1,7	-11.5211
▁just	-11.5211
▁идентичн	-11.5213
▁мобильн	-11.5213
критери	-11.5213
▁valid	-11.5213
ечение	-11.5214
opathies	-11.5214
minute	-11.5215
▁зуб	-11.5215
apoptotic	-11.5216
гидроксибензол	-11.5216
ондиционирования	-11.5216
▁NiTi	-11.5216
▁Stroke	-11.5216
▁cascade	-11.5216
▁catarrhal	-11.5216
▁claudin	-11.5216
▁expected	-11.5216
▁financial	-11.5216
▁hypoplasia	-11.5216
▁hypotheses	-11.5216
▁lifespan	-11.5216
▁likelihood	-11.5216
▁longevity	-11.5216
▁multifactorial	-11.5216
▁neuroplasticity	-11.5216
▁probable	-11.5216
▁stump	-11.5216
▁suturing	-11.5216
▁swelling	-11.5216
▁true	-11.5216
▁vasculitis	-11.5216
▁Гамильтона	-11.5216
▁Известно	-11.5216
▁Характер	-11.5216
▁азота	-11.5216
▁динамикой	-11.5216
▁каскад	-11.5216
▁матерей	-11.5216
▁недавно	-11.5216
▁отметить	-11.5216
▁официальн	-11.5216
▁пирамид	-11.5216
▁приверженность	-11.5216
▁симультанн	-11.5216
▁тактике	-11.5216
▁тревожным	-11.5216
▁эпизодическ	-11.5216
▁ethical	-11.5216
▁verify	-11.5216
▁брыжеечн	-11.5216
▁угроз	-11.5216
▁filtration	-11.5216
▁отчетлив	-11.5216
▁подвижности	-11.5216
▁Осложнения	-11.5216
▁конусно	-11.5216
▁ушивание	-11.5216
▁продольн	-11.5216
▁Операци	-11.5216
▁leukemia	-11.5216
▁uveitis	-11.5216
▁excretion	-11.5216
sagi	-11.5216
▁разрабатыва	-11.5216
▁воздуха	-11.5216
▁рефракции	-11.5216
▁bipolar	-11.5216
▁reuptake	-11.5216
▁вреда	-11.5216
▁neovascular	-11.5216
▁spray	-11.5216
▁койко	-11.5216
▁contraction	-11.5217
▁силу	-11.5217
▁несъемн	-11.5217
▁регионарн	-11.5217
▁memantine	-11.5217
▁закрытия	-11.5217
▁lot	-11.5218
▁быстрым	-11.5218
▁Lew	-11.5218
▁intraperitoneal	-11.5218
конституциональн	-11.5218
▁аллелей	-11.5218
=0,000	-11.5218
▁integrity	-11.5219
▁включать	-11.5219
▁занятий	-11.5219
▁выполнялась	-11.5219
▁невролога	-11.5219
▁native	-11.522
▁родителей	-11.522
▁agreement	-11.5221
▁расположения	-11.5221
▁подтверждения	-11.5221
▁mapp	-11.5221
▁кардиоваскулярн	-11.5221
▁climatic	-11.5221
▁you	-11.5222
▁stopp	-11.5222
▁пересадки	-11.5222
▁ЛЖ	-11.5223
▁оказалось	-11.5223
▁слое	-11.5223
▁адгезии	-11.5225
▁вакцинации	-11.5225
=25)	-11.5225
▁синусов	-11.5225
▁aorto	-11.5226
▁вирусов	-11.5226
▁исследовател	-11.5226
▁параличом	-11.5227
▁macrophages	-11.5228
▁конъюнктивы	-11.5228
коэмульсификации	-11.5229
▁Гр	-11.5229
=35)	-11.5229
▁отсутствовали	-11.5229
=50)	-11.523
▁женщина	-11.523
▁ongoing	-11.5231
▁gradually	-11.5231
▁использует	-11.5231
▁опросников	-11.5232
▁прохода	-11.5232
▁слабо	-11.5234
▁PR	-11.5235
▁благоприятный	-11.5236
▁шока	-11.5236
▁spectroscopy	-11.5236
▁альтернатив	-11.5236
▁обеспечива	-11.5236
▁ranges	-11.5236
metry	-11.5237
▁цен	-11.5238
▁разницы	-11.5239
▁протоколу	-11.524
GC	-11.5241
▁Additional	-11.5241
▁Ho	-11.5241
▁fluoresce	-11.5242
▁йод	-11.5242
▁фибрилляции	-11.5244
▁stones	-11.5246
▁cold	-11.5246
▁worsening	-11.525
▁1-3	-11.5251
subclinical	-11.5251
зер	-11.5252
▁патогенны	-11.5254
▁генах	-11.5254
▁indexes	-11.5255
▁цель	-11.5257
▁контингента	-11.5258
▁HPLC	-11.5258
9;	-11.5258
ений	-11.5259
HTR	-11.5259
acceptable	-11.5259
GI	-11.526
▁УФ	-11.5263
патогенетической	-11.5264
▁дефектами	-11.5265
▁среднее	-11.5266
ирующие	-11.5269
stru	-11.5269
▁rating	-11.527
▁angina	-11.5271
▁гор	-11.5271
▁causal	-11.5274
▁хороши	-11.5275
▁угнетени	-11.5276
solu	-11.5277
▁atrophic	-11.5277
▁BC	-11.5278
▁tele	-11.5278
1.5	-11.5278
▁RD	-11.5278
lumin	-11.5284
▁генома	-11.5286
▁violations	-11.529
▁>1	-11.5292
▁адъювантн	-11.5294
▁затылочн	-11.5297
▁fold	-11.5298
▁транспортн	-11.5298
▁патофизиологии	-11.5299
▁регулятор	-11.5304
▁разработанны	-11.5305
▁bulb	-11.5305
▁spectrometry	-11.5305
▁суставн	-11.5307
▁разработаны	-11.5307
▁центрах	-11.531
функционирование	-11.5312
▁желчно	-11.5317
▁160	-11.5319
▁последней	-11.5321
▁визуальн	-11.5322
▁СВ	-11.5324
▁сложно	-11.5325
▁характеризуют	-11.5328
▁matern	-11.5329
▁aggravat	-11.5329
▁rhythms	-11.533
ДЗ	-11.5332
▁circ	-11.5332
nom	-11.5333
▁обсужден	-11.5335
▁choline	-11.5336
steno	-11.5337
▁МСКТ	-11.534
▁личностной	-11.5341
▁(95	-11.5343
▁perspectives	-11.5347
▁(72	-11.5348
▁notion	-11.5351
▁front	-11.5352
▁отдел	-11.5353
▁бел	-11.5353
adian	-11.5354
oxide	-11.5355
▁13%	-11.5355
▁получено	-11.5358
▁возник	-11.5359
=10)	-11.5359
plasty	-11.536
SNP	-11.5362
▁аспектам	-11.5365
▁микроскопическ	-11.5371
▁регистраци	-11.5375
▁ответственны	-11.5379
▁Дж	-11.538
▁достаточн	-11.5385
▁aris	-11.5386
ocytes	-11.539
▁Необходимы	-11.5394
▁lact	-11.5394
▁невозможно	-11.5397
▁выделя	-11.5399
лер	-11.54
▁наибольш	-11.5403
▁ПТ	-11.5408
▁Настоящ	-11.5408
bar	-11.5417
scher	-11.5418
▁многофакторн	-11.542
8),	-11.5421
▁refract	-11.5429
инструментальн	-11.543
нием	-11.5436
явились	-11.5437
▁band	-11.5438
▁биомаркера	-11.544
▁критически	-11.5442
▁вертебрально	-11.5443
▁decompensat	-11.5444
транспортн	-11.5444
НПВП	-11.5446
tho	-11.5447
ЧМТ	-11.5447
laser	-11.5448
CRP	-11.5449
±9.	-11.545
инусит	-11.5452
тельных	-11.5453
aging	-11.5458
▁стандарт	-11.5461
моль	-11.5461
▁DC	-11.5462
▁0.4	-11.5466
=8	-11.5467
профилактической	-11.5467
▁ИР	-11.547
АП	-11.5471
▁6%	-11.5477
▁последующи	-11.5478
транс	-11.5478
▁уровнями	-11.5479
▁одонтогенн	-11.548
▁MC	-11.5482
7;	-11.5482
ologist	-11.5483
▁морфологически	-11.5487
talloproteinases	-11.5488
▁синдромами	-11.5489
ИЭ	-11.5491
орб	-11.5493
курортн	-11.5504
▁контрольная	-11.5507
▁автор	-11.5513
▁классически	-11.5519
▁наблюдают	-11.5521
логии	-11.5521
▁капсул	-11.5521
без	-11.5524
эпителиальных	-11.5525
систем	-11.553
ыявить	-11.5536
ысокая	-11.5536
нь	-11.554
▁удалени	-11.5545
▁месяц	-11.5547
▁длительном	-11.5549
▁клапан	-11.555
хирургического	-11.5551
ace	-11.5554
▁(63	-11.5558
▁интер	-11.5565
▁Сравнительн	-11.5565
▁систематически	-11.5569
graph	-11.5572
▁визуально	-11.5573
▁amputation	-11.5576
▁agonist	-11.5576
▁antagonist	-11.5576
▁infrare	-11.5577
▁пят	-11.5577
3,9	-11.5577
constitutional	-11.5578
▁variation	-11.5578
перспективных	-11.5579
▁контакт	-11.5583
эпидемиологическ	-11.5584
▁Микро	-11.5588
▁Важны	-11.5591
▁учреждения	-11.5594
дент	-11.5595
▁параметра	-11.5596
▁TS	-11.5596
▁cyto	-11.5598
гран	-11.5601
терапевтических	-11.5604
▁adolescent	-11.5606
▁оперированн	-11.5607
▁сон	-11.5608
▁образц	-11.561
▁экспертиза	-11.5611
специфич	-11.5613
таблетки	-11.5615
метрия	-11.5618
ган	-11.5619
▁substantiate	-11.5621
▁субстрат	-11.5624
–201	-11.5625
▁параметрам	-11.5626
▁111	-11.5628
▁germ	-11.5629
▁плоск	-11.563
▁elaborate	-11.563
▁myelo	-11.563
ъ	-11.563
▁слухо	-11.5631
Центр	-11.5631
▁percent	-11.5632
▁complain	-11.5632
▁повышал	-11.5632
RIN	-11.5632
▁appendix	-11.5632
▁blockade	-11.5632
▁derivatives	-11.5632
▁distant	-11.5632
▁inheritance	-11.5632
▁keratoconus	-11.5632
▁obese	-11.5632
▁probably	-11.5632
▁psyche	-11.5632
▁relaxation	-11.5632
▁Бартел	-11.5632
▁Национальн	-11.5632
▁апробаци	-11.5632
▁голени	-11.5632
▁дерматоглифи	-11.5632
▁инвазии	-11.5632
▁информацию	-11.5632
▁катарактой	-11.5632
▁леводопы	-11.5632
▁легким	-11.5632
▁оптимизирова	-11.5632
▁пневмонией	-11.5632
▁предотврати	-11.5632
▁приверженности	-11.5632
▁равновесия	-11.5632
▁ривароксабан	-11.5632
▁события	-11.5632
▁acetate	-11.5632
▁Дальнейш	-11.5632
▁расщелин	-11.5632
▁финансов	-11.5632
▁швов	-11.5632
▁elective	-11.5632
▁передачи	-11.5632
▁эпилептиформн	-11.5632
▁ямки	-11.5632
▁horizontal	-11.5632
▁реципиентов	-11.5632
▁rheumatic	-11.5632
▁становя	-11.5632
▁тонкокишечн	-11.5632
▁Dental	-11.5632
▁гипоплази	-11.5632
▁интраназальн	-11.5632
▁холецистэктомии	-11.5632
▁неясн	-11.5632
▁возможностях	-11.5633
▁hypothalamic	-11.5633
▁leakage	-11.5633
▁Север	-11.5633
▁настроения	-11.5633
▁тонзиллита	-11.5633
▁postmenopaus	-11.5633
▁hyperactivity	-11.5633
конец	-11.5633
▁isolat	-11.5633
▁порядке	-11.5633
▁изолирования	-11.5633
▁занят	-11.5633
▁антидепрессивн	-11.5633
▁белку	-11.5633
▁extracranial	-11.5633
▁varies	-11.5633
▁parotid	-11.5633
▁положении	-11.5634
▁exception	-11.5634
▁sleepiness	-11.5634
—201	-11.5634
▁экспериментов	-11.5634
▁синусита	-11.5634
▁Six	-11.5634
▁circle	-11.5634
▁психологии	-11.5635
▁fever	-11.5635
▁Germany	-11.5635
▁умерли	-11.5636
▁рентгено	-11.5636
▁electrode	-11.5636
▁justify	-11.5637
AB	-11.5637
▁оси	-11.5637
▁локализацию	-11.5638
▁производили	-11.5639
▁остава	-11.5639
▁But	-11.564
▁Больш	-11.564
амилоидоз	-11.5642
▁tendon	-11.5643
▁parent	-11.5643
▁Обсужден	-11.5643
▁позитивн	-11.5643
▁ферментативн	-11.5645
▁тромбоцитарн	-11.5645
▁stains	-11.5645
▁грыжами	-11.5646
▁усиления	-11.5646
▁полиморфизмов	-11.5646
▁рекомбинантн	-11.5647
▁зрел	-11.5648
CLP	-11.5649
▁mucosal	-11.5649
zo	-11.565
▁come	-11.565
▁декомпенсации	-11.5651
▁ухудшения	-11.5652
▁regulator	-11.5652
▁retirement	-11.5653
▁роговичн	-11.5654
immunodeficiency	-11.5655
▁маркером	-11.5656
▁finding	-11.5657
ake	-11.5658
▁smaller	-11.5659
ТП	-11.5661
▁apparently	-11.5661
▁доступов	-11.5661
▁гистологические	-11.5661
▁послужили	-11.5661
▁затруднен	-11.5662
▁distinguished	-11.5662
теля	-11.5663
-24	-11.5665
ФДТ	-11.5666
▁множественные	-11.5668
▁кариозн	-11.5669
▁explored	-11.567
▁изуч	-11.5672
▁информативност	-11.5672
▁создани	-11.5675
амино	-11.5677
▁АВМ	-11.5677
▁synapt	-11.5677
▁комплексов	-11.5678
▁дисбаланса	-11.5679
▁197	-11.568
▁умеренно	-11.568
▁apathy	-11.5681
▁младше	-11.5682
▁leukocytes	-11.5684
90%	-11.5684
119	-11.5685
><0.05)	-11.5685
▁hypoxic	-11.5687
▁constitution	-11.5688
▁молекулы	-11.5688
▁позитивно	-11.569
▁обобщение	-11.569
▁медицинск	-11.5691
▁NAFLD	-11.5693
▁psychic	-11.5693
бул	-11.5695
▁биохимическ	-11.5695
▁кортексина	-11.5697
▁веществами	-11.5697
▁подтверждено	-11.5697
злокачественными	-11.5699
▁thermo	-11.57
корон	-11.57
писан	-11.5705
▁стороне	-11.5705
▁отмечают	-11.5707
patient	-11.5708
▁бюджет	-11.5712
▁исходной	-11.5713
▁organizational	-11.5713
▁persist	-11.5714
▁индивидуально	-11.5715
▁механизмом	-11.5716
▁флюоресцентн	-11.5719
мощности	-11.572
TC	-11.572
▁adequately	-11.5721
▁эффектами	-11.5721
▁фермента	-11.5722
pathy	-11.5723
▁мелки	-11.5724
▁aids	-11.5724
▁capillary	-11.5724
графта	-11.5726
▁greatly	-11.5728
dose	-11.5728
▁networks	-11.5729
▁shorten	-11.573
▁LE	-11.5732
▁eyelids	-11.5734
▁характеризующих	-11.5734
▁недель	-11.5734
евых	-11.5741
▁дегенеративных	-11.5741
=9	-11.5742
▁подкожной	-11.5745
▁достоверным	-11.5747
▁СОР	-11.5755
▁открытого	-11.5759
▁синус	-11.5763
▁безопасной	-11.5769
ХС	-11.5771
▁динамическо	-11.5779
нном	-11.5783
психометрических	-11.5786
▁непосредственн	-11.5786
▁log	-11.5788
308	-11.5791
▁sympathetic	-11.5791
▁BPPV	-11.5791
▁Методы	-11.5793
▁tonsil	-11.5796
=1)	-11.5797
▁наши	-11.5798
▁медицинским	-11.5802
▁уровнях	-11.5805
дет	-11.5806
▁ед	-11.5812
▁терминальн	-11.5814
=17)	-11.5815
▁19%	-11.5816
ВД	-11.5816
nce	-11.5821
▁(3-	-11.5821
▁opportun	-11.5823
стую	-11.5824
▁depressions	-11.5828
▁лини	-11.5829
▁ruptures	-11.583
▁AE	-11.5831
▁хорошим	-11.5831
▁теоретическ	-11.5835
▁гигиеническ	-11.5836
▁цикл	-11.5844
▁CH	-11.5845
▁дополня	-11.5853
DLB	-11.5861
прав	-11.5867
▁местных	-11.5868
▁тесте	-11.5869
КД	-11.587
surgery	-11.5871
▁Кон	-11.5871
▁становления	-11.5872
крестцов	-11.5874
▁impacts	-11.5874
соци	-11.5874
ract	-11.5876
ational	-11.5878
▁permit	-11.588
▁почечно	-11.5881
system	-11.5882
▁характеризующие	-11.5882
COPD	-11.5882
limb	-11.5882
soft	-11.5883
making	-11.5883
scale	-11.5884
risk	-11.5885
дать	-11.5886
▁риносинусита	-11.5888
ыраженность	-11.5893
▁headaches	-11.5895
▁достижение	-11.5904
▁тромб	-11.5907
▁Средне	-11.5907
▁AH	-11.591
дается	-11.5914
▁следующи	-11.5915
▁операционной	-11.5918
диагностических	-11.5919
plas	-11.5921
▁определя	-11.5921
▁национальн	-11.5923
▁отражаю	-11.593
характеристиками	-11.5936
-4,	-11.594
▁рецидивирующе	-11.5941
▁правил	-11.5941
болев	-11.5943
eter	-11.5944
▁классическ	-11.5945
мена	-11.5948
▁диагностическим	-11.5948
▁интервала	-11.5949
▁непрям	-11.5951
теста	-11.5952
▁CL	-11.5958
видимо	-11.5958
ированием	-11.596
▁аналог	-11.5964
очной	-11.5965
▁Inter	-11.5965
fusion	-11.5974
▁русск	-11.5983
▁четко	-11.5984
▁поставлен	-11.5987
years	-11.5992
▁витамин	-11.5993
ink	-11.5997
охран	-11.5998
▁различ	-11.5998
ich	-11.5999
▁свидетельств	-11.6002
4</	-11.6006
▁функциональным	-11.6007
▁общим	-11.6007
▁tablet	-11.6012
тический	-11.6012
▁principle	-11.6012
▁anesthetic	-11.6018
±0,3	-11.6019
▁рефлюксн	-11.6021
-308	-11.6024
▁недостатк	-11.6025
▁опрос	-11.6027
фокус	-11.6031
▁полинейропати	-11.6032
▁трансформаци	-11.6032
иса	-11.6041
▁ulcerati	-11.6045
повтор	-11.6046
▁предлагает	-11.6051
▁electric	-11.6051
▁pay	-11.6052
▁метаболизм	-11.6055
▁preserve	-11.6056
▁organiz	-11.6057
ck	-11.6058
▁substantial	-11.6059
▁core	-11.6059
▁близк	-11.6059
communica	-11.6059
CAM	-11.606
▁cochlea	-11.6062
▁epilepti	-11.6062
интерферон	-11.6064
▁продолжает	-11.6064
▁Предлага	-11.6065
▁исключ	-11.6065
▁infarct	-11.6065
▁endometri	-11.6067
▁strict	-11.6067
pedagogical	-11.6067
эмиссионн	-11.6067
▁Barthel	-11.6067
▁Drug	-11.6067
▁Google	-11.6067
▁abilities	-11.6067
▁approve	-11.6067
▁configuration	-11.6067
▁constitute	-11.6067
▁diversity	-11.6067
▁exact	-11.6067
▁implies	-11.6067
▁laryngitis	-11.6067
▁lithium	-11.6067
▁loci	-11.6067
▁paresis	-11.6067
▁pharynx	-11.6067
▁prostheses	-11.6067
▁render	-11.6067
▁rivaroxaban	-11.6067
▁schedule	-11.6067
▁security	-11.6067
▁ultrastructural	-11.6067
▁window	-11.6067
▁Бурденко	-11.6067
▁Концентраци	-11.6067
▁Числ	-11.6067
▁аугментации	-11.6067
▁аутологичн	-11.6067
▁бригад	-11.6067
▁васкулит	-11.6067
▁вербальн	-11.6067
▁гидрохлорид	-11.6067
▁долгожителей	-11.6067
▁здорового	-11.6067
▁консультаци	-11.6067
▁коррекцией	-11.6067
▁моделях	-11.6067
▁низкую	-11.6067
▁позвонков	-11.6067
▁походки	-11.6067
▁скелета	-11.6067
▁тазобедренн	-11.6067
▁увеличилась	-11.6067
▁фармацевтическ	-11.6067
▁эндовидео	-11.6067
▁opposite	-11.6067
▁Отражен	-11.6067
▁аксональн	-11.6067
▁астмой	-11.6067
▁доноров	-11.6067
▁ретроградн	-11.6067
▁фильтрации	-11.6067
довлетворенность	-11.6067
▁collection	-11.6067
▁neglect	-11.6067
▁sarcopenia	-11.6067
▁temporo	-11.6067
▁ринита	-11.6067
▁семье	-11.6067
▁AVM	-11.6067
▁diaphragm	-11.6067
▁Высоки	-11.6067
▁безрецидивн	-11.6067
▁облучения	-11.6067
довлетворенности	-11.6067
▁extracorpor	-11.6067
▁плодов	-11.6067
▁fungi	-11.6067
▁секвенирования	-11.6067
▁division	-11.6067
▁granulomatosis	-11.6067
▁жесткости	-11.6067
▁социальным	-11.6067
▁федерального	-11.6067
▁гипергликемии	-11.6067
▁novo	-11.6067
▁cardioembolic	-11.6068
▁ЖКБ	-11.6068
ериод	-11.6068
▁dislocation	-11.6068
▁substitution	-11.6068
▁нейросенсорн	-11.6068
ought	-11.6068
▁incision	-11.6068
▁lifestyle	-11.6068
▁завершения	-11.6069
▁Peri	-11.6069
▁equi	-11.6069
▁myeloid	-11.6069
▁deposition	-11.6069
▁лечили	-11.6069
▁ECG	-11.6069
▁больному	-11.6069
▁выполнили	-11.607
▁American	-11.607
▁профилактику	-11.607
tetra	-11.607
▁abnormality	-11.6071
▁гастродуоден	-11.6071
▁Unit	-11.6071
▁Burden	-11.6071
quent	-11.6072
▁альфа	-11.6072
▁validated	-11.6072
вободнорадикальн	-11.6073
▁седации	-11.6074
▁биохимические	-11.6074
▁IBS	-11.6075
▁контактов	-11.6075
тремя	-11.6075
▁специалистами	-11.6076
▁сохраняется	-11.6076
▁anthropometric	-11.6077
▁sero	-11.6077
▁ситуационн	-11.6079
▁сте	-11.6079
▁спасти	-11.6079
▁filling	-11.6079
▁низкомолекулярн	-11.6079
▁Increase	-11.608
▁лимфома	-11.6081
▁overcome	-11.6081
▁секрета	-11.6082
сомни	-11.6082
▁Recently	-11.6085
▁сформированы	-11.6086
▁стратегия	-11.6086
▁детским	-11.6087
▁эволюции	-11.6087
▁рН	-11.6087
▁основыва	-11.6087
▁government	-11.6088
▁hydrochloride	-11.6088
▁эпилепсия	-11.6088
▁мишени	-11.6088
▁терапевтический	-11.6089
▁ions	-11.6089
▁микроскопа	-11.6089
▁managed	-11.6092
▁OR	-11.6092
▁Centre	-11.6092
▁Особенност	-11.6092
▁лептина	-11.6093
▁участках	-11.6093
icular	-11.6093
▁expanded	-11.6094
▁настоящ	-11.6095
▁stabilize	-11.6095
▁флоуметрии	-11.6097
▁антителами	-11.6098
▁GM	-11.6099
▁added	-11.61
▁очаги	-11.6102
borne	-11.6104
▁HD	-11.6105
▁остро	-11.6107
▁convulsi	-11.6107
▁curves	-11.6108
6</	-11.6108
▁патологическим	-11.611
▁lipoproteins	-11.6111
▁гистологическое	-11.6111
▁синуса	-11.6111
▁боев	-11.6112
▁hold	-11.6113
▁2002	-11.6114
▁подключичн	-11.6114
▁паховой	-11.6115
ПД	-11.6115
▁toxicological	-11.6115
▁driver	-11.6117
▁acetyl	-11.612
▁ведущим	-11.6123
▁rapidly	-11.6124
▁получаем	-11.6124
▁ограничение	-11.6124
исследовательск	-11.6126
▁stained	-11.6126
▁тесн	-11.6129
▁dysfunctions	-11.613
▁Clavien	-11.6131
▁подтип	-11.6131
▁ускорени	-11.6132
▁возникше	-11.6132
▁адаптивного	-11.6133
▁проекта	-11.6134
▁жидкостн	-11.6135
▁СРК	-11.6135
▁индивидуальные	-11.6136
▁ЛГ	-11.614
3,5	-11.6141
▁издани	-11.6143
▁loading	-11.6147
▁ХГС	-11.6148
▁ультраструктурн	-11.6148
▁снижена	-11.6149
▁oculo	-11.615
▁1,7	-11.6152
▁RNA	-11.6152
▁выделение	-11.6153
осстановительном	-11.6153
perinatal	-11.6154
▁compensated	-11.6154
▁закрытой	-11.6155
▁жалобы	-11.6156
▁splen	-11.6157
▁знания	-11.616
tia	-11.6162
▁(39	-11.6162
17)	-11.6163
▁примеры	-11.6163
инов	-11.6163
▁ССЗ	-11.6165
▁resolution	-11.6165
▁стоматологов	-11.6165
▁врожденн	-11.6166
▁induction	-11.6168
▁журнала	-11.6174
▁достижени	-11.6175
▁очаг	-11.6175
▁обусловлен	-11.6175
HS	-11.6176
7,5%	-11.6176
▁va	-11.6178
могли	-11.6181
▁часов	-11.6181
▁аутотранспланта	-11.6182
▁like	-11.6182
▁109	-11.6184
▁fe	-11.6184
▁пищеводн	-11.6189
▁compact	-11.6192
▁рядов	-11.6196
graphy	-11.6198
▁специально	-11.6199
▁106	-11.6202
▁MT	-11.6207
▁имплант	-11.6207
▁(68	-11.6208
▁изменениях	-11.6209
▁эпилептическ	-11.6211
▁124	-11.6211
MR	-11.6212
±0,4	-11.6212
онные	-11.6217
▁тональн	-11.6218
▁chains	-11.6223
▁Дол	-11.6226
▁platelets	-11.6231
▁паралича	-11.6232
▁aque	-11.6234
кост	-11.6236
▁возника	-11.6239
diagnostic	-11.6243
-21	-11.6246
cure	-11.6246
▁jaws	-11.6251
▁cycles	-11.6256
лина	-11.6265
▁NF	-11.6267
метод	-11.6278
▁МВ	-11.6279
▁масштаб	-11.628
▁ERG	-11.6285
minal	-11.6289
ehabilitation	-11.6289
▁matched	-11.6291
▁thoracoscop	-11.6292
ологического	-11.6295
▁GFR	-11.63
amin	-11.6302
▁lamin	-11.6303
▁CV	-11.6308
rad	-11.6311
▁Экспресси	-11.6313
КФ	-11.6316
негативн	-11.6318
сосудистые	-11.632
,2%.	-11.6321
отомия	-11.6322
▁bases	-11.6324
DC	-11.6328
▁КМ	-11.6329
[...]
